{
  "version": "1.0",
  "truncation": null,
  "padding": null,
  "added_tokens": [
    {
      "id": 0,
      "content": "<pad>",
      "single_word": false,
      "lstrip": false,
      "rstrip": false,
      "normalized": false,
      "special": true
    },
    {
      "id": 1,
      "content": "<unk>",
      "single_word": false,
      "lstrip": false,
      "rstrip": false,
      "normalized": false,
      "special": true
    },
    {
      "id": 2,
      "content": "<bos>",
      "single_word": false,
      "lstrip": false,
      "rstrip": false,
      "normalized": false,
      "special": true
    },
    {
      "id": 3,
      "content": "<eos>",
      "single_word": false,
      "lstrip": false,
      "rstrip": false,
      "normalized": false,
      "special": true
    },
    {
      "id": 4,
      "content": "<doc>",
      "single_word": false,
      "lstrip": false,
      "rstrip": false,
      "normalized": false,
      "special": true
    }
  ],
  "normalizer": null,
  "pre_tokenizer": {
    "type": "ByteLevel",
    "add_prefix_space": false,
    "trim_offsets": true,
    "use_regex": true
  },
  "post_processor": null,
  "decoder": {
    "type": "ByteLevel",
    "add_prefix_space": true,
    "trim_offsets": true,
    "use_regex": true
  },
  "model": {
    "type": "BPE",
    "dropout": null,
    "unk_token": "<unk>",
    "continuing_subword_prefix": null,
    "end_of_word_suffix": null,
    "fuse_unk": false,
    "byte_fallback": false,
    "ignore_merges": false,
    "vocab": {
      "<pad>": 0,
      "<unk>": 1,
      "<bos>": 2,
      "<eos>": 3,
      "<doc>": 4,
      "!": 5,
      "\"": 6,
      "#": 7,
      "$": 8,
      "%": 9,
      "&": 10,
      "'": 11,
      "(": 12,
      ")": 13,
      "*": 14,
      "+": 15,
      ",": 16,
      "-": 17,
      ".": 18,
      "/": 19,
      "0": 20,
      "1": 21,
      "2": 22,
      "3": 23,
      "4": 24,
      "5": 25,
      "6": 26,
      "7": 27,
      "8": 28,
      "9": 29,
      ":": 30,
      ";": 31,
      "<": 32,
      "=": 33,
      ">": 34,
      "?": 35,
      "@": 36,
      "A": 37,
      "B": 38,
      "C": 39,
      "D": 40,
      "E": 41,
      "F": 42,
      "G": 43,
      "H": 44,
      "I": 45,
      "J": 46,
      "K": 47,
      "L": 48,
      "M": 49,
      "N": 50,
      "O": 51,
      "P": 52,
      "Q": 53,
      "R": 54,
      "S": 55,
      "T": 56,
      "U": 57,
      "V": 58,
      "W": 59,
      "X": 60,
      "Y": 61,
      "Z": 62,
      "[": 63,
      "\\": 64,
      "]": 65,
      "^": 66,
      "_": 67,
      "`": 68,
      "a": 69,
      "b": 70,
      "c": 71,
      "d": 72,
      "e": 73,
      "f": 74,
      "g": 75,
      "h": 76,
      "i": 77,
      "j": 78,
      "k": 79,
      "l": 80,
      "m": 81,
      "n": 82,
      "o": 83,
      "p": 84,
      "q": 85,
      "r": 86,
      "s": 87,
      "t": 88,
      "u": 89,
      "v": 90,
      "w": 91,
      "x": 92,
      "y": 93,
      "z": 94,
      "{": 95,
      "|": 96,
      "}": 97,
      "~": 98,
      "¡": 99,
      "¢": 100,
      "£": 101,
      "¤": 102,
      "¥": 103,
      "¦": 104,
      "§": 105,
      "¨": 106,
      "©": 107,
      "ª": 108,
      "«": 109,
      "¬": 110,
      "®": 111,
      "¯": 112,
      "°": 113,
      "±": 114,
      "²": 115,
      "³": 116,
      "´": 117,
      "µ": 118,
      "¶": 119,
      "·": 120,
      "¸": 121,
      "¹": 122,
      "º": 123,
      "»": 124,
      "¼": 125,
      "½": 126,
      "¾": 127,
      "¿": 128,
      "À": 129,
      "Á": 130,
      "Â": 131,
      "Ã": 132,
      "Ä": 133,
      "Å": 134,
      "Æ": 135,
      "Ç": 136,
      "È": 137,
      "É": 138,
      "Ê": 139,
      "Ë": 140,
      "Ì": 141,
      "Í": 142,
      "Î": 143,
      "Ï": 144,
      "Ð": 145,
      "Ñ": 146,
      "Ò": 147,
      "Ó": 148,
      "Ô": 149,
      "Õ": 150,
      "Ö": 151,
      "×": 152,
      "Ø": 153,
      "Ù": 154,
      "Ú": 155,
      "Û": 156,
      "Ü": 157,
      "Ý": 158,
      "Þ": 159,
      "ß": 160,
      "à": 161,
      "á": 162,
      "â": 163,
      "ã": 164,
      "ä": 165,
      "å": 166,
      "æ": 167,
      "ç": 168,
      "è": 169,
      "é": 170,
      "ê": 171,
      "ë": 172,
      "ì": 173,
      "í": 174,
      "î": 175,
      "ï": 176,
      "ð": 177,
      "ñ": 178,
      "ò": 179,
      "ó": 180,
      "ô": 181,
      "õ": 182,
      "ö": 183,
      "÷": 184,
      "ø": 185,
      "ù": 186,
      "ú": 187,
      "û": 188,
      "ü": 189,
      "ý": 190,
      "þ": 191,
      "ÿ": 192,
      "Ā": 193,
      "ā": 194,
      "Ă": 195,
      "ă": 196,
      "Ą": 197,
      "ą": 198,
      "Ć": 199,
      "ć": 200,
      "Ĉ": 201,
      "ĉ": 202,
      "Ċ": 203,
      "ċ": 204,
      "Č": 205,
      "č": 206,
      "Ď": 207,
      "ď": 208,
      "Đ": 209,
      "đ": 210,
      "Ē": 211,
      "ē": 212,
      "Ĕ": 213,
      "ĕ": 214,
      "Ė": 215,
      "ė": 216,
      "Ę": 217,
      "ę": 218,
      "Ě": 219,
      "ě": 220,
      "Ĝ": 221,
      "ĝ": 222,
      "Ğ": 223,
      "ğ": 224,
      "Ġ": 225,
      "ġ": 226,
      "Ģ": 227,
      "ģ": 228,
      "Ĥ": 229,
      "ĥ": 230,
      "Ħ": 231,
      "ħ": 232,
      "Ĩ": 233,
      "ĩ": 234,
      "Ī": 235,
      "ī": 236,
      "Ĭ": 237,
      "ĭ": 238,
      "Į": 239,
      "į": 240,
      "İ": 241,
      "ı": 242,
      "Ĳ": 243,
      "ĳ": 244,
      "Ĵ": 245,
      "ĵ": 246,
      "Ķ": 247,
      "ķ": 248,
      "ĸ": 249,
      "Ĺ": 250,
      "ĺ": 251,
      "Ļ": 252,
      "ļ": 253,
      "Ľ": 254,
      "ľ": 255,
      "Ŀ": 256,
      "ŀ": 257,
      "Ł": 258,
      "ł": 259,
      "Ń": 260,
      "Ġt": 261,
      "Ġa": 262,
      "he": 263,
      "re": 264,
      "at": 265,
      "on": 266,
      "in": 267,
      "Ġc": 268,
      "Ġs": 269,
      "er": 270,
      "Ġthe": 271,
      "Ġw": 272,
      "es": 273,
      "en": 274,
      "an": 275,
      "or": 276,
      "ou": 277,
      "ed": 278,
      "Ġre": 279,
      "Ġm": 280,
      "Ġb": 281,
      "ion": 282,
      "Ġan": 283,
      "it": 284,
      "ar": 285,
      "Ġd": 286,
      "Ġp": 287,
      "Ġe": 288,
      "ing": 289,
      "le": 290,
      "Ġf": 291,
      "Ġn": 292,
      "al": 293,
      "is": 294,
      "om": 295,
      "id": 296,
      "us": 297,
      "ct": 298,
      "ent": 299,
      "Ġo": 300,
      "Ġth": 301,
      "Ġand": 302,
      "ation": 303,
      "Ġto": 304,
      "The": 305,
      "ce": 306,
      "Ġin": 307,
      "ot": 308,
      "as": 309,
      "et": 310,
      "li": 311,
      "ĠThe": 312,
      "ro": 313,
      "ĠA": 314,
      "Ġev": 315,
      "il": 316,
      "Ġthat": 317,
      "out": 318,
      "Ġbe": 319,
      "ith": 320,
      "ic": 321,
      "Ġwith": 322,
      "Ġcon": 323,
      "ut": 324,
      "Ġnot": 325,
      "ect": 326,
      "Ġch": 327,
      "Ġsu": 328,
      "ld": 329,
      "ul": 330,
      "Ġcom": 331,
      "Ġex": 332,
      "Ġof": 333,
      "Ġwh": 334,
      "pl": 335,
      "Ġis": 336,
      "im": 337,
      "ang": 338,
      "am": 339,
      "Ġl": 340,
      "Ġpro": 341,
      "pp": 342,
      "Ġst": 343,
      "ord": 344,
      "ter": 345,
      "ould": 346,
      "Ġg": 347,
      "ad": 348,
      "oun": 349,
      "use": 350,
      "Ġne": 351,
      "ol": 352,
      "Ġchang": 353,
      "Ġon": 354,
      "ow": 355,
      "Ġh": 356,
      "ore": 357,
      "her": 358,
      "un": 359,
      "ra": 360,
      "Ġcomp": 361,
      "ly": 362,
      "ip": 363,
      "Ġme": 364,
      "ence": 365,
      "are": 366,
      "ide": 367,
      "ir": 368,
      "ate": 369,
      "qu": 370,
      "ail": 371,
      "Ġfr": 372,
      "Ġsh": 373,
      "Ġit": 374,
      "ur": 375,
      "ble": 376,
      "st": 377,
      "Ġdet": 378,
      "est": 379,
      "Ġexpl": 380,
      "gh": 381,
      "Ġdetail": 382,
      "idence": 383,
      "Ġevidence": 384,
      "ure": 385,
      "Ġbut": 386,
      "Ġma": 387,
      "Ġfrom": 388,
      "os": 389,
      "Ġob": 390,
      "Ġcan": 391,
      "ant": 392,
      "ations": 393,
      "ject": 394,
      "ch": 395,
      "ere": 396,
      "Ġhe": 397,
      "ca": 398,
      "Ġor": 399,
      "oo": 400,
      "if": 401,
      "Ġas": 402,
      "ve": 403,
      "Ġal": 404,
      "ri": 405,
      "Ġun": 406,
      "Ġwas": 407,
      "ag": 408,
      "ater": 409,
      "arb": 410,
      "Ġab": 411,
      "Ġres": 412,
      "ain": 413,
      "Ġwithout": 414,
      "fore": 415,
      "ess": 416,
      "arby": 417,
      "Ġrel": 418,
      "Ġfor": 419,
      "Ġcl": 420,
      "ound": 421,
      "cause": 422,
      "nce": 423,
      "Ġdo": 424,
      "Ġwhe": 425,
      "sw": 426,
      "Ġansw": 427,
      "Ġevent": 428,
      "Ġanswer": 429,
      "ver": 430,
      "Ġrec": 431,
      "Ġde": 432,
      "Ġabout": 433,
      "Ġchange": 434,
      "cc": 435,
      "Ġr": 436,
      "ated": 437,
      "em": 438,
      "Ġbecause": 439,
      "ult": 440,
      "fere": 441,
      "ong": 442,
      "Ġapp": 443,
      "hip": 444,
      "able": 445,
      "lev": 446,
      "Ġwould": 447,
      "Ġrelations": 448,
      "iz": 449,
      "Ġrelationship": 450,
      "levant": 451,
      "all": 452,
      "ke": 453,
      "ary": 454,
      "lus": 455,
      "ck": 456,
      "Ġide": 457,
      "Ġidea": 458,
      "ĠI": 459,
      "rou": 460,
      "Ġone": 461,
      "el": 462,
      "vi": 463,
      "ght": 464,
      "ple": 465,
      "Ġout": 466,
      "used": 467,
      "ile": 468,
      "Ġ\"": 469,
      "Ġqu": 470,
      "ction": 471,
      "Ġcent": 472,
      "ep": 473,
      "te": 474,
      "Ġexplan": 475,
      "Ġexplanation": 476,
      "Ġpre": 477,
      "Ġshould": 478,
      "low": 479,
      "Ġuse": 480,
      "ature": 481,
      "ome": 482,
      "ort": 483,
      "one": 484,
      "ook": 485,
      "Ġobject": 486,
      "ful": 487,
      "Ġli": 488,
      "ference": 489,
      "ment": 490,
      "ates": 491,
      "Ġwhat": 492,
      "Ġpl": 493,
      "hat": 494,
      "ident": 495,
      "ral": 496,
      "Ġcentral": 497,
      "Ġnearby": 498,
      "lp": 499,
      "fter": 500,
      "Ġhelp": 501,
      "ser": 502,
      "Ġsupp": 503,
      "ial": 504,
      "ity": 505,
      "gn": 506,
      "Ġident": 507,
      "ĠF": 508,
      "nect": 509,
      "Ġconnect": 510,
      "Ġca": 511,
      "ĠN": 512,
      "Ġwhen": 513,
      "Ġpar": 514,
      "xt": 515,
      "Ġwhile": 516,
      "ens": 517,
      "Ġdes": 518,
      "Ġuseful": 519,
      "ition": 520,
      "Ġresult": 521,
      "ount": 522,
      "Ġse": 523,
      "per": 524,
      "ĠT": 525,
      "Ġmo": 526,
      "ĠS": 527,
      "Ġobjects": 528,
      "Ġat": 529,
      "ine": 530,
      "ved": 531,
      "ĠB": 532,
      "ory": 533,
      "Ġtr": 534,
      "ies": 535,
      "ĠO": 536,
      "Ġso": 537,
      "Ġexplain": 538,
      "gr": 539,
      "Ġinst": 540,
      "Ġsa": 541,
      "ical": 542,
      "ves": 543,
      "Ġord": 544,
      "Ġdesc": 545,
      "Ġrelationships": 546,
      "urn": 547,
      "Ġchanging": 548,
      "Ġobser": 549,
      "ack": 550,
      "Ġrelevant": 551,
      "Ġword": 552,
      "Ġconc": 553,
      "Ġrep": 554,
      "Ġthey": 555,
      "etw": 556,
      "ared": 557,
      "ud": 558,
      "ame": 559,
      "end": 560,
      "ving": 561,
      "ces": 562,
      "ĠNe": 563,
      "Ġwater": 564,
      "roup": 565,
      "Ġfe": 566,
      "come": 567,
      "ollow": 568,
      "Ġobserv": 569,
      "Ġfollow": 570,
      ",\"": 571,
      "Ġgroup": 572,
      "ork": 573,
      "Ġthis": 574,
      "ather": 575,
      "uter": 576,
      "Ġcompar": 577,
      "lied": 578,
      "Ġcomputer": 579,
      "ating": 580,
      "Ġalone": 581,
      "age": 582,
      "Ġthan": 583,
      "Ġoutcome": 584,
      "Ġappe": 585,
      "Ġproc": 586,
      "tr": 587,
      "Ġback": 588,
      "Ġacc": 589,
      "Ġdoes": 590,
      "ab": 591,
      "ison": 592,
      "Ġdis": 593,
      "estion": 594,
      "ts": 595,
      "Ġcomparison": 596,
      "Ġquestion": 597,
      "ested": 598,
      "ade": 599,
      "Ġsp": 600,
      "Ġdetails": 601,
      "ff": 602,
      "ener": 603,
      "Ġrecord": 604,
      "Ġtim": 605,
      "ize": 606,
      "Ġbefore": 607,
      "Ġidentif": 608,
      "ard": 609,
      "lusion": 610,
      "Ġconclusion": 611,
      "ci": 612,
      "Ġused": 613,
      "and": 614,
      "Ġdif": 615,
      "Ġafter": 616,
      "epar": 617,
      "Ġsaid": 618,
      "ĠThat": 619,
      "Ġdef": 620,
      "ap": 621,
      "Ġcall": 622,
      "Ġreference": 623,
      "ay": 624,
      "atter": 625,
      "Ġfeature": 626,
      "ace": 627,
      "orm": 628,
      "Ġmake": 629,
      "Ġdi": 630,
      "ery": 631,
      "ood": 632,
      "ead": 633,
      "Ġins": 634,
      "Ġcla": 635,
      "ose": 636,
      "Ġsupplied": 637,
      "to": 638,
      "Ġag": 639,
      "form": 640,
      "Ġrather": 641,
      "um": 642,
      "oth": 643,
      "ill": 644,
      "Ġinv": 645,
      "ust": 646,
      "Ġevery": 647,
      "rib": 648,
      "Ġocc": 649,
      "Ġmade": 650,
      "ĠC": 651,
      "gan": 652,
      "Ġinstead": 653,
      "ew": 654,
      "ass": 655,
      "Ġret": 656,
      "ers": 657,
      "lies": 658,
      "onger": 659,
      "Ġstr": 660,
      "lying": 661,
      "Ġrelying": 662,
      "Ġer": 663,
      "ich": 664,
      "Ġeff": 665,
      "up": 666,
      "ue": 667,
      "ying": 668,
      "illus": 669,
      "Ġillus": 670,
      "Ġillustr": 671,
      "Ġsub": 672,
      "Ġman": 673,
      "oin": 674,
      "Ġsit": 675,
      "du": 676,
      "eb": 677,
      "Ġwhich": 678,
      "ĠW": 679,
      "ally": 680,
      "Ġtrying": 681,
      "ne": 682,
      "Ġprocess": 683,
      "Ġagre": 684,
      "Ġorgan": 685,
      "Ġmeas": 686,
      "ther": 687,
      "Ġreco": 688,
      "rel": 689,
      "Ġnoteb": 690,
      "Ġnotebook": 691,
      "Ġstate": 692,
      "gy": 693,
      "ons": 694,
      "Ġplan": 695,
      "Ġam": 696,
      "Ġsound": 697,
      "ism": 698,
      "Ġmore": 699,
      "Ġsitu": 700,
      "ight": 701,
      "Ġir": 702,
      "ph": 703,
      "Ġclaim": 704,
      "Ġrecogn": 705,
      "text": 706,
      "Ġcontext": 707,
      "ase": 708,
      "Ġtheir": 709,
      "gory": 710,
      "Ġcate": 711,
      "get": 712,
      "Ġcategory": 713,
      "Ġoccur": 714,
      "Ġy": 715,
      "Ġcomm": 716,
      "oint": 717,
      "view": 718,
      "Ġreturn": 719,
      "pos": 720,
      "Ġconnects": 721,
      "Ġirre": 722,
      "Ġener": 723,
      "ĠAn": 724,
      "Ġenergy": 725,
      "Ġmust": 726,
      "act": 727,
      "Ġcaus": 728,
      "Ġph": 729,
      "aterial": 730,
      "Ġmaterial": 731,
      "Ġmean": 732,
      "Ġmany": 733,
      "gin": 734,
      "Ġsuch": 735,
      "Ġaccount": 736,
      "ible": 737,
      "ond": 738,
      "Ġle": 739,
      "Ġsur": 740,
      "olving": 741,
      "ized": 742,
      "âĢ": 743,
      "ground": 744,
      "Ġear": 745,
      "Ġsame": 746,
      "der": 747,
      "Ġapplies": 748,
      "Ġdescrib": 749,
      "eo": 750,
      "Ġexam": 751,
      "ware": 752,
      "Ġinvolving": 753,
      "Ġwr": 754,
      "ication": 755,
      "Ġits": 756,
      "Ġrecorded": 757,
      "ither": 758,
      "lic": 759,
      "Ġequ": 760,
      "Ġthere": 761,
      "ili": 762,
      "Ġha": 763,
      "Ġreli": 764,
      "amili": 765,
      "amiliar": 766,
      "Ġproved": 767,
      "Ġcommun": 768,
      "Ġneither": 769,
      "Ġmatter": 770,
      "raph": 771,
      "Ġirrelevant": 772,
      "ason": 773,
      "our": 774,
      "own": 775,
      "eparating": 776,
      "Ġstronger": 777,
      "Ġreliable": 778,
      "Ġbackground": 779,
      "Ġagrees": 780,
      "efore": 781,
      "ĠSeparating": 782,
      "related": 783,
      "Ġunrelated": 784,
      "Ġappeared": 785,
      "ft": 786,
      "place": 787,
      "Ġunder": 788,
      "Ġche": 789,
      "ks": 790,
      "ĠNearby": 791,
      "Ġreplace": 792,
      "Ġview": 793,
      "ĠIt": 794,
      "ish": 795,
      "ss": 796,
      "emper": 797,
      "emperature": 798,
      "Ġillustrates": 799,
      "Ġsubject": 800,
      "Ġv": 801,
      "Ġbes": 802,
      "Ġinto": 803,
      "Ġbeside": 804,
      "Ġreason": 805,
      "Ġdown": 806,
      "Ġby": 807,
      "rough": 808,
      "Ġconnected": 809,
      "een": 810,
      "Ġcomple": 811,
      "Ġpart": 812,
      "irst": 813,
      "Ġthrough": 814,
      "agraph": 815,
      "Ġparagraph": 816,
      "yc": 817,
      "eople": 818,
      "Ġtemperature": 819,
      "ath": 820,
      "etween": 821,
      "Ġbetween": 822,
      "Ġcompare": 823,
      "Ġgu": 824,
      "Ġper": 825,
      "Ġsm": 826,
      "inary": 827,
      "ber": 828,
      "rely": 829,
      "ind": 830,
      "Ġus": 831,
      "Ġordinary": 832,
      "posed": 833,
      "Ġobservation": 834,
      "Ġsens": 835,
      "ctions": 836,
      "Ġsim": 837,
      "Ġmeasure": 838,
      "Ġmerely": 839,
      "Ġrequ": 840,
      "Ġcal": 841,
      "Ġdifference": 842,
      "ions": 843,
      "Ġpr": 844,
      "ĠThey": 845,
      "anism": 846,
      "Ġlo": 847,
      "th": 848,
      "cep": 849,
      "Ġmight": 850,
      "Ġwhy": 851,
      "ĠAs": 852,
      "ords": 853,
      "Ġmatters": 854,
      "Ġeffort": 855,
      "Ġstill": 856,
      "rip": 857,
      "Ġmech": 858,
      "Ġra": 859,
      "Ġcomplete": 860,
      "Ġpath": 861,
      "ĠWords": 862,
      "udget": 863,
      "Ġbudget": 864,
      "Ġreturning": 865,
      "ote": 866,
      "Ġtherefore": 867,
      "Ġwork": 868,
      "Ġmeasurement": 869,
      "Ġdog": 870,
      "tion": 871,
      "Ġcaused": 872,
      "ive": 873,
      "Ġad": 874,
      "Ġidentify": 875,
      "old": 876,
      "Ġneed": 877,
      "Ġcould": 878,
      "So": 879,
      "row": 880,
      "Ġmechanism": 881,
      "Ġsense": 882,
      "Ġdescribe": 883,
      "Ġcausing": 884,
      "Ġproposed": 885,
      "ting": 886,
      "What": 887,
      "Ġviewp": 888,
      "Ġfact": 889,
      "Ġfollowed": 890,
      "Ġpeople": 891,
      "lication": 892,
      "ist": 893,
      "ym": 894,
      "Ġspat": 895,
      "Ġwrote": 896,
      "Ġspatial": 897,
      "gg": 898,
      "arg": 899,
      "Ġgroups": 900,
      "?\"": 901,
      "Ġfamiliar": 902,
      "sent": 903,
      "Ġdid": 904,
      "Ġresp": 905,
      "Ġalter": 906,
      "Ġboth": 907,
      "als": 908,
      "Ġlab": 909,
      "di": 910,
      "od": 911,
      "Ġlabel": 912,
      "ror": 913,
      "ach": 914,
      "Ġamong": 915,
      "Ġerror": 916,
      "Ġk": 917,
      "Ġcalled": 918,
      "Ġcook": 919,
      "ultip": 920,
      "Ġexample": 921,
      "ultiplication": 922,
      "Ġcont": 923,
      "Ġconcep": 924,
      "ĠM": 925,
      "Ġearli": 926,
      "Ġare": 927,
      "ĠOne": 928,
      "formation": 929,
      "Ġdat": 930,
      "Ġinter": 931,
      "Ġviewpoint": 932,
      "Ġearlier": 933,
      "Ġinformation": 934,
      "Ġrequested": 935,
      "Ġrespons": 936,
      "Ġar": 937,
      "Ġinside": 938,
      "veral": 939,
      "Ġorder": 940,
      "Ġdescrip": 941,
      "Ġro": 942,
      "Ġset": 943,
      "etwork": 944,
      "Ġrepe": 945,
      "Ġnetwork": 946,
      "Ġsugg": 947,
      "Ġtra": 948,
      "yond": 949,
      "Ġisol": 950,
      "Ġbeyond": 951,
      "Ġchanged": 952,
      "Ġisolated": 953,
      "Ġmap": 954,
      "Ġsuggested": 955,
      "Ġclue": 956,
      "Ġrecognized": 957,
      "ĠOnce": 958,
      "Ġguess": 959,
      "cipl": 960,
      "Ġguessing": 961,
      "Ġact": 962,
      "Ġdescription": 963,
      "Ġpartic": 964,
      "Ġsmall": 965,
      "ĠBefore": 966,
      "Ġdiscipl": 967,
      "Ġdiscipline": 968,
      "Ġdefens": 969,
      "eline": 970,
      "Ġresponse": 971,
      "Ġtimeline": 972,
      "Ġdefensible": 973,
      "Ġnum": 974,
      "pre": 975,
      "Ġread": 976,
      "Ġmultiplication": 977,
      "br": 978,
      "entions": 979,
      "Ġhelps": 980,
      "Ġpresent": 981,
      "les": 982,
      "Ġlater": 983,
      "Ġhapp": 984,
      "Ġmay": 985,
      "Ġsurvi": 986,
      "air": 987,
      "ities": 988,
      "Ġplant": 989,
      "Ġitem": 990,
      "igh": 991,
      "ification": 992,
      "Ġsome": 993,
      "assification": 994,
      "Ġfood": 995,
      "Ġmem": 996,
      "Ġuses": 997,
      "endar": 998,
      "Ġsupport": 999,
      "Ġcalendar": 1000,
      "op": 1001,
      "Ġlight": 1002,
      "Ġorganize": 1003,
      "Ġseveral": 1004,
      "Ġdefin": 1005,
      "Ġdire": 1006,
      "Ġsimple": 1007,
      "Ġmemory": 1008,
      "dition": 1009,
      "nt": 1010,
      "Ġprocessor": 1011,
      "Ġdefinition": 1012,
      "xim": 1013,
      "ages": 1014,
      "Ġass": 1015,
      "ĠThen": 1016,
      "ink": 1017,
      "Ġturn": 1018,
      "ĠR": 1019,
      "inally": 1020,
      "Ġmeans": 1021,
      "ract": 1022,
      "Ġwhether": 1023
    },
    "merges": [
      [
        "Ġ",
        "t"
      ],
      [
        "Ġ",
        "a"
      ],
      [
        "h",
        "e"
      ],
      [
        "r",
        "e"
      ],
      [
        "a",
        "t"
      ],
      [
        "o",
        "n"
      ],
      [
        "i",
        "n"
      ],
      [
        "Ġ",
        "c"
      ],
      [
        "Ġ",
        "s"
      ],
      [
        "e",
        "r"
      ],
      [
        "Ġt",
        "he"
      ],
      [
        "Ġ",
        "w"
      ],
      [
        "e",
        "s"
      ],
      [
        "e",
        "n"
      ],
      [
        "a",
        "n"
      ],
      [
        "o",
        "r"
      ],
      [
        "o",
        "u"
      ],
      [
        "e",
        "d"
      ],
      [
        "Ġ",
        "re"
      ],
      [
        "Ġ",
        "m"
      ],
      [
        "Ġ",
        "b"
      ],
      [
        "i",
        "on"
      ],
      [
        "Ġa",
        "n"
      ],
      [
        "i",
        "t"
      ],
      [
        "a",
        "r"
      ],
      [
        "Ġ",
        "d"
      ],
      [
        "Ġ",
        "p"
      ],
      [
        "Ġ",
        "e"
      ],
      [
        "in",
        "g"
      ],
      [
        "l",
        "e"
      ],
      [
        "Ġ",
        "f"
      ],
      [
        "Ġ",
        "n"
      ],
      [
        "a",
        "l"
      ],
      [
        "i",
        "s"
      ],
      [
        "o",
        "m"
      ],
      [
        "i",
        "d"
      ],
      [
        "u",
        "s"
      ],
      [
        "c",
        "t"
      ],
      [
        "en",
        "t"
      ],
      [
        "Ġ",
        "o"
      ],
      [
        "Ġt",
        "h"
      ],
      [
        "Ġan",
        "d"
      ],
      [
        "at",
        "ion"
      ],
      [
        "Ġt",
        "o"
      ],
      [
        "T",
        "he"
      ],
      [
        "c",
        "e"
      ],
      [
        "Ġ",
        "in"
      ],
      [
        "o",
        "t"
      ],
      [
        "a",
        "s"
      ],
      [
        "e",
        "t"
      ],
      [
        "l",
        "i"
      ],
      [
        "Ġ",
        "The"
      ],
      [
        "r",
        "o"
      ],
      [
        "Ġ",
        "A"
      ],
      [
        "Ġe",
        "v"
      ],
      [
        "i",
        "l"
      ],
      [
        "Ġth",
        "at"
      ],
      [
        "ou",
        "t"
      ],
      [
        "Ġb",
        "e"
      ],
      [
        "it",
        "h"
      ],
      [
        "i",
        "c"
      ],
      [
        "Ġw",
        "ith"
      ],
      [
        "Ġc",
        "on"
      ],
      [
        "u",
        "t"
      ],
      [
        "Ġn",
        "ot"
      ],
      [
        "e",
        "ct"
      ],
      [
        "Ġc",
        "h"
      ],
      [
        "Ġs",
        "u"
      ],
      [
        "l",
        "d"
      ],
      [
        "u",
        "l"
      ],
      [
        "Ġc",
        "om"
      ],
      [
        "Ġe",
        "x"
      ],
      [
        "Ġo",
        "f"
      ],
      [
        "Ġw",
        "h"
      ],
      [
        "p",
        "l"
      ],
      [
        "Ġ",
        "is"
      ],
      [
        "i",
        "m"
      ],
      [
        "an",
        "g"
      ],
      [
        "a",
        "m"
      ],
      [
        "Ġ",
        "l"
      ],
      [
        "Ġp",
        "ro"
      ],
      [
        "p",
        "p"
      ],
      [
        "Ġs",
        "t"
      ],
      [
        "or",
        "d"
      ],
      [
        "t",
        "er"
      ],
      [
        "ou",
        "ld"
      ],
      [
        "Ġ",
        "g"
      ],
      [
        "a",
        "d"
      ],
      [
        "ou",
        "n"
      ],
      [
        "us",
        "e"
      ],
      [
        "Ġn",
        "e"
      ],
      [
        "o",
        "l"
      ],
      [
        "Ġch",
        "ang"
      ],
      [
        "Ġ",
        "on"
      ],
      [
        "o",
        "w"
      ],
      [
        "Ġ",
        "h"
      ],
      [
        "o",
        "re"
      ],
      [
        "he",
        "r"
      ],
      [
        "u",
        "n"
      ],
      [
        "r",
        "a"
      ],
      [
        "Ġcom",
        "p"
      ],
      [
        "l",
        "y"
      ],
      [
        "i",
        "p"
      ],
      [
        "Ġm",
        "e"
      ],
      [
        "en",
        "ce"
      ],
      [
        "a",
        "re"
      ],
      [
        "id",
        "e"
      ],
      [
        "i",
        "r"
      ],
      [
        "at",
        "e"
      ],
      [
        "q",
        "u"
      ],
      [
        "a",
        "il"
      ],
      [
        "Ġf",
        "r"
      ],
      [
        "Ġs",
        "h"
      ],
      [
        "Ġ",
        "it"
      ],
      [
        "u",
        "r"
      ],
      [
        "b",
        "le"
      ],
      [
        "s",
        "t"
      ],
      [
        "Ġd",
        "et"
      ],
      [
        "es",
        "t"
      ],
      [
        "Ġex",
        "pl"
      ],
      [
        "g",
        "h"
      ],
      [
        "Ġdet",
        "ail"
      ],
      [
        "id",
        "ence"
      ],
      [
        "Ġev",
        "idence"
      ],
      [
        "u",
        "re"
      ],
      [
        "Ġb",
        "ut"
      ],
      [
        "Ġm",
        "a"
      ],
      [
        "Ġfr",
        "om"
      ],
      [
        "o",
        "s"
      ],
      [
        "Ġo",
        "b"
      ],
      [
        "Ġc",
        "an"
      ],
      [
        "an",
        "t"
      ],
      [
        "ation",
        "s"
      ],
      [
        "j",
        "ect"
      ],
      [
        "c",
        "h"
      ],
      [
        "e",
        "re"
      ],
      [
        "Ġ",
        "he"
      ],
      [
        "c",
        "a"
      ],
      [
        "Ġ",
        "or"
      ],
      [
        "o",
        "o"
      ],
      [
        "i",
        "f"
      ],
      [
        "Ġa",
        "s"
      ],
      [
        "v",
        "e"
      ],
      [
        "Ġa",
        "l"
      ],
      [
        "r",
        "i"
      ],
      [
        "Ġ",
        "un"
      ],
      [
        "Ġw",
        "as"
      ],
      [
        "a",
        "g"
      ],
      [
        "at",
        "er"
      ],
      [
        "ar",
        "b"
      ],
      [
        "Ġa",
        "b"
      ],
      [
        "Ġre",
        "s"
      ],
      [
        "a",
        "in"
      ],
      [
        "Ġwith",
        "out"
      ],
      [
        "f",
        "ore"
      ],
      [
        "es",
        "s"
      ],
      [
        "arb",
        "y"
      ],
      [
        "Ġre",
        "l"
      ],
      [
        "Ġf",
        "or"
      ],
      [
        "Ġc",
        "l"
      ],
      [
        "oun",
        "d"
      ],
      [
        "ca",
        "use"
      ],
      [
        "n",
        "ce"
      ],
      [
        "Ġd",
        "o"
      ],
      [
        "Ġw",
        "he"
      ],
      [
        "s",
        "w"
      ],
      [
        "Ġan",
        "sw"
      ],
      [
        "Ġev",
        "ent"
      ],
      [
        "Ġansw",
        "er"
      ],
      [
        "v",
        "er"
      ],
      [
        "Ġre",
        "c"
      ],
      [
        "Ġd",
        "e"
      ],
      [
        "Ġab",
        "out"
      ],
      [
        "Ġchang",
        "e"
      ],
      [
        "c",
        "c"
      ],
      [
        "Ġ",
        "r"
      ],
      [
        "at",
        "ed"
      ],
      [
        "e",
        "m"
      ],
      [
        "Ġbe",
        "cause"
      ],
      [
        "ul",
        "t"
      ],
      [
        "f",
        "ere"
      ],
      [
        "on",
        "g"
      ],
      [
        "Ġa",
        "pp"
      ],
      [
        "h",
        "ip"
      ],
      [
        "a",
        "ble"
      ],
      [
        "le",
        "v"
      ],
      [
        "Ġw",
        "ould"
      ],
      [
        "Ġrel",
        "ations"
      ],
      [
        "i",
        "z"
      ],
      [
        "Ġrelations",
        "hip"
      ],
      [
        "lev",
        "ant"
      ],
      [
        "al",
        "l"
      ],
      [
        "k",
        "e"
      ],
      [
        "ar",
        "y"
      ],
      [
        "l",
        "us"
      ],
      [
        "c",
        "k"
      ],
      [
        "Ġ",
        "ide"
      ],
      [
        "Ġide",
        "a"
      ],
      [
        "Ġ",
        "I"
      ],
      [
        "r",
        "ou"
      ],
      [
        "Ġon",
        "e"
      ],
      [
        "e",
        "l"
      ],
      [
        "v",
        "i"
      ],
      [
        "gh",
        "t"
      ],
      [
        "p",
        "le"
      ],
      [
        "Ġ",
        "out"
      ],
      [
        "us",
        "ed"
      ],
      [
        "i",
        "le"
      ],
      [
        "Ġ",
        "\""
      ],
      [
        "Ġ",
        "qu"
      ],
      [
        "ct",
        "ion"
      ],
      [
        "Ġc",
        "ent"
      ],
      [
        "e",
        "p"
      ],
      [
        "t",
        "e"
      ],
      [
        "Ġexpl",
        "an"
      ],
      [
        "Ġexplan",
        "ation"
      ],
      [
        "Ġp",
        "re"
      ],
      [
        "Ġsh",
        "ould"
      ],
      [
        "l",
        "ow"
      ],
      [
        "Ġ",
        "use"
      ],
      [
        "at",
        "ure"
      ],
      [
        "om",
        "e"
      ],
      [
        "or",
        "t"
      ],
      [
        "on",
        "e"
      ],
      [
        "oo",
        "k"
      ],
      [
        "Ġob",
        "ject"
      ],
      [
        "f",
        "ul"
      ],
      [
        "Ġ",
        "li"
      ],
      [
        "fere",
        "nce"
      ],
      [
        "m",
        "ent"
      ],
      [
        "at",
        "es"
      ],
      [
        "Ġwh",
        "at"
      ],
      [
        "Ġp",
        "l"
      ],
      [
        "h",
        "at"
      ],
      [
        "id",
        "ent"
      ],
      [
        "r",
        "al"
      ],
      [
        "Ġcent",
        "ral"
      ],
      [
        "Ġne",
        "arby"
      ],
      [
        "l",
        "p"
      ],
      [
        "f",
        "ter"
      ],
      [
        "Ġhe",
        "lp"
      ],
      [
        "s",
        "er"
      ],
      [
        "Ġsu",
        "pp"
      ],
      [
        "i",
        "al"
      ],
      [
        "it",
        "y"
      ],
      [
        "g",
        "n"
      ],
      [
        "Ġ",
        "ident"
      ],
      [
        "Ġ",
        "F"
      ],
      [
        "n",
        "ect"
      ],
      [
        "Ġcon",
        "nect"
      ],
      [
        "Ġc",
        "a"
      ],
      [
        "Ġ",
        "N"
      ],
      [
        "Ġwhe",
        "n"
      ],
      [
        "Ġp",
        "ar"
      ],
      [
        "x",
        "t"
      ],
      [
        "Ġwh",
        "ile"
      ],
      [
        "en",
        "s"
      ],
      [
        "Ġd",
        "es"
      ],
      [
        "Ġuse",
        "ful"
      ],
      [
        "it",
        "ion"
      ],
      [
        "Ġres",
        "ult"
      ],
      [
        "oun",
        "t"
      ],
      [
        "Ġs",
        "e"
      ],
      [
        "p",
        "er"
      ],
      [
        "Ġ",
        "T"
      ],
      [
        "Ġm",
        "o"
      ],
      [
        "Ġ",
        "S"
      ],
      [
        "Ġobject",
        "s"
      ],
      [
        "Ġa",
        "t"
      ],
      [
        "in",
        "e"
      ],
      [
        "v",
        "ed"
      ],
      [
        "Ġ",
        "B"
      ],
      [
        "or",
        "y"
      ],
      [
        "Ġt",
        "r"
      ],
      [
        "i",
        "es"
      ],
      [
        "Ġ",
        "O"
      ],
      [
        "Ġs",
        "o"
      ],
      [
        "Ġexpl",
        "ain"
      ],
      [
        "g",
        "r"
      ],
      [
        "Ġin",
        "st"
      ],
      [
        "Ġs",
        "a"
      ],
      [
        "ic",
        "al"
      ],
      [
        "v",
        "es"
      ],
      [
        "Ġ",
        "ord"
      ],
      [
        "Ġdes",
        "c"
      ],
      [
        "Ġrelationship",
        "s"
      ],
      [
        "ur",
        "n"
      ],
      [
        "Ġchang",
        "ing"
      ],
      [
        "Ġob",
        "ser"
      ],
      [
        "a",
        "ck"
      ],
      [
        "Ġre",
        "levant"
      ],
      [
        "Ġw",
        "ord"
      ],
      [
        "Ġcon",
        "c"
      ],
      [
        "Ġre",
        "p"
      ],
      [
        "Ġthe",
        "y"
      ],
      [
        "et",
        "w"
      ],
      [
        "are",
        "d"
      ],
      [
        "u",
        "d"
      ],
      [
        "am",
        "e"
      ],
      [
        "en",
        "d"
      ],
      [
        "v",
        "ing"
      ],
      [
        "c",
        "es"
      ],
      [
        "ĠN",
        "e"
      ],
      [
        "Ġw",
        "ater"
      ],
      [
        "rou",
        "p"
      ],
      [
        "Ġf",
        "e"
      ],
      [
        "c",
        "ome"
      ],
      [
        "ol",
        "low"
      ],
      [
        "Ġobser",
        "v"
      ],
      [
        "Ġf",
        "ollow"
      ],
      [
        ",",
        "\""
      ],
      [
        "Ġg",
        "roup"
      ],
      [
        "or",
        "k"
      ],
      [
        "Ġth",
        "is"
      ],
      [
        "at",
        "her"
      ],
      [
        "ut",
        "er"
      ],
      [
        "Ġcomp",
        "ar"
      ],
      [
        "li",
        "ed"
      ],
      [
        "Ġcomp",
        "uter"
      ],
      [
        "at",
        "ing"
      ],
      [
        "Ġal",
        "one"
      ],
      [
        "ag",
        "e"
      ],
      [
        "Ġth",
        "an"
      ],
      [
        "Ġout",
        "come"
      ],
      [
        "Ġapp",
        "e"
      ],
      [
        "Ġpro",
        "c"
      ],
      [
        "t",
        "r"
      ],
      [
        "Ġb",
        "ack"
      ],
      [
        "Ġa",
        "cc"
      ],
      [
        "Ġdo",
        "es"
      ],
      [
        "a",
        "b"
      ],
      [
        "is",
        "on"
      ],
      [
        "Ġd",
        "is"
      ],
      [
        "est",
        "ion"
      ],
      [
        "t",
        "s"
      ],
      [
        "Ġcompar",
        "ison"
      ],
      [
        "Ġqu",
        "estion"
      ],
      [
        "est",
        "ed"
      ],
      [
        "ad",
        "e"
      ],
      [
        "Ġs",
        "p"
      ],
      [
        "Ġdetail",
        "s"
      ],
      [
        "f",
        "f"
      ],
      [
        "en",
        "er"
      ],
      [
        "Ġrec",
        "ord"
      ],
      [
        "Ġt",
        "im"
      ],
      [
        "iz",
        "e"
      ],
      [
        "Ġbe",
        "fore"
      ],
      [
        "Ġident",
        "if"
      ],
      [
        "ar",
        "d"
      ],
      [
        "lus",
        "ion"
      ],
      [
        "Ġconc",
        "lusion"
      ],
      [
        "c",
        "i"
      ],
      [
        "Ġ",
        "used"
      ],
      [
        "an",
        "d"
      ],
      [
        "Ġd",
        "if"
      ],
      [
        "Ġa",
        "fter"
      ],
      [
        "ep",
        "ar"
      ],
      [
        "Ġsa",
        "id"
      ],
      [
        "ĠT",
        "hat"
      ],
      [
        "Ġde",
        "f"
      ],
      [
        "a",
        "p"
      ],
      [
        "Ġc",
        "all"
      ],
      [
        "Ġre",
        "ference"
      ],
      [
        "a",
        "y"
      ],
      [
        "at",
        "ter"
      ],
      [
        "Ġfe",
        "ature"
      ],
      [
        "a",
        "ce"
      ],
      [
        "or",
        "m"
      ],
      [
        "Ġma",
        "ke"
      ],
      [
        "Ġd",
        "i"
      ],
      [
        "er",
        "y"
      ],
      [
        "oo",
        "d"
      ],
      [
        "e",
        "ad"
      ],
      [
        "Ġin",
        "s"
      ],
      [
        "Ġcl",
        "a"
      ],
      [
        "os",
        "e"
      ],
      [
        "Ġsupp",
        "lied"
      ],
      [
        "t",
        "o"
      ],
      [
        "Ġa",
        "g"
      ],
      [
        "f",
        "orm"
      ],
      [
        "Ġr",
        "ather"
      ],
      [
        "u",
        "m"
      ],
      [
        "ot",
        "h"
      ],
      [
        "il",
        "l"
      ],
      [
        "Ġin",
        "v"
      ],
      [
        "us",
        "t"
      ],
      [
        "Ġev",
        "ery"
      ],
      [
        "ri",
        "b"
      ],
      [
        "Ġo",
        "cc"
      ],
      [
        "Ġm",
        "ade"
      ],
      [
        "Ġ",
        "C"
      ],
      [
        "g",
        "an"
      ],
      [
        "Ġinst",
        "ead"
      ],
      [
        "e",
        "w"
      ],
      [
        "as",
        "s"
      ],
      [
        "Ġre",
        "t"
      ],
      [
        "er",
        "s"
      ],
      [
        "li",
        "es"
      ],
      [
        "ong",
        "er"
      ],
      [
        "Ġst",
        "r"
      ],
      [
        "ly",
        "ing"
      ],
      [
        "Ġre",
        "lying"
      ],
      [
        "Ġ",
        "er"
      ],
      [
        "ic",
        "h"
      ],
      [
        "Ġe",
        "ff"
      ],
      [
        "u",
        "p"
      ],
      [
        "u",
        "e"
      ],
      [
        "y",
        "ing"
      ],
      [
        "il",
        "lus"
      ],
      [
        "Ġ",
        "illus"
      ],
      [
        "Ġillus",
        "tr"
      ],
      [
        "Ġsu",
        "b"
      ],
      [
        "Ġm",
        "an"
      ],
      [
        "o",
        "in"
      ],
      [
        "Ġs",
        "it"
      ],
      [
        "d",
        "u"
      ],
      [
        "e",
        "b"
      ],
      [
        "Ġwh",
        "ich"
      ],
      [
        "Ġ",
        "W"
      ],
      [
        "al",
        "ly"
      ],
      [
        "Ġtr",
        "ying"
      ],
      [
        "n",
        "e"
      ],
      [
        "Ġproc",
        "ess"
      ],
      [
        "Ġag",
        "re"
      ],
      [
        "Ġor",
        "gan"
      ],
      [
        "Ġme",
        "as"
      ],
      [
        "t",
        "her"
      ],
      [
        "Ġrec",
        "o"
      ],
      [
        "re",
        "l"
      ],
      [
        "Ġnot",
        "eb"
      ],
      [
        "Ġnoteb",
        "ook"
      ],
      [
        "Ġst",
        "ate"
      ],
      [
        "g",
        "y"
      ],
      [
        "on",
        "s"
      ],
      [
        "Ġpl",
        "an"
      ],
      [
        "Ġa",
        "m"
      ],
      [
        "Ġs",
        "ound"
      ],
      [
        "is",
        "m"
      ],
      [
        "Ġm",
        "ore"
      ],
      [
        "Ġsit",
        "u"
      ],
      [
        "i",
        "ght"
      ],
      [
        "Ġ",
        "ir"
      ],
      [
        "p",
        "h"
      ],
      [
        "Ġcla",
        "im"
      ],
      [
        "Ġreco",
        "gn"
      ],
      [
        "te",
        "xt"
      ],
      [
        "Ġcon",
        "text"
      ],
      [
        "as",
        "e"
      ],
      [
        "Ġthe",
        "ir"
      ],
      [
        "g",
        "ory"
      ],
      [
        "Ġc",
        "ate"
      ],
      [
        "g",
        "et"
      ],
      [
        "Ġcate",
        "gory"
      ],
      [
        "Ġocc",
        "ur"
      ],
      [
        "Ġ",
        "y"
      ],
      [
        "Ġcom",
        "m"
      ],
      [
        "oin",
        "t"
      ],
      [
        "vi",
        "ew"
      ],
      [
        "Ġret",
        "urn"
      ],
      [
        "p",
        "os"
      ],
      [
        "Ġconnect",
        "s"
      ],
      [
        "Ġir",
        "re"
      ],
      [
        "Ġ",
        "ener"
      ],
      [
        "ĠA",
        "n"
      ],
      [
        "Ġener",
        "gy"
      ],
      [
        "Ġm",
        "ust"
      ],
      [
        "a",
        "ct"
      ],
      [
        "Ġca",
        "us"
      ],
      [
        "Ġp",
        "h"
      ],
      [
        "ater",
        "ial"
      ],
      [
        "Ġm",
        "aterial"
      ],
      [
        "Ġme",
        "an"
      ],
      [
        "Ġman",
        "y"
      ],
      [
        "g",
        "in"
      ],
      [
        "Ġsu",
        "ch"
      ],
      [
        "Ġacc",
        "ount"
      ],
      [
        "i",
        "ble"
      ],
      [
        "on",
        "d"
      ],
      [
        "Ġ",
        "le"
      ],
      [
        "Ġsu",
        "r"
      ],
      [
        "ol",
        "ving"
      ],
      [
        "iz",
        "ed"
      ],
      [
        "â",
        "Ģ"
      ],
      [
        "gr",
        "ound"
      ],
      [
        "Ġe",
        "ar"
      ],
      [
        "Ġs",
        "ame"
      ],
      [
        "d",
        "er"
      ],
      [
        "Ġapp",
        "lies"
      ],
      [
        "Ġdesc",
        "rib"
      ],
      [
        "e",
        "o"
      ],
      [
        "Ġex",
        "am"
      ],
      [
        "w",
        "are"
      ],
      [
        "Ġinv",
        "olving"
      ],
      [
        "Ġw",
        "r"
      ],
      [
        "ic",
        "ation"
      ],
      [
        "Ġit",
        "s"
      ],
      [
        "Ġrecord",
        "ed"
      ],
      [
        "it",
        "her"
      ],
      [
        "li",
        "c"
      ],
      [
        "Ġe",
        "qu"
      ],
      [
        "Ġthe",
        "re"
      ],
      [
        "i",
        "li"
      ],
      [
        "Ġh",
        "a"
      ],
      [
        "Ġre",
        "li"
      ],
      [
        "am",
        "ili"
      ],
      [
        "amili",
        "ar"
      ],
      [
        "Ġpro",
        "ved"
      ],
      [
        "Ġcomm",
        "un"
      ],
      [
        "Ġne",
        "ither"
      ],
      [
        "Ġm",
        "atter"
      ],
      [
        "ra",
        "ph"
      ],
      [
        "Ġirre",
        "levant"
      ],
      [
        "as",
        "on"
      ],
      [
        "ou",
        "r"
      ],
      [
        "ow",
        "n"
      ],
      [
        "epar",
        "ating"
      ],
      [
        "Ġstr",
        "onger"
      ],
      [
        "Ġreli",
        "able"
      ],
      [
        "Ġback",
        "ground"
      ],
      [
        "Ġagre",
        "es"
      ],
      [
        "e",
        "fore"
      ],
      [
        "ĠS",
        "eparating"
      ],
      [
        "rel",
        "ated"
      ],
      [
        "Ġun",
        "related"
      ],
      [
        "Ġappe",
        "ared"
      ],
      [
        "f",
        "t"
      ],
      [
        "pl",
        "ace"
      ],
      [
        "Ġun",
        "der"
      ],
      [
        "Ġc",
        "he"
      ],
      [
        "k",
        "s"
      ],
      [
        "ĠNe",
        "arby"
      ],
      [
        "Ġre",
        "place"
      ],
      [
        "Ġ",
        "view"
      ],
      [
        "ĠI",
        "t"
      ],
      [
        "is",
        "h"
      ],
      [
        "s",
        "s"
      ],
      [
        "em",
        "per"
      ],
      [
        "emper",
        "ature"
      ],
      [
        "Ġillustr",
        "ates"
      ],
      [
        "Ġsub",
        "ject"
      ],
      [
        "Ġ",
        "v"
      ],
      [
        "Ġb",
        "es"
      ],
      [
        "Ġin",
        "to"
      ],
      [
        "Ġbes",
        "ide"
      ],
      [
        "Ġre",
        "ason"
      ],
      [
        "Ġd",
        "own"
      ],
      [
        "Ġb",
        "y"
      ],
      [
        "rou",
        "gh"
      ],
      [
        "Ġconnect",
        "ed"
      ],
      [
        "e",
        "en"
      ],
      [
        "Ġcomp",
        "le"
      ],
      [
        "Ġpar",
        "t"
      ],
      [
        "ir",
        "st"
      ],
      [
        "Ġth",
        "rough"
      ],
      [
        "ag",
        "raph"
      ],
      [
        "Ġpar",
        "agraph"
      ],
      [
        "y",
        "c"
      ],
      [
        "eo",
        "ple"
      ],
      [
        "Ġt",
        "emperature"
      ],
      [
        "at",
        "h"
      ],
      [
        "etw",
        "een"
      ],
      [
        "Ġb",
        "etween"
      ],
      [
        "Ġcomp",
        "are"
      ],
      [
        "Ġg",
        "u"
      ],
      [
        "Ġp",
        "er"
      ],
      [
        "Ġs",
        "m"
      ],
      [
        "in",
        "ary"
      ],
      [
        "b",
        "er"
      ],
      [
        "re",
        "ly"
      ],
      [
        "in",
        "d"
      ],
      [
        "Ġ",
        "us"
      ],
      [
        "Ġord",
        "inary"
      ],
      [
        "pos",
        "ed"
      ],
      [
        "Ġobserv",
        "ation"
      ],
      [
        "Ġs",
        "ens"
      ],
      [
        "ction",
        "s"
      ],
      [
        "Ġs",
        "im"
      ],
      [
        "Ġmeas",
        "ure"
      ],
      [
        "Ġme",
        "rely"
      ],
      [
        "Ġre",
        "qu"
      ],
      [
        "Ġc",
        "al"
      ],
      [
        "Ġdif",
        "ference"
      ],
      [
        "ion",
        "s"
      ],
      [
        "Ġp",
        "r"
      ],
      [
        "ĠThe",
        "y"
      ],
      [
        "an",
        "ism"
      ],
      [
        "Ġl",
        "o"
      ],
      [
        "t",
        "h"
      ],
      [
        "ce",
        "p"
      ],
      [
        "Ġm",
        "ight"
      ],
      [
        "Ġwh",
        "y"
      ],
      [
        "ĠA",
        "s"
      ],
      [
        "ord",
        "s"
      ],
      [
        "Ġmatter",
        "s"
      ],
      [
        "Ġeff",
        "ort"
      ],
      [
        "Ġst",
        "ill"
      ],
      [
        "r",
        "ip"
      ],
      [
        "Ġme",
        "ch"
      ],
      [
        "Ġ",
        "ra"
      ],
      [
        "Ġcomple",
        "te"
      ],
      [
        "Ġp",
        "ath"
      ],
      [
        "ĠW",
        "ords"
      ],
      [
        "ud",
        "get"
      ],
      [
        "Ġb",
        "udget"
      ],
      [
        "Ġreturn",
        "ing"
      ],
      [
        "ot",
        "e"
      ],
      [
        "Ġthere",
        "fore"
      ],
      [
        "Ġw",
        "ork"
      ],
      [
        "Ġmeasure",
        "ment"
      ],
      [
        "Ġdo",
        "g"
      ],
      [
        "t",
        "ion"
      ],
      [
        "Ġca",
        "used"
      ],
      [
        "i",
        "ve"
      ],
      [
        "Ġa",
        "d"
      ],
      [
        "Ġidentif",
        "y"
      ],
      [
        "o",
        "ld"
      ],
      [
        "Ġne",
        "ed"
      ],
      [
        "Ġc",
        "ould"
      ],
      [
        "S",
        "o"
      ],
      [
        "ro",
        "w"
      ],
      [
        "Ġmech",
        "anism"
      ],
      [
        "Ġsens",
        "e"
      ],
      [
        "Ġdescrib",
        "e"
      ],
      [
        "Ġcaus",
        "ing"
      ],
      [
        "Ġpro",
        "posed"
      ],
      [
        "t",
        "ing"
      ],
      [
        "W",
        "hat"
      ],
      [
        "Ġview",
        "p"
      ],
      [
        "Ġf",
        "act"
      ],
      [
        "Ġfollow",
        "ed"
      ],
      [
        "Ġp",
        "eople"
      ],
      [
        "lic",
        "ation"
      ],
      [
        "is",
        "t"
      ],
      [
        "y",
        "m"
      ],
      [
        "Ġsp",
        "at"
      ],
      [
        "Ġwr",
        "ote"
      ],
      [
        "Ġspat",
        "ial"
      ],
      [
        "g",
        "g"
      ],
      [
        "ar",
        "g"
      ],
      [
        "Ġgroup",
        "s"
      ],
      [
        "?",
        "\""
      ],
      [
        "Ġf",
        "amiliar"
      ],
      [
        "s",
        "ent"
      ],
      [
        "Ġd",
        "id"
      ],
      [
        "Ġres",
        "p"
      ],
      [
        "Ġal",
        "ter"
      ],
      [
        "Ġb",
        "oth"
      ],
      [
        "al",
        "s"
      ],
      [
        "Ġl",
        "ab"
      ],
      [
        "d",
        "i"
      ],
      [
        "o",
        "d"
      ],
      [
        "Ġlab",
        "el"
      ],
      [
        "r",
        "or"
      ],
      [
        "a",
        "ch"
      ],
      [
        "Ġam",
        "ong"
      ],
      [
        "Ġer",
        "ror"
      ],
      [
        "Ġ",
        "k"
      ],
      [
        "Ġcall",
        "ed"
      ],
      [
        "Ġc",
        "ook"
      ],
      [
        "ult",
        "ip"
      ],
      [
        "Ġexam",
        "ple"
      ],
      [
        "ultip",
        "lication"
      ],
      [
        "Ġcon",
        "t"
      ],
      [
        "Ġcon",
        "cep"
      ],
      [
        "Ġ",
        "M"
      ],
      [
        "Ġear",
        "li"
      ],
      [
        "Ġa",
        "re"
      ],
      [
        "ĠO",
        "ne"
      ],
      [
        "form",
        "ation"
      ],
      [
        "Ġd",
        "at"
      ],
      [
        "Ġin",
        "ter"
      ],
      [
        "Ġviewp",
        "oint"
      ],
      [
        "Ġearli",
        "er"
      ],
      [
        "Ġin",
        "formation"
      ],
      [
        "Ġrequ",
        "ested"
      ],
      [
        "Ġresp",
        "ons"
      ],
      [
        "Ġa",
        "r"
      ],
      [
        "Ġins",
        "ide"
      ],
      [
        "ver",
        "al"
      ],
      [
        "Ġord",
        "er"
      ],
      [
        "Ġdesc",
        "rip"
      ],
      [
        "Ġ",
        "ro"
      ],
      [
        "Ġs",
        "et"
      ],
      [
        "etw",
        "ork"
      ],
      [
        "Ġrep",
        "e"
      ],
      [
        "Ġn",
        "etwork"
      ],
      [
        "Ġsu",
        "gg"
      ],
      [
        "Ġt",
        "ra"
      ],
      [
        "y",
        "ond"
      ],
      [
        "Ġis",
        "ol"
      ],
      [
        "Ġbe",
        "yond"
      ],
      [
        "Ġchang",
        "ed"
      ],
      [
        "Ġisol",
        "ated"
      ],
      [
        "Ġma",
        "p"
      ],
      [
        "Ġsugg",
        "ested"
      ],
      [
        "Ġcl",
        "ue"
      ],
      [
        "Ġrecogn",
        "ized"
      ],
      [
        "ĠO",
        "nce"
      ],
      [
        "Ġgu",
        "ess"
      ],
      [
        "ci",
        "pl"
      ],
      [
        "Ġguess",
        "ing"
      ],
      [
        "Ġa",
        "ct"
      ],
      [
        "Ġdescrip",
        "tion"
      ],
      [
        "Ġpart",
        "ic"
      ],
      [
        "Ġsm",
        "all"
      ],
      [
        "ĠB",
        "efore"
      ],
      [
        "Ġdis",
        "cipl"
      ],
      [
        "Ġdiscipl",
        "ine"
      ],
      [
        "Ġdef",
        "ens"
      ],
      [
        "el",
        "ine"
      ],
      [
        "Ġrespons",
        "e"
      ],
      [
        "Ġtim",
        "eline"
      ],
      [
        "Ġdefens",
        "ible"
      ],
      [
        "Ġn",
        "um"
      ],
      [
        "p",
        "re"
      ],
      [
        "Ġre",
        "ad"
      ],
      [
        "Ġm",
        "ultiplication"
      ],
      [
        "b",
        "r"
      ],
      [
        "ent",
        "ions"
      ],
      [
        "Ġhelp",
        "s"
      ],
      [
        "Ġpre",
        "sent"
      ],
      [
        "l",
        "es"
      ],
      [
        "Ġl",
        "ater"
      ],
      [
        "Ġha",
        "pp"
      ],
      [
        "Ġma",
        "y"
      ],
      [
        "Ġsur",
        "vi"
      ],
      [
        "a",
        "ir"
      ],
      [
        "it",
        "ies"
      ],
      [
        "Ġpl",
        "ant"
      ],
      [
        "Ġit",
        "em"
      ],
      [
        "i",
        "gh"
      ],
      [
        "if",
        "ication"
      ],
      [
        "Ġs",
        "ome"
      ],
      [
        "ass",
        "ification"
      ],
      [
        "Ġf",
        "ood"
      ],
      [
        "Ġme",
        "m"
      ],
      [
        "Ġus",
        "es"
      ],
      [
        "end",
        "ar"
      ],
      [
        "Ġsupp",
        "ort"
      ],
      [
        "Ġcal",
        "endar"
      ],
      [
        "o",
        "p"
      ],
      [
        "Ġli",
        "ght"
      ],
      [
        "Ġorgan",
        "ize"
      ],
      [
        "Ġse",
        "veral"
      ],
      [
        "Ġdef",
        "in"
      ],
      [
        "Ġdi",
        "re"
      ],
      [
        "Ġsim",
        "ple"
      ],
      [
        "Ġmem",
        "ory"
      ],
      [
        "d",
        "ition"
      ],
      [
        "n",
        "t"
      ],
      [
        "Ġprocess",
        "or"
      ],
      [
        "Ġdefin",
        "ition"
      ],
      [
        "x",
        "im"
      ],
      [
        "ag",
        "es"
      ],
      [
        "Ġas",
        "s"
      ],
      [
        "ĠThe",
        "n"
      ],
      [
        "in",
        "k"
      ],
      [
        "Ġt",
        "urn"
      ],
      [
        "Ġ",
        "R"
      ],
      [
        "in",
        "ally"
      ],
      [
        "Ġmean",
        "s"
      ],
      [
        "ra",
        "ct"
      ],
      [
        "Ġwhe",
        "ther"
      ]
    ]
  }
}