{
  "version": "1.0",
  "truncation": null,
  "padding": null,
  "added_tokens": [
    {
      "id": 0,
      "content": "<pad>",
      "single_word": false,
      "lstrip": false,
      "rstrip": false,
      "normalized": false,
      "special": true
    },
    {
      "id": 1,
      "content": "<unk>",
      "single_word": false,
      "lstrip": false,
      "rstrip": false,
      "normalized": false,
      "special": true
    },
    {
      "id": 2,
      "content": "<bos>",
      "single_word": false,
      "lstrip": false,
      "rstrip": false,
      "normalized": false,
      "special": true
    },
    {
      "id": 3,
      "content": "<eos>",
      "single_word": false,
      "lstrip": false,
      "rstrip": false,
      "normalized": false,
      "special": true
    },
    {
      "id": 4,
      "content": "<doc>",
      "single_word": false,
      "lstrip": false,
      "rstrip": false,
      "normalized": false,
      "special": true
    }
  ],
  "normalizer": null,
  "pre_tokenizer": {
    "type": "Sequence",
    "pretokenizers": [
      {
        "type": "WhitespaceSplit"
      },
      {
        "type": "ByteLevel",
        "add_prefix_space": false,
        "trim_offsets": true,
        "use_regex": true
      }
    ]
  },
  "post_processor": null,
  "decoder": {
    "type": "ByteLevel",
    "add_prefix_space": true,
    "trim_offsets": true,
    "use_regex": true
  },
  "model": {
    "type": "BPE",
    "dropout": null,
    "unk_token": "<unk>",
    "continuing_subword_prefix": null,
    "end_of_word_suffix": null,
    "fuse_unk": false,
    "byte_fallback": false,
    "ignore_merges": false,
    "vocab": {
      "<pad>": 0,
      "<unk>": 1,
      "<bos>": 2,
      "<eos>": 3,
      "<doc>": 4,
      "!": 5,
      "\"": 6,
      "#": 7,
      "$": 8,
      "%": 9,
      "&": 10,
      "'": 11,
      "(": 12,
      ")": 13,
      "*": 14,
      "+": 15,
      ",": 16,
      "-": 17,
      ".": 18,
      "/": 19,
      "0": 20,
      "1": 21,
      "2": 22,
      "3": 23,
      "4": 24,
      "5": 25,
      "6": 26,
      "7": 27,
      "8": 28,
      "9": 29,
      ":": 30,
      ";": 31,
      "<": 32,
      "=": 33,
      ">": 34,
      "?": 35,
      "@": 36,
      "A": 37,
      "B": 38,
      "C": 39,
      "D": 40,
      "E": 41,
      "F": 42,
      "G": 43,
      "H": 44,
      "I": 45,
      "J": 46,
      "K": 47,
      "L": 48,
      "M": 49,
      "N": 50,
      "O": 51,
      "P": 52,
      "Q": 53,
      "R": 54,
      "S": 55,
      "T": 56,
      "U": 57,
      "V": 58,
      "W": 59,
      "X": 60,
      "Y": 61,
      "Z": 62,
      "[": 63,
      "\\": 64,
      "]": 65,
      "^": 66,
      "_": 67,
      "`": 68,
      "a": 69,
      "b": 70,
      "c": 71,
      "d": 72,
      "e": 73,
      "f": 74,
      "g": 75,
      "h": 76,
      "i": 77,
      "j": 78,
      "k": 79,
      "l": 80,
      "m": 81,
      "n": 82,
      "o": 83,
      "p": 84,
      "q": 85,
      "r": 86,
      "s": 87,
      "t": 88,
      "u": 89,
      "v": 90,
      "w": 91,
      "x": 92,
      "y": 93,
      "z": 94,
      "{": 95,
      "|": 96,
      "}": 97,
      "~": 98,
      "¡": 99,
      "¢": 100,
      "£": 101,
      "¤": 102,
      "¥": 103,
      "¦": 104,
      "§": 105,
      "¨": 106,
      "©": 107,
      "ª": 108,
      "«": 109,
      "¬": 110,
      "®": 111,
      "¯": 112,
      "°": 113,
      "±": 114,
      "²": 115,
      "³": 116,
      "´": 117,
      "µ": 118,
      "¶": 119,
      "·": 120,
      "¸": 121,
      "¹": 122,
      "º": 123,
      "»": 124,
      "¼": 125,
      "½": 126,
      "¾": 127,
      "¿": 128,
      "À": 129,
      "Á": 130,
      "Â": 131,
      "Ã": 132,
      "Ä": 133,
      "Å": 134,
      "Æ": 135,
      "Ç": 136,
      "È": 137,
      "É": 138,
      "Ê": 139,
      "Ë": 140,
      "Ì": 141,
      "Í": 142,
      "Î": 143,
      "Ï": 144,
      "Ð": 145,
      "Ñ": 146,
      "Ò": 147,
      "Ó": 148,
      "Ô": 149,
      "Õ": 150,
      "Ö": 151,
      "×": 152,
      "Ø": 153,
      "Ù": 154,
      "Ú": 155,
      "Û": 156,
      "Ü": 157,
      "Ý": 158,
      "Þ": 159,
      "ß": 160,
      "à": 161,
      "á": 162,
      "â": 163,
      "ã": 164,
      "ä": 165,
      "å": 166,
      "æ": 167,
      "ç": 168,
      "è": 169,
      "é": 170,
      "ê": 171,
      "ë": 172,
      "ì": 173,
      "í": 174,
      "î": 175,
      "ï": 176,
      "ð": 177,
      "ñ": 178,
      "ò": 179,
      "ó": 180,
      "ô": 181,
      "õ": 182,
      "ö": 183,
      "÷": 184,
      "ø": 185,
      "ù": 186,
      "ú": 187,
      "û": 188,
      "ü": 189,
      "ý": 190,
      "þ": 191,
      "ÿ": 192,
      "Ā": 193,
      "ā": 194,
      "Ă": 195,
      "ă": 196,
      "Ą": 197,
      "ą": 198,
      "Ć": 199,
      "ć": 200,
      "Ĉ": 201,
      "ĉ": 202,
      "Ċ": 203,
      "ċ": 204,
      "Č": 205,
      "č": 206,
      "Ď": 207,
      "ď": 208,
      "Đ": 209,
      "đ": 210,
      "Ē": 211,
      "ē": 212,
      "Ĕ": 213,
      "ĕ": 214,
      "Ė": 215,
      "ė": 216,
      "Ę": 217,
      "ę": 218,
      "Ě": 219,
      "ě": 220,
      "Ĝ": 221,
      "ĝ": 222,
      "Ğ": 223,
      "ğ": 224,
      "Ġ": 225,
      "ġ": 226,
      "Ģ": 227,
      "ģ": 228,
      "Ĥ": 229,
      "ĥ": 230,
      "Ħ": 231,
      "ħ": 232,
      "Ĩ": 233,
      "ĩ": 234,
      "Ī": 235,
      "ī": 236,
      "Ĭ": 237,
      "ĭ": 238,
      "Į": 239,
      "į": 240,
      "İ": 241,
      "ı": 242,
      "Ĳ": 243,
      "ĳ": 244,
      "Ĵ": 245,
      "ĵ": 246,
      "Ķ": 247,
      "ķ": 248,
      "ĸ": 249,
      "Ĺ": 250,
      "ĺ": 251,
      "Ļ": 252,
      "ļ": 253,
      "Ľ": 254,
      "ľ": 255,
      "Ŀ": 256,
      "ŀ": 257,
      "Ł": 258,
      "ł": 259,
      "Ń": 260,
      "he": 261,
      "an": 262,
      "the": 263,
      "ed": 264,
      "and": 265,
      "to": 266,
      "in": 267,
      "re": 268,
      "wa": 269,
      "it": 270,
      "ou": 271,
      "ha": 272,
      "er": 273,
      "was": 274,
      "om": 275,
      "en": 276,
      "on": 277,
      "ar": 278,
      "The": 279,
      "is": 280,
      "ing": 281,
      "il": 282,
      "id": 283,
      "sa": 284,
      "le": 285,
      "ay": 286,
      "im": 287,
      "lo": 288,
      "al": 289,
      "st": 290,
      "or": 291,
      "her": 292,
      "He": 293,
      "She": 294,
      "ir": 295,
      "th": 296,
      "ne": 297,
      "be": 298,
      "ver": 299,
      "hat": 300,
      "They": 301,
      "ut": 302,
      "se": 303,
      "ck": 304,
      "at": 305,
      "ld": 306,
      "ce": 307,
      "am": 308,
      "ke": 309,
      "no": 310,
      "ig": 311,
      "she": 312,
      "said": 313,
      "ily": 314,
      "ve": 315,
      "pl": 316,
      "ith": 317,
      "his": 318,
      "pp": 319,
      "so": 320,
      "with": 321,
      "ri": 322,
      "ad": 323,
      "of": 324,
      "Lily": 325,
      "un": 326,
      "ly": 327,
      "ked": 328,
      "day": 329,
      "very": 330,
      "you": 331,
      "we": 332,
      "my": 333,
      "ome": 334,
      "that": 335,
      "up": 336,
      "li": 337,
      "go": 338,
      "ow": 339,
      "ant": 340,
      "as": 341,
      "had": 342,
      "ch": 343,
      "play": 344,
      "they": 345,
      "es": 346,
      "for": 347,
      "fe": 348,
      "mom": 349,
      "ould": 350,
      "nd": 351,
      "all": 352,
      "bo": 353,
      "end": 354,
      "'s": 355,
      "itt": 356,
      "ent": 357,
      "happ": 358,
      "tim": 359,
      "want": 360,
      "ge": 361,
      "ok": 362,
      "out": 363,
      "time": 364,
      "ittle": 365,
      "ound": 366,
      "do": 367,
      "ro": 368,
      "little": 369,
      "It": 370,
      "there": 371,
      "are": 372,
      "ther": 373,
      "ra": 374,
      "ht": 375,
      "not": 376,
      "happy": 377,
      "ry": 378,
      "sh": 379,
      "big": 380,
      "but": 381,
      "sm": 382,
      "saw": 383,
      "Tim": 384,
      "ake": 385,
      "ack": 386,
      "riend": 387,
      "friend": 388,
      "ter": 389,
      "ul": 390,
      "ide": 391,
      "ys": 392,
      "One": 393,
      "thing": 394,
      "some": 395,
      "On": 396,
      "one": 397,
      "ved": 398,
      "'t": 399,
      "Once": 400,
      ".\"": 401,
      "were": 402,
      "ug": 403,
      "ho": 404,
      "him": 405,
      "!\"": 406,
      "pe": 407,
      "car": 408,
      "upon": 409,
      "irl": 410,
      "wanted": 411,
      "el": 412,
      "girl": 413,
      "ful": 414,
      "them": 415,
      "ur": 416,
      "ind": 417,
      "could": 418,
      "co": 419,
      "Tom": 420,
      "ex": 421,
      "ag": 422,
      "did": 423,
      "hen": 424,
      "me": 425,
      "their": 426,
      "mo": 427,
      "ill": 428,
      "smil": 429,
      "went": 430,
      "hel": 431,
      "Ben": 432,
      "rom": 433,
      "have": 434,
      "new": 435,
      "ted": 436,
      "nam": 437,
      "But": 438,
      "de": 439,
      "od": 440,
      "Timmy": 441,
      "help": 442,
      "ight": 443,
      "fel": 444,
      "can": 445,
      "way": 446,
      "et": 447,
      "um": 448,
      "friends": 449,
      "hed": 450,
      "back": 451,
      "ab": 452,
      "side": 453,
      "ark": 454,
      "named": 455,
      "ic": 456,
      "ain": 457,
      "ran": 458,
      "?\"": 459,
      "fo": 460,
      "fun": 461,
      "loved": 462,
      "man": 463,
      "too": 464,
      "star": 465,
      "like": 466,
      "po": 467,
      "felt": 468,
      "oug": 469,
      "low": 470,
      "la": 471,
      "smiled": 472,
      "loo": 473,
      "You": 474,
      "asked": 475,
      "own": 476,
      "ick": 477,
      "sto": 478,
      "around": 479,
      "ame": 480,
      "ard": 481,
      "looked": 482,
      "ure": 483,
      "pr": 484,
      "boy": 485,
      "would": 486,
      "bir": 487,
      "see": 488,
      "wor": 489,
      "make": 490,
      "fa": 491,
      "Mom": 492,
      "gr": 493,
      "bird": 494,
      "ong": 495,
      "ll": 496,
      "park": 497,
      "ca": 498,
      "now": 499,
      "tre": 500,
      "away": 501,
      "op": 502,
      "other": 503,
      "what": 504,
      "ade": 505,
      "ice": 506,
      "âĢ": 507,
      "started": 508,
      "gether": 509,
      "dd": 510,
      "came": 511,
      "ss": 512,
      "ited": 513,
      "oud": 514,
      "made": 515,
      "together": 516,
      "something": 517,
      "put": 518,
      "exc": 519,
      "get": 520,
      "got": 521,
      "sad": 522,
      ",\"": 523,
      "from": 524,
      "look": 525,
      "ie": 526,
      "home": 527,
      "mu": 528,
      "ue": 529,
      "then": 530,
      "again": 531,
      "found": 532,
      "scar": 533,
      "if": 534,
      "wal": 535,
      "na": 536,
      "dec": 537,
      "ts": 538,
      "who": 539,
      "ci": 540,
      "ried": 541,
      "br": 542,
      "good": 543,
      "pped": 544,
      "says": 545,
      "when": 546,
      "ally": 547,
      "ach": 548,
      "excited": 549,
      "ought": 550,
      "playing": 551,
      "more": 552,
      "by": 553,
      "ep": 554,
      "king": 555,
      "hug": 556,
      "ave": 557,
      "ided": 558,
      "things": 559,
      "uck": 560,
      "ny": 561,
      "decided": 562,
      "ous": 563,
      "every": 564,
      "use": 565,
      "spe": 566,
      "liked": 567,
      "ax": 568,
      "Sam": 569,
      "down": 570,
      "dog": 571,
      "der": 572,
      "us": 573,
      "scared": 574,
      "An": 575,
      "ways": 576,
      "ouse": 577,
      "care": 578,
      "udd": 579,
      "than": 580,
      "bb": 581,
      "find": 582,
      "har": 583,
      "ust": 584,
      "ara": 585,
      "Max": 586,
      "didn": 587,
      "jo": 588,
      "pre": 589,
      "ate": 590,
      "ac": 591,
      "arn": 592,
      "take": 593,
      "mommy": 594,
      "wo": 595,
      "dad": 596,
      "always": 597,
      "feel": 598,
      "your": 599,
      "ite": 600,
      "outside": 601,
      "clo": 602,
      "took": 603,
      "qu": 604,
      "So": 605,
      "about": 606,
      "We": 607,
      "ang": 608,
      "Sara": 609,
      "tree": 610,
      "te": 611,
      "old": 612,
      "here": 613,
      "our": 614,
      "toys": 615,
      "When": 616,
      "wh": 617,
      "learn": 618,
      "know": 619,
      "thought": 620,
      "fore": 621,
      "ened": 622,
      "knew": 623,
      "ma": 624,
      "ise": 625,
      "Jo": 626,
      "room": 627,
      "ive": 628,
      "Anna": 629,
      "udden": 630,
      "will": 631,
      "ty": 632,
      "speci": 633,
      "special": 634,
      "cat": 635,
      "sw": 636,
      "ers": 637,
      "laug": 638,
      "Her": 639,
      "ged": 640,
      "fter": 641,
      "uddenly": 642,
      "sor": 643,
      "ball": 644,
      "any": 645,
      "toy": 646,
      "Every": 647,
      "never": 648,
      "ish": 649,
      "how": 650,
      "house": 651,
      "come": 652,
      "ol": 653,
      "much": 654,
      "lf": 655,
      "run": 656,
      "cre": 657,
      "sp": 658,
      "cle": 659,
      "ven": 660,
      "ink": 661,
      "bl": 662,
      "dre": 663,
      "Jack": 664,
      "show": 665,
      "couldn": 666,
      "over": 667,
      "box": 668,
      "tried": 669,
      "into": 670,
      "gre": 671,
      "ist": 672,
      "cause": 673,
      "long": 674,
      "sk": 675,
      "sun": 676,
      "careful": 677,
      "eat": 678,
      "inside": 679,
      "gave": 680,
      "dy": 681,
      "hand": 682,
      "able": 683,
      "bu": 684,
      "tr": 685,
      "told": 686,
      "ump": 687,
      "proud": 688,
      "because": 689,
      "sorry": 690,
      "unt": 691,
      "Suddenly": 692,
      "ion": 693,
      "ia": 694,
      "pa": 695,
      "tter": 696,
      "cl": 697,
      "ta": 698,
      "From": 699,
      "played": 700,
      "ear": 701,
      "this": 702,
      "red": 703,
      "heard": 704,
      "Then": 705,
      "water": 706,
      "uc": 707,
      "sha": 708,
      "pick": 709,
      "led": 710,
      "just": 711,
      "che": 712,
      "hugged": 713,
      "fly": 714,
      "Let": 715,
      "off": 716,
      "each": 717,
      "pret": 718,
      "war": 719,
      "ile": 720,
      "His": 721,
      "exp": 722,
      "com": 723,
      "pot": 724,
      "bear": 725,
      "rabb": 726,
      "try": 727,
      "ct": 728,
      "ine": 729,
      "wat": 730,
      "need": 731,
      "iz": 732,
      "nice": 733,
      "until": 734,
      "small": 735,
      "ber": 736,
      "love": 737,
      "Mia": 738,
      "ving": 739,
      "read": 740,
      "ough": 741,
      "learned": 742,
      "bed": 743,
      "self": 744,
      "flow": 745,
      "bea": 746,
      "And": 747,
      "kind": 748,
      "many": 749,
      "'m": 750,
      "better": 751,
      "has": 752,
      "imal": 753,
      "animal": 754,
      "ass": 755,
      "its": 756,
      "vent": 757,
      "fast": 758,
      "safe": 759,
      "That": 760,
      "lad": 761,
      "rain": 762,
      "per": 763,
      "ace": 764,
      "explo": 765,
      "where": 766,
      "beaut": 767,
      "jump": 768,
      "pt": 769,
      "even": 770,
      "best": 771,
      "thanked": 772,
      "tur": 773,
      "bra": 774,
      "call": 775,
      "lots": 776,
      "nt": 777,
      "hur": 778,
      "laughed": 779,
      "fle": 780,
      "Mommy": 781,
      "fam": 782,
      "sur": 783,
      "fi": 784,
      "yes": 785,
      "arden": 786,
      "garden": 787,
      "iful": 788,
      "beautiful": 789,
      "under": 790,
      "What": 791,
      "Joh": 792,
      "John": 793,
      "loud": 794,
      "sky": 795,
      "ft": 796,
      "ched": 797,
      "don": 798,
      "joy": 799,
      "ning": 800,
      "âĢĿ": 801,
      "let": 802,
      "âĢľ": 803,
      "rong": 804,
      "iny": 805,
      "ama": 806,
      "ble": 807,
      "say": 808,
      "Yes": 809,
      "stay": 810,
      "list": 811,
      "ank": 812,
      "ople": 813,
      "still": 814,
      "ree": 815,
      "As": 816,
      "give": 817,
      "ort": 818,
      "After": 819,
      "both": 820,
      "family": 821,
      "igh": 822,
      "brave": 823,
      "pu": 824,
      "people": 825,
      "ell": 826,
      "book": 827,
      "fin": 828,
      "animals": 829,
      "ground": 830,
      "app": 831,
      "lived": 832,
      "ob": 833,
      "walked": 834,
      "Th": 835,
      "Can": 836,
      "hard": 837,
      "turn": 838,
      "surpr": 839,
      "two": 840,
      "bad": 841,
      "No": 842,
      "con": 843,
      "ished": 844,
      "won": 845,
      "should": 846,
      "kept": 847,
      "hurt": 848,
      "ru": 849,
      "flew": 850,
      "ised": 851,
      "real": 852,
      "ane": 853,
      "pic": 854,
      "ste": 855,
      "Thank": 856,
      "imp": 857,
      "clean": 858,
      "Luc": 859,
      "clos": 860,
      "Lucy": 861,
      "going": 862,
      "called": 863,
      "keep": 864,
      "angry": 865,
      "share": 866,
      "sl": 867,
      "soon": 868,
      "lea": 869,
      "pretty": 870,
      "rock": 871,
      "illy": 872,
      "cu": 873,
      "feeling": 874,
      "les": 875,
      "explore": 876,
      "place": 877,
      "wind": 878,
      "Dad": 879,
      "far": 880,
      "advent": 881,
      "cry": 882,
      "doll": 883,
      "also": 884,
      "sho": 885,
      "door": 886,
      "mor": 887,
      "idea": 888,
      "while": 889,
      "opened": 890,
      "bro": 891,
      "shiny": 892,
      "lot": 893,
      "ied": 894,
      "ting": 895,
      "before": 896,
      "Bob": 897,
      "par": 898,
      "ummy": 899,
      "work": 900,
      "set": 901,
      "ild": 902,
      "walking": 903,
      "noise": 904,
      "lie": 905,
      "colo": 906,
      "lock": 907,
      "right": 908,
      "fish": 909,
      "ture": 910,
      "uch": 911,
      "color": 912,
      "face": 913,
      "ies": 914,
      "tal": 915,
      "mber": 916,
      "picked": 917,
      "being": 918,
      "looking": 919,
      "clim": 920,
      "nex": 921,
      "âĢĻ": 922,
      "ds": 923,
      "food": 924,
      "hair": 925,
      "dif": 926,
      "thr": 927,
      "adventure": 928,
      "blue": 929,
      "ak": 930,
      "smile": 931,
      "ught": 932,
      "ess": 933,
      "iced": 934,
      "next": 935,
      "dis": 936,
      "ever": 937,
      "quick": 938,
      "ph": 939,
      "dra": 940,
      "hear": 941,
      "nodd": 942,
      "ask": 943,
      "night": 944,
      "member": 945,
      "forest": 946,
      "nodded": 947,
      "eyes": 948,
      "less": 949,
      "used": 950,
      "Lo": 951,
      "picture": 952,
      "ized": 953,
      "head": 954,
      "import": 955,
      "Sue": 956,
      "great": 957,
      "stopped": 958,
      "repl": 959,
      "weet": 960,
      "wait": 961,
      "enjoy": 962,
      "walk": 963,
      "important": 964,
      "near": 965,
      "Sarah": 966,
      "remember": 967,
      "gan": 968,
      "vo": 969,
      "quickly": 970,
      "year": 971,
      "truck": 972,
      "after": 973,
      "ries": 974,
      "listen": 975,
      "think": 976,
      "replied": 977,
      "noticed": 978,
      "cook": 979,
      "cream": 980,
      "bye": 981,
      "tor": 982,
      "Spot": 983,
      "slide": 984,
      "hands": 985,
      "This": 986,
      "everyone": 987,
      "showed": 988,
      "ner": 989,
      "sure": 990,
      "wonder": 991,
      "irst": 992,
      "fere": 993,
      "shar": 994,
      "differe": 995,
      "rabbit": 996,
      "Jane": 997,
      "yel": 998,
      "swing": 999,
      "sound": 1000,
      "mon": 1001,
      "shout": 1002,
      "amaz": 1003,
      "cake": 1004,
      "been": 1005,
      "became": 1006,
      "leave": 1007,
      "strong": 1008,
      "ip": 1009,
      "store": 1010,
      "ff": 1011,
      "boat": 1012,
      "mean": 1013,
      "bright": 1014,
      "rest": 1015,
      "voice": 1016,
      "aybe": 1017,
      "tell": 1018,
      "watched": 1019,
      "Do": 1020,
      "sing": 1021,
      "watch": 1022,
      "different": 1023,
      "top": 1024,
      "high": 1025,
      "cho": 1026,
      "okay": 1027,
      "goodbye": 1028,
      "pul": 1029,
      "dress": 1030,
      "sn": 1031,
      "llow": 1032,
      "ung": 1033,
      "bre": 1034,
      "closer": 1035,
      "flowers": 1036,
      "stand": 1037,
      "lease": 1038,
      "bow": 1039,
      "follow": 1040,
      "ready": 1041,
      "fav": 1042,
      "leep": 1043,
      "cou": 1044,
      "stick": 1045,
      "Everyone": 1046,
      "ired": 1047,
      "grabb": 1048,
      "isy": 1049,
      "flower": 1050,
      "mag": 1051,
      "unny": 1052,
      "curi": 1053,
      "ster": 1054,
      "grabbed": 1055,
      "Look": 1056,
      "deli": 1057,
      "In": 1058,
      "dan": 1059,
      "ond": 1060,
      "squ": 1061,
      "warm": 1062,
      "jumped": 1063,
      "bit": 1064,
      "anymore": 1065,
      "butter": 1066,
      "dro": 1067,
      "curious": 1068,
      "ket": 1069,
      "three": 1070,
      "fell": 1071,
      "med": 1072,
      "ached": 1073,
      "mis": 1074,
      "andma": 1075,
      "birds": 1076,
      "light": 1077,
      "cut": 1078,
      "ered": 1079,
      "Joe": 1080,
      "laugh": 1081,
      "flo": 1082,
      "din": 1083,
      "pie": 1084,
      "block": 1085,
      "first": 1086,
      "helped": 1087,
      "yellow": 1088,
      "ila": 1089,
      "tw": 1090,
      "cont": 1091,
      "kit": 1092,
      "kid": 1093,
      "Don": 1094,
      "realized": 1095,
      "pare": 1096,
      "Lila": 1097,
      "air": 1098,
      "stop": 1099,
      "brother": 1100,
      "zy": 1101,
      "does": 1102,
      "happened": 1103,
      "green": 1104,
      "Maybe": 1105,
      "favor": 1106,
      "chen": 1107,
      "tra": 1108,
      "kitchen": 1109,
      "really": 1110,
      "yummy": 1111,
      "favorite": 1112,
      "grass": 1113,
      "began": 1114,
      "pain": 1115,
      "reached": 1116,
      "table": 1117,
      "Hel": 1118,
      "times": 1119,
      "Fin": 1120,
      "tow": 1121,
      "prin": 1122,
      "fl": 1123,
      "'re": 1124,
      "cr": 1125,
      "story": 1126,
      "sand": 1127,
      "world": 1128,
      "only": 1129,
      "Benny": 1130,
      "ash": 1131,
      "open": 1132,
      "fire": 1133,
      "glad": 1134,
      "cra": 1135,
      "through": 1136,
      "aisy": 1137,
      "having": 1138,
      "bunny": 1139,
      "bal": 1140,
      "himself": 1141,
      "done": 1142,
      "fro": 1143,
      "tired": 1144,
      "coming": 1145,
      "shed": 1146,
      "soft": 1147,
      "why": 1148,
      "fr": 1149,
      "olly": 1150,
      "bor": 1151,
      "magic": 1152,
      "ring": 1153,
      "waved": 1154,
      "river": 1155,
      "move": 1156,
      "shouted": 1157,
      "pro": 1158,
      "mer": 1159,
      "worry": 1160,
      "duck": 1161,
      "Tommy": 1162,
      "sweet": 1163,
      "piece": 1164,
      "cold": 1165,
      "kids": 1166,
      "game": 1167,
      "Now": 1168,
      "que": 1169,
      "key": 1170,
      "fill": 1171,
      "thank": 1172,
      "Wh": 1173,
      "cor": 1174,
      "col": 1175,
      "rel": 1176,
      "ater": 1177,
      "Sally": 1178,
      "pond": 1179,
      "making": 1180,
      "uff": 1181,
      "sees": 1182,
      "catch": 1183,
      "fix": 1184,
      "wel": 1185,
      "cool": 1186,
      "lady": 1187,
      "seen": 1188,
      "hopped": 1189,
      "draw": 1190,
      "ath": 1191,
      "dark": 1192,
      "Billy": 1193,
      "stre": 1194,
      "\".": 1195,
      "Daisy": 1196,
      "age": 1197,
      "surprise": 1198,
      "nts": 1199,
      "ppy": 1200,
      "close": 1201,
      "prom": 1202,
      "cious": 1203,
      "gu": 1204,
      "There": 1205,
      "mum": 1206,
      "ation": 1207,
      "funny": 1208,
      "touch": 1209,
      "full": 1210,
      "parents": 1211,
      "sat": 1212,
      "ike": 1213,
      "ple": 1214,
      "ary": 1215,
      "surprised": 1216,
      "worked": 1217,
      "mar": 1218,
      "doing": 1219,
      "frog": 1220,
      "trees": 1221,
      "ped": 1222,
      "At": 1223,
      "turned": 1224,
      "Wow": 1225,
      "ons": 1226,
      "mess": 1227,
      "wear": 1228,
      "Finally": 1229,
      "ins": 1230,
      "pretend": 1231,
      "oney": 1232,
      "wood": 1233,
      "carefully": 1234,
      "hind": 1235,
      "hole": 1236,
      "slow": 1237,
      "tight": 1238,
      "needed": 1239,
      "yard": 1240,
      "delicious": 1241,
      "mouse": 1242,
      "years": 1243,
      "blocks": 1244,
      "swim": 1245,
      "held": 1246,
      "remembered": 1247,
      "Em": 1248,
      "lost": 1249,
      "behind": 1250,
      "looks": 1251,
      "running": 1252,
      "herself": 1253,
      "arri": 1254,
      "butterfly": 1255,
      "cried": 1256,
      "spot": 1257,
      "name": 1258,
      "aby": 1259,
      "cla": 1260,
      "ign": 1261,
      "happily": 1262,
      "enjoyed": 1263,
      "bag": 1264,
      "wished": 1265,
      "floor": 1266,
      "another": 1267,
      "sleep": 1268,
      "climb": 1269,
      "Jim": 1270,
      "pet": 1271,
      "window": 1272,
      "To": 1273,
      "buy": 1274,
      "Molly": 1275,
      "cars": 1276,
      "hill": 1277,
      "dren": 1278,
      "ildren": 1279,
      "cess": 1280,
      "children": 1281,
      "tle": 1282,
      "finished": 1283,
      "lesson": 1284,
      "likes": 1285,
      "gl": 1286,
      "reed": 1287,
      "paper": 1288,
      "andy": 1289,
      "hold": 1290,
      "spo": 1291,
      "wrong": 1292,
      "tri": 1293,
      "tall": 1294,
      "cast": 1295,
      "understand": 1296,
      "arrived": 1297,
      "ens": 1298,
      "gent": 1299,
      "arm": 1300,
      "anything": 1301,
      "contin": 1302,
      "hung": 1303,
      "left": 1304,
      "ger": 1305,
      "bar": 1306,
      "min": 1307,
      "ross": 1308,
      "mou": 1309,
      "oken": 1310,
      "friendly": 1311,
      "asure": 1312,
      "stran": 1313,
      "Hello": 1314,
      "forgot": 1315,
      "Jen": 1316,
      "dream": 1317,
      "pat": 1318,
      "agreed": 1319,
      "filled": 1320,
      "vis": 1321,
      "broken": 1322,
      "dir": 1323,
      "gone": 1324,
      "ued": 1325,
      "ient": 1326,
      "wet": 1327,
      "most": 1328,
      "creat": 1329,
      "cookies": 1330,
      "dinner": 1331,
      "oo": 1332,
      "av": 1333,
      ".âĢĿ": 1334,
      "ield": 1335,
      "erous": 1336,
      "Amy": 1337,
      "else": 1338,
      "ather": 1339,
      "sit": 1340,
      "ced": 1341,
      "hid": 1342,
      "mother": 1343,
      "race": 1344,
      "hot": 1345,
      "build": 1346,
      "colors": 1347,
      "train": 1348,
      "ings": 1349,
      "ves": 1350,
      "followed": 1351,
      "pink": 1352,
      "moment": 1353,
      "bot": 1354,
      "ange": 1355,
      "bug": 1356,
      "wonderful": 1357,
      "fect": 1358,
      "puppy": 1359,
      "dr": 1360,
      "wards": 1361,
      "getting": 1362,
      "continued": 1363,
      "pack": 1364,
      "might": 1365,
      "finally": 1366,
      "morning": 1367,
      "!âĢĿ": 1368,
      "land": 1369,
      "enough": 1370,
      "fair": 1371,
      "ju": 1372,
      "irrel": 1373,
      "perfect": 1374,
      "cover": 1375,
      "stayed": 1376,
      "fall": 1377,
      "someone": 1378,
      "daddy": 1379,
      "cked": 1380,
      "others": 1381,
      "tast": 1382,
      "oup": 1383,
      "trying": 1384,
      "'ll": 1385,
      "nap": 1386,
      "mat": 1387,
      "icy": 1388,
      "grandma": 1389,
      "fur": 1390,
      "snow": 1391,
      "mus": 1392,
      "squirrel": 1393,
      "baby": 1394,
      "leaves": 1395,
      "few": 1396,
      "please": 1397,
      "fight": 1398,
      "break": 1399,
      "climbed": 1400,
      "wall": 1401,
      "lion": 1402,
      "row": 1403,
      "brought": 1404,
      "castle": 1405,
      "art": 1406,
      "beach": 1407,
      "ated": 1408,
      "Why": 1409,
      "gon": 1410,
      "plain": 1411,
      "sometimes": 1412,
      "join": 1413,
      "everything": 1414,
      "deep": 1415,
      "ious": 1416,
      "met": 1417,
      "music": 1418,
      "Mama": 1419,
      "plan": 1420,
      "hungry": 1421,
      "wasn": 1422,
      "pping": 1423,
      "song": 1424,
      "appear": 1425,
      "bus": 1426,
      "ride": 1427,
      "pictures": 1428,
      "pes": 1429,
      "ton": 1430,
      "makes": 1431,
      "zz": 1432,
      "listened": 1433,
      "books": 1434,
      "sear": 1435,
      "Go": 1436,
      "whe": 1437,
      "clothe": 1438,
      "spark": 1439,
      "clothes": 1440,
      "em": 1441,
      "ance": 1442,
      "sail": 1443,
      "ucky": 1444,
      "poin": 1445,
      "grow": 1446,
      "teddy": 1447,
      "wants": 1448,
      "flying": 1449,
      "strange": 1450,
      "ze": 1451,
      "scary": 1452,
      "swer": 1453,
      "Gr": 1454,
      "waited": 1455,
      "ele": 1456,
      "amazed": 1457,
      "dang": 1458,
      "whis": 1459,
      "treat": 1460,
      "amazing": 1461,
      "Daddy": 1462,
      "OK": 1463,
      "ot": 1464,
      "ballo": 1465,
      "Soon": 1466,
      "gi": 1467,
      "ence": 1468,
      "Be": 1469,
      "spl": 1470,
      "owner": 1471,
      "such": 1472,
      "ose": 1473,
      "white": 1474,
      "talk": 1475,
      "Oh": 1476,
      "bike": 1477,
      "promised": 1478,
      "rot": 1479,
      "tail": 1480,
      "shared": 1481,
      "Come": 1482,
      "woods": 1483,
      "sy": 1484,
      "uffy": 1485,
      "pulled": 1486,
      "pers": 1487,
      "pen": 1488,
      "thy": 1489,
      "roll": 1490,
      "belie": 1491,
      "colorful": 1492,
      "Jill": 1493,
      "chair": 1494,
      "magical": 1495,
      "towards": 1496,
      "alone": 1497,
      "kay": 1498,
      "ually": 1499,
      "ateful": 1500,
      "sis": 1501,
      "hes": 1502,
      "grateful": 1503,
      "phone": 1504,
      "Mr": 1505,
      "cha": 1506,
      "pass": 1507,
      "Some": 1508,
      "smiles": 1509,
      "hide": 1510,
      "hig": 1511,
      "All": 1512,
      "silly": 1513,
      "ire": 1514,
      "moral": 1515,
      "miss": 1516,
      "field": 1517,
      "je": 1518,
      "slowly": 1519,
      "kite": 1520,
      "asks": 1521,
      "orn": 1522,
      "monster": 1523,
      "snack": 1524,
      "ses": 1525,
      "sister": 1526,
      "lice": 1527,
      "visit": 1528,
      "treasure": 1529,
      "job": 1530,
      "faster": 1531,
      "pur": 1532,
      "iss": 1533,
      "helping": 1534,
      "worried": 1535,
      "Who": 1536,
      "gra": 1537,
      "party": 1538,
      "heav": 1539,
      "af": 1540,
      "money": 1541,
      "living": 1542,
      "iet": 1543,
      "smel": 1544,
      "must": 1545,
      "bath": 1546,
      "igg": 1547,
      "lake": 1548,
      "board": 1549,
      "explain": 1550,
      "fox": 1551,
      "cup": 1552,
      "bas": 1553,
      "candy": 1554,
      "sign": 1555,
      "quiet": 1556,
      "dry": 1557,
      "ps": 1558,
      "ident": 1559,
      "ling": 1560,
      "higher": 1561,
      "everywhere": 1562,
      "cloud": 1563,
      "town": 1564,
      "mind": 1565,
      "Just": 1566,
      "runs": 1567,
      "stepped": 1568,
      "ames": 1569,
      "bigger": 1570,
      "blan": 1571,
      "chee": 1572,
      "mouth": 1573,
      "stu": 1574,
      "Sure": 1575,
      "closed": 1576,
      "dance": 1577,
      "buck": 1578,
      "scream": 1579,
      "da": 1580,
      "dangerous": 1581,
      "ises": 1582,
      "broke": 1583,
      "ten": 1584,
      "bran": 1585,
      "dolls": 1586,
      "plant": 1587,
      "shine": 1588,
      "basket": 1589,
      "reach": 1590,
      "ment": 1591,
      "Emma": 1592,
      "appeared": 1593,
      "thre": 1594,
      "teac": 1595,
      "wouldn": 1596,
      "heavy": 1597,
      "ng": 1598,
      "wr": 1599,
      "nee": 1600,
      "stood": 1601,
      "Okay": 1602,
      "ming": 1603,
      "cket": 1604,
      "thinks": 1605,
      "Jimmy": 1606,
      "pieces": 1607,
      "Hi": 1608,
      "eating": 1609,
      "princess": 1610,
      "across": 1611,
      "believe": 1612,
      "fru": 1613,
      "stead": 1614,
      "neigh": 1615,
      "free": 1616,
      "gs": 1617,
      "stuck": 1618,
      "iting": 1619,
      "farmer": 1620,
      "ctor": 1621,
      "cident": 1622,
      "paint": 1623,
      "cy": 1624,
      "Please": 1625,
      "crying": 1626,
      "suddenly": 1627,
      "phant": 1628,
      "dri": 1629,
      "soup": 1630,
      "threw": 1631,
      "ap": 1632,
      "gif": 1633,
      "dirty": 1634,
      "swa": 1635,
      "bee": 1636,
      "press": 1637,
      "accident": 1638,
      "ventually": 1639,
      "elephant": 1640,
      "unch": 1641,
      "words": 1642,
      "heal": 1643,
      "win": 1644,
      "well": 1645,
      "child": 1646,
      "ase": 1647,
      "same": 1648,
      "sea": 1649,
      "dragon": 1650,
      "teacher": 1651,
      "Mum": 1652,
      "ben": 1653,
      "plane": 1654,
      "ourse": 1655,
      "ich": 1656,
      "ible": 1657,
      "gentle": 1658,
      "brown": 1659,
      "upset": 1660,
      "bucket": 1661,
      "Sammy": 1662,
      "cheered": 1663,
      "chool": 1664,
      "longer": 1665,
      "start": 1666,
      "swam": 1667,
      "sc": 1668,
      "school": 1669,
      "pray": 1670,
      "black": 1671,
      "bite": 1672,
      "pol": 1673,
      "val": 1674,
      "doctor": 1675,
      "along": 1676,
      "clapped": 1677,
      "kno": 1678,
      "blanket": 1679,
      "caught": 1680,
      "pull": 1681,
      "sang": 1682,
      "bowl": 1683,
      "sug": 1684,
      "button": 1685,
      "El": 1686,
      "Fl": 1687,
      "tu": 1688,
      "explained": 1689,
      "dropped": 1690,
      "juice": 1691,
      "ix": 1692,
      "Mary": 1693,
      "Grandma": 1694,
      "stories": 1695,
      "woke": 1696,
      "bring": 1697,
      "ours": 1698,
      "wings": 1699,
      "swings": 1700,
      "?âĢĿ": 1701,
      "mine": 1702,
      "drink": 1703,
      "round": 1704,
      "Inside": 1705,
      "jour": 1706,
      "young": 1707,
      "welcome": 1708,
      "drove": 1709,
      "ull": 1710,
      "course": 1711,
      "secre": 1712,
      "smart": 1713,
      "moved": 1714,
      "nearby": 1715,
      "today": 1716,
      "ughter": 1717,
      "jar": 1718,
      "Later": 1719,
      "su": 1720,
      "without": 1721,
      "street": 1722,
      "daughter": 1723,
      "though": 1724,
      "happen": 1725,
      "pushed": 1726,
      "cray": 1727,
      "cheese": 1728,
      "turns": 1729,
      "comfor": 1730,
      "singing": 1731,
      "games": 1732,
      "sent": 1733,
      "tiny": 1734,
      "fit": 1735,
      "wish": 1736,
      "pocket": 1737,
      "Fluffy": 1738,
      "part": 1739,
      "ney": 1740,
      "fairy": 1741,
      "ship": 1742,
      "hoped": 1743,
      "ches": 1744,
      "ier": 1745,
      "wise": 1746,
      "body": 1747,
      "Tweet": 1748,
      "cow": 1749,
      "del": 1750,
      "suc": 1751,
      "itch": 1752,
      "shell": 1753,
      "itting": 1754,
      "hugs": 1755,
      "twins": 1756,
      "lone": 1757,
      "pow": 1758,
      "trou": 1759,
      "forget": 1760,
      "apple": 1761,
      "noises": 1762,
      "exploring": 1763,
      "ntain": 1764,
      "rocks": 1765,
      "balloon": 1766,
      "lunch": 1767,
      "seemed": 1768,
      "lonely": 1769,
      "bush": 1770,
      "backyard": 1771,
      "tower": 1772,
      "bubb": 1773,
      "shook": 1774,
      "chas": 1775,
      "Their": 1776,
      "oun": 1777,
      "hello": 1778,
      "cir": 1779,
      "stone": 1780,
      "fused": 1781,
      "covered": 1782,
      "ser": 1783,
      "sco": 1784,
      "stars": 1785,
      "shapes": 1786,
      "throw": 1787,
      "oom": 1788,
      "takes": 1789,
      "shoes": 1790,
      "mil": 1791,
      "ward": 1792,
      "add": 1793,
      "kiss": 1794,
      "pil": 1795,
      "relie": 1796,
      "taking": 1797,
      "bench": 1798,
      "ittens": 1799,
      "late": 1800,
      "adventures": 1801,
      "hit": 1802,
      "owl": 1803,
      "cute": 1804,
      "driver": 1805,
      "fence": 1806,
      "pper": 1807,
      "mix": 1808,
      "neck": 1809,
      "orange": 1810,
      "Pe": 1811,
      "spin": 1812,
      "erful": 1813,
      "coat": 1814,
      "creature": 1815,
      "accidentally": 1816,
      "With": 1817,
      "ining": 1818,
      "rainbow": 1819,
      "ions": 1820,
      "comes": 1821,
      "fing": 1822,
      "My": 1823,
      "touc": 1824,
      "onto": 1825,
      "arms": 1826,
      "Jenny": 1827,
      "ast": 1828,
      "sitting": 1829,
      "heart": 1830,
      "quest": 1831,
      "secret": 1832,
      "dist": 1833,
      "ned": 1834,
      "pra": 1835,
      "nest": 1836,
      "idge": 1837,
      "sunshine": 1838,
      "gged": 1839,
      "naught": 1840,
      "vel": 1841,
      "naughty": 1842,
      "ined": 1843,
      "instead": 1844,
      "bought": 1845,
      "wondered": 1846,
      "boun": 1847,
      "eas": 1848,
      "laughing": 1849,
      "spoon": 1850,
      "shop": 1851,
      "count": 1852,
      "searched": 1853,
      "att": 1854,
      "cozy": 1855,
      "monkey": 1856,
      "milk": 1857,
      "hu": 1858,
      "num": 1859,
      "carry": 1860,
      "cave": 1861,
      "gen": 1862,
      "ness": 1863,
      "purple": 1864,
      "touched": 1865,
      "talked": 1866,
      "ator": 1867,
      "pig": 1868,
      "sunny": 1869,
      "sounds": 1870,
      "Ted": 1871,
      "band": 1872,
      "wand": 1873,
      "days": 1874,
      "apples": 1875,
      "Le": 1876,
      "lucky": 1877,
      "cks": 1878,
      "itty": 1879,
      "feels": 1880,
      "Mittens": 1881,
      "ek": 1882,
      "sli": 1883,
      "busy": 1884,
      "uni": 1885,
      "past": 1886,
      "farm": 1887,
      "fan": 1888,
      "zoom": 1889,
      "nose": 1890,
      "live": 1891,
      "gest": 1892,
      "patient": 1893,
      "cal": 1894,
      "sick": 1895,
      "relieved": 1896,
      "nothing": 1897,
      "raid": 1898,
      "nic": 1899,
      "belong": 1900,
      "rope": 1901,
      "afraid": 1902,
      "swimming": 1903,
      "wom": 1904,
      "shelf": 1905,
      "push": 1906,
      "cing": 1907,
      "woman": 1908,
      "mad": 1909,
      "peace": 1910,
      "danced": 1911,
      "ider": 1912,
      "str": 1913,
      "blem": 1914,
      "watching": 1915,
      "circle": 1916,
      "huge": 1917,
      "Jake": 1918,
      "cer": 1919,
      "life": 1920,
      "loves": 1921,
      "problem": 1922,
      "neighbor": 1923,
      "journey": 1924,
      "act": 1925,
      "pudd": 1926,
      "ars": 1927,
      "stor": 1928,
      "knee": 1929,
      "wra": 1930,
      "amp": 1931,
      "exciting": 1932,
      "forever": 1933,
      "minut": 1934,
      "grab": 1935,
      "vill": 1936,
      "vie": 1937,
      "asleep": 1938,
      "craw": 1939,
      "net": 1940,
      "colle": 1941,
      "thday": 1942,
      "storm": 1943,
      "Of": 1944,
      "hor": 1945,
      "organ": 1946,
      "clever": 1947,
      "healthy": 1948,
      "Emily": 1949,
      "irt": 1950,
      "meet": 1951,
      "holding": 1952,
      "gather": 1953,
      "prote": 1954,
      "os": 1955,
      "Good": 1956,
      "Answer": 1957,
      "ian": 1958,
      "inv": 1959,
      "spotted": 1960,
      "berries": 1961,
      "sharp": 1962,
      "mail": 1963,
      "resting": 1964,
      "coun": 1965,
      "bottle": 1966,
      "birthday": 1967,
      "ey": 1968,
      "itten": 1969,
      "snake": 1970,
      "gently": 1971,
      "branch": 1972,
      "mach": 1973,
      "Hey": 1974,
      "smell": 1975,
      "pop": 1976,
      "places": 1977,
      "di": 1978,
      "fli": 1979,
      "respe": 1980,
      "pointed": 1981,
      "person": 1982,
      "gift": 1983,
      "How": 1984,
      "ugg": 1985,
      "hope": 1986,
      "tasty": 1987,
      "smiling": 1988,
      "tool": 1989,
      "rubb": 1990,
      "wide": 1991,
      "shining": 1992,
      "lay": 1993,
      "mel": 1994,
      "adm": 1995,
      "blew": 1996,
      "tasted": 1997,
      "smelled": 1998,
      "lar": 1999,
      "kick": 2000,
      "wash": 2001,
      "orm": 2002,
      "wearing": 2003,
      "letter": 2004,
      "present": 2005,
      "picnic": 2006,
      "gy": 2007,
      "spider": 2008,
      "corn": 2009,
      "trouble": 2010,
      "matter": 2011,
      "eth": 2012,
      "inte": 2013,
      "ones": 2014,
      "tightly": 2015,
      "eag": 2016,
      "pan": 2017,
      "pread": 2018,
      "ize": 2019,
      "pract": 2020,
      "respect": 2021,
      "gigg": 2022,
      "spread": 2023,
      "feather": 2024,
      "shes": 2025,
      "des": 2026,
      "anyone": 2027,
      "seat": 2028,
      "bread": 2029,
      "road": 2030,
      "puzz": 2031,
      "whole": 2032,
      "prince": 2033,
      "mark": 2034,
      "word": 2035,
      "path": 2036,
      "giant": 2037,
      "ert": 2038,
      "honey": 2039,
      "later": 2040,
      "confused": 2041,
      "cookie": 2042,
      "cop": 2043,
      "dol": 2044,
      "roar": 2045,
      "hop": 2046,
      "last": 2047
    },
    "merges": [
      [
        "h",
        "e"
      ],
      [
        "a",
        "n"
      ],
      [
        "t",
        "he"
      ],
      [
        "e",
        "d"
      ],
      [
        "an",
        "d"
      ],
      [
        "t",
        "o"
      ],
      [
        "i",
        "n"
      ],
      [
        "r",
        "e"
      ],
      [
        "w",
        "a"
      ],
      [
        "i",
        "t"
      ],
      [
        "o",
        "u"
      ],
      [
        "h",
        "a"
      ],
      [
        "e",
        "r"
      ],
      [
        "wa",
        "s"
      ],
      [
        "o",
        "m"
      ],
      [
        "e",
        "n"
      ],
      [
        "o",
        "n"
      ],
      [
        "a",
        "r"
      ],
      [
        "T",
        "he"
      ],
      [
        "i",
        "s"
      ],
      [
        "in",
        "g"
      ],
      [
        "i",
        "l"
      ],
      [
        "i",
        "d"
      ],
      [
        "s",
        "a"
      ],
      [
        "l",
        "e"
      ],
      [
        "a",
        "y"
      ],
      [
        "i",
        "m"
      ],
      [
        "l",
        "o"
      ],
      [
        "a",
        "l"
      ],
      [
        "s",
        "t"
      ],
      [
        "o",
        "r"
      ],
      [
        "he",
        "r"
      ],
      [
        "H",
        "e"
      ],
      [
        "S",
        "he"
      ],
      [
        "i",
        "r"
      ],
      [
        "t",
        "h"
      ],
      [
        "n",
        "e"
      ],
      [
        "b",
        "e"
      ],
      [
        "v",
        "er"
      ],
      [
        "ha",
        "t"
      ],
      [
        "The",
        "y"
      ],
      [
        "u",
        "t"
      ],
      [
        "s",
        "e"
      ],
      [
        "c",
        "k"
      ],
      [
        "a",
        "t"
      ],
      [
        "l",
        "d"
      ],
      [
        "c",
        "e"
      ],
      [
        "a",
        "m"
      ],
      [
        "k",
        "e"
      ],
      [
        "n",
        "o"
      ],
      [
        "i",
        "g"
      ],
      [
        "s",
        "he"
      ],
      [
        "sa",
        "id"
      ],
      [
        "il",
        "y"
      ],
      [
        "v",
        "e"
      ],
      [
        "p",
        "l"
      ],
      [
        "it",
        "h"
      ],
      [
        "h",
        "is"
      ],
      [
        "p",
        "p"
      ],
      [
        "s",
        "o"
      ],
      [
        "w",
        "ith"
      ],
      [
        "r",
        "i"
      ],
      [
        "a",
        "d"
      ],
      [
        "o",
        "f"
      ],
      [
        "L",
        "ily"
      ],
      [
        "u",
        "n"
      ],
      [
        "l",
        "y"
      ],
      [
        "k",
        "ed"
      ],
      [
        "d",
        "ay"
      ],
      [
        "ver",
        "y"
      ],
      [
        "y",
        "ou"
      ],
      [
        "w",
        "e"
      ],
      [
        "m",
        "y"
      ],
      [
        "om",
        "e"
      ],
      [
        "t",
        "hat"
      ],
      [
        "u",
        "p"
      ],
      [
        "l",
        "i"
      ],
      [
        "g",
        "o"
      ],
      [
        "o",
        "w"
      ],
      [
        "an",
        "t"
      ],
      [
        "a",
        "s"
      ],
      [
        "ha",
        "d"
      ],
      [
        "c",
        "h"
      ],
      [
        "pl",
        "ay"
      ],
      [
        "the",
        "y"
      ],
      [
        "e",
        "s"
      ],
      [
        "f",
        "or"
      ],
      [
        "f",
        "e"
      ],
      [
        "m",
        "om"
      ],
      [
        "ou",
        "ld"
      ],
      [
        "n",
        "d"
      ],
      [
        "al",
        "l"
      ],
      [
        "b",
        "o"
      ],
      [
        "en",
        "d"
      ],
      [
        "'",
        "s"
      ],
      [
        "it",
        "t"
      ],
      [
        "en",
        "t"
      ],
      [
        "ha",
        "pp"
      ],
      [
        "t",
        "im"
      ],
      [
        "w",
        "ant"
      ],
      [
        "g",
        "e"
      ],
      [
        "o",
        "k"
      ],
      [
        "ou",
        "t"
      ],
      [
        "tim",
        "e"
      ],
      [
        "itt",
        "le"
      ],
      [
        "ou",
        "nd"
      ],
      [
        "d",
        "o"
      ],
      [
        "r",
        "o"
      ],
      [
        "l",
        "ittle"
      ],
      [
        "I",
        "t"
      ],
      [
        "the",
        "re"
      ],
      [
        "a",
        "re"
      ],
      [
        "the",
        "r"
      ],
      [
        "r",
        "a"
      ],
      [
        "h",
        "t"
      ],
      [
        "no",
        "t"
      ],
      [
        "happ",
        "y"
      ],
      [
        "r",
        "y"
      ],
      [
        "s",
        "h"
      ],
      [
        "b",
        "ig"
      ],
      [
        "b",
        "ut"
      ],
      [
        "s",
        "m"
      ],
      [
        "sa",
        "w"
      ],
      [
        "T",
        "im"
      ],
      [
        "a",
        "ke"
      ],
      [
        "a",
        "ck"
      ],
      [
        "ri",
        "end"
      ],
      [
        "f",
        "riend"
      ],
      [
        "t",
        "er"
      ],
      [
        "u",
        "l"
      ],
      [
        "id",
        "e"
      ],
      [
        "y",
        "s"
      ],
      [
        "O",
        "ne"
      ],
      [
        "th",
        "ing"
      ],
      [
        "s",
        "ome"
      ],
      [
        "O",
        "n"
      ],
      [
        "on",
        "e"
      ],
      [
        "v",
        "ed"
      ],
      [
        "'",
        "t"
      ],
      [
        "On",
        "ce"
      ],
      [
        ".",
        "\""
      ],
      [
        "we",
        "re"
      ],
      [
        "u",
        "g"
      ],
      [
        "h",
        "o"
      ],
      [
        "h",
        "im"
      ],
      [
        "!",
        "\""
      ],
      [
        "p",
        "e"
      ],
      [
        "c",
        "ar"
      ],
      [
        "up",
        "on"
      ],
      [
        "ir",
        "l"
      ],
      [
        "want",
        "ed"
      ],
      [
        "e",
        "l"
      ],
      [
        "g",
        "irl"
      ],
      [
        "f",
        "ul"
      ],
      [
        "the",
        "m"
      ],
      [
        "u",
        "r"
      ],
      [
        "in",
        "d"
      ],
      [
        "c",
        "ould"
      ],
      [
        "c",
        "o"
      ],
      [
        "T",
        "om"
      ],
      [
        "e",
        "x"
      ],
      [
        "a",
        "g"
      ],
      [
        "d",
        "id"
      ],
      [
        "he",
        "n"
      ],
      [
        "m",
        "e"
      ],
      [
        "the",
        "ir"
      ],
      [
        "m",
        "o"
      ],
      [
        "il",
        "l"
      ],
      [
        "sm",
        "il"
      ],
      [
        "w",
        "ent"
      ],
      [
        "he",
        "l"
      ],
      [
        "B",
        "en"
      ],
      [
        "r",
        "om"
      ],
      [
        "ha",
        "ve"
      ],
      [
        "ne",
        "w"
      ],
      [
        "t",
        "ed"
      ],
      [
        "n",
        "am"
      ],
      [
        "B",
        "ut"
      ],
      [
        "d",
        "e"
      ],
      [
        "o",
        "d"
      ],
      [
        "Tim",
        "my"
      ],
      [
        "hel",
        "p"
      ],
      [
        "ig",
        "ht"
      ],
      [
        "fe",
        "l"
      ],
      [
        "c",
        "an"
      ],
      [
        "wa",
        "y"
      ],
      [
        "e",
        "t"
      ],
      [
        "u",
        "m"
      ],
      [
        "friend",
        "s"
      ],
      [
        "he",
        "d"
      ],
      [
        "b",
        "ack"
      ],
      [
        "a",
        "b"
      ],
      [
        "s",
        "ide"
      ],
      [
        "ar",
        "k"
      ],
      [
        "nam",
        "ed"
      ],
      [
        "i",
        "c"
      ],
      [
        "a",
        "in"
      ],
      [
        "r",
        "an"
      ],
      [
        "?",
        "\""
      ],
      [
        "f",
        "o"
      ],
      [
        "f",
        "un"
      ],
      [
        "lo",
        "ved"
      ],
      [
        "m",
        "an"
      ],
      [
        "to",
        "o"
      ],
      [
        "st",
        "ar"
      ],
      [
        "li",
        "ke"
      ],
      [
        "p",
        "o"
      ],
      [
        "fel",
        "t"
      ],
      [
        "ou",
        "g"
      ],
      [
        "lo",
        "w"
      ],
      [
        "l",
        "a"
      ],
      [
        "smil",
        "ed"
      ],
      [
        "lo",
        "o"
      ],
      [
        "Y",
        "ou"
      ],
      [
        "as",
        "ked"
      ],
      [
        "ow",
        "n"
      ],
      [
        "i",
        "ck"
      ],
      [
        "s",
        "to"
      ],
      [
        "ar",
        "ound"
      ],
      [
        "am",
        "e"
      ],
      [
        "ar",
        "d"
      ],
      [
        "loo",
        "ked"
      ],
      [
        "u",
        "re"
      ],
      [
        "p",
        "r"
      ],
      [
        "bo",
        "y"
      ],
      [
        "w",
        "ould"
      ],
      [
        "b",
        "ir"
      ],
      [
        "se",
        "e"
      ],
      [
        "w",
        "or"
      ],
      [
        "m",
        "ake"
      ],
      [
        "f",
        "a"
      ],
      [
        "M",
        "om"
      ],
      [
        "g",
        "r"
      ],
      [
        "bir",
        "d"
      ],
      [
        "on",
        "g"
      ],
      [
        "l",
        "l"
      ],
      [
        "p",
        "ark"
      ],
      [
        "c",
        "a"
      ],
      [
        "no",
        "w"
      ],
      [
        "t",
        "re"
      ],
      [
        "a",
        "way"
      ],
      [
        "o",
        "p"
      ],
      [
        "o",
        "ther"
      ],
      [
        "w",
        "hat"
      ],
      [
        "ad",
        "e"
      ],
      [
        "i",
        "ce"
      ],
      [
        "â",
        "Ģ"
      ],
      [
        "star",
        "ted"
      ],
      [
        "ge",
        "ther"
      ],
      [
        "d",
        "d"
      ],
      [
        "c",
        "ame"
      ],
      [
        "s",
        "s"
      ],
      [
        "it",
        "ed"
      ],
      [
        "ou",
        "d"
      ],
      [
        "m",
        "ade"
      ],
      [
        "to",
        "gether"
      ],
      [
        "some",
        "thing"
      ],
      [
        "p",
        "ut"
      ],
      [
        "ex",
        "c"
      ],
      [
        "ge",
        "t"
      ],
      [
        "go",
        "t"
      ],
      [
        "sa",
        "d"
      ],
      [
        ",",
        "\""
      ],
      [
        "f",
        "rom"
      ],
      [
        "lo",
        "ok"
      ],
      [
        "i",
        "e"
      ],
      [
        "h",
        "ome"
      ],
      [
        "m",
        "u"
      ],
      [
        "u",
        "e"
      ],
      [
        "the",
        "n"
      ],
      [
        "ag",
        "ain"
      ],
      [
        "f",
        "ound"
      ],
      [
        "s",
        "car"
      ],
      [
        "i",
        "f"
      ],
      [
        "wa",
        "l"
      ],
      [
        "n",
        "a"
      ],
      [
        "de",
        "c"
      ],
      [
        "t",
        "s"
      ],
      [
        "w",
        "ho"
      ],
      [
        "c",
        "i"
      ],
      [
        "ri",
        "ed"
      ],
      [
        "b",
        "r"
      ],
      [
        "go",
        "od"
      ],
      [
        "pp",
        "ed"
      ],
      [
        "sa",
        "ys"
      ],
      [
        "w",
        "hen"
      ],
      [
        "al",
        "ly"
      ],
      [
        "a",
        "ch"
      ],
      [
        "exc",
        "ited"
      ],
      [
        "oug",
        "ht"
      ],
      [
        "play",
        "ing"
      ],
      [
        "mo",
        "re"
      ],
      [
        "b",
        "y"
      ],
      [
        "e",
        "p"
      ],
      [
        "k",
        "ing"
      ],
      [
        "h",
        "ug"
      ],
      [
        "a",
        "ve"
      ],
      [
        "id",
        "ed"
      ],
      [
        "thing",
        "s"
      ],
      [
        "u",
        "ck"
      ],
      [
        "n",
        "y"
      ],
      [
        "dec",
        "ided"
      ],
      [
        "ou",
        "s"
      ],
      [
        "e",
        "very"
      ],
      [
        "u",
        "se"
      ],
      [
        "s",
        "pe"
      ],
      [
        "li",
        "ked"
      ],
      [
        "a",
        "x"
      ],
      [
        "S",
        "am"
      ],
      [
        "d",
        "own"
      ],
      [
        "do",
        "g"
      ],
      [
        "d",
        "er"
      ],
      [
        "u",
        "s"
      ],
      [
        "scar",
        "ed"
      ],
      [
        "A",
        "n"
      ],
      [
        "wa",
        "ys"
      ],
      [
        "ou",
        "se"
      ],
      [
        "c",
        "are"
      ],
      [
        "u",
        "dd"
      ],
      [
        "th",
        "an"
      ],
      [
        "b",
        "b"
      ],
      [
        "f",
        "ind"
      ],
      [
        "ha",
        "r"
      ],
      [
        "u",
        "st"
      ],
      [
        "ar",
        "a"
      ],
      [
        "M",
        "ax"
      ],
      [
        "did",
        "n"
      ],
      [
        "j",
        "o"
      ],
      [
        "p",
        "re"
      ],
      [
        "at",
        "e"
      ],
      [
        "a",
        "c"
      ],
      [
        "ar",
        "n"
      ],
      [
        "t",
        "ake"
      ],
      [
        "mom",
        "my"
      ],
      [
        "w",
        "o"
      ],
      [
        "d",
        "ad"
      ],
      [
        "al",
        "ways"
      ],
      [
        "fe",
        "el"
      ],
      [
        "you",
        "r"
      ],
      [
        "it",
        "e"
      ],
      [
        "out",
        "side"
      ],
      [
        "c",
        "lo"
      ],
      [
        "to",
        "ok"
      ],
      [
        "q",
        "u"
      ],
      [
        "S",
        "o"
      ],
      [
        "ab",
        "out"
      ],
      [
        "W",
        "e"
      ],
      [
        "an",
        "g"
      ],
      [
        "S",
        "ara"
      ],
      [
        "tre",
        "e"
      ],
      [
        "t",
        "e"
      ],
      [
        "o",
        "ld"
      ],
      [
        "he",
        "re"
      ],
      [
        "ou",
        "r"
      ],
      [
        "to",
        "ys"
      ],
      [
        "W",
        "hen"
      ],
      [
        "w",
        "h"
      ],
      [
        "le",
        "arn"
      ],
      [
        "k",
        "now"
      ],
      [
        "th",
        "ought"
      ],
      [
        "fo",
        "re"
      ],
      [
        "en",
        "ed"
      ],
      [
        "k",
        "new"
      ],
      [
        "m",
        "a"
      ],
      [
        "is",
        "e"
      ],
      [
        "J",
        "o"
      ],
      [
        "ro",
        "om"
      ],
      [
        "i",
        "ve"
      ],
      [
        "An",
        "na"
      ],
      [
        "udd",
        "en"
      ],
      [
        "w",
        "ill"
      ],
      [
        "t",
        "y"
      ],
      [
        "spe",
        "ci"
      ],
      [
        "speci",
        "al"
      ],
      [
        "c",
        "at"
      ],
      [
        "s",
        "w"
      ],
      [
        "er",
        "s"
      ],
      [
        "la",
        "ug"
      ],
      [
        "H",
        "er"
      ],
      [
        "g",
        "ed"
      ],
      [
        "f",
        "ter"
      ],
      [
        "udden",
        "ly"
      ],
      [
        "s",
        "or"
      ],
      [
        "b",
        "all"
      ],
      [
        "an",
        "y"
      ],
      [
        "to",
        "y"
      ],
      [
        "E",
        "very"
      ],
      [
        "ne",
        "ver"
      ],
      [
        "is",
        "h"
      ],
      [
        "h",
        "ow"
      ],
      [
        "h",
        "ouse"
      ],
      [
        "c",
        "ome"
      ],
      [
        "o",
        "l"
      ],
      [
        "mu",
        "ch"
      ],
      [
        "l",
        "f"
      ],
      [
        "r",
        "un"
      ],
      [
        "c",
        "re"
      ],
      [
        "s",
        "p"
      ],
      [
        "c",
        "le"
      ],
      [
        "v",
        "en"
      ],
      [
        "in",
        "k"
      ],
      [
        "b",
        "l"
      ],
      [
        "d",
        "re"
      ],
      [
        "J",
        "ack"
      ],
      [
        "sh",
        "ow"
      ],
      [
        "could",
        "n"
      ],
      [
        "o",
        "ver"
      ],
      [
        "bo",
        "x"
      ],
      [
        "t",
        "ried"
      ],
      [
        "in",
        "to"
      ],
      [
        "g",
        "re"
      ],
      [
        "is",
        "t"
      ],
      [
        "ca",
        "use"
      ],
      [
        "l",
        "ong"
      ],
      [
        "s",
        "k"
      ],
      [
        "s",
        "un"
      ],
      [
        "care",
        "ful"
      ],
      [
        "e",
        "at"
      ],
      [
        "in",
        "side"
      ],
      [
        "g",
        "ave"
      ],
      [
        "d",
        "y"
      ],
      [
        "h",
        "and"
      ],
      [
        "ab",
        "le"
      ],
      [
        "b",
        "u"
      ],
      [
        "t",
        "r"
      ],
      [
        "to",
        "ld"
      ],
      [
        "um",
        "p"
      ],
      [
        "pr",
        "oud"
      ],
      [
        "be",
        "cause"
      ],
      [
        "sor",
        "ry"
      ],
      [
        "un",
        "t"
      ],
      [
        "S",
        "uddenly"
      ],
      [
        "i",
        "on"
      ],
      [
        "i",
        "a"
      ],
      [
        "p",
        "a"
      ],
      [
        "t",
        "ter"
      ],
      [
        "c",
        "l"
      ],
      [
        "t",
        "a"
      ],
      [
        "F",
        "rom"
      ],
      [
        "play",
        "ed"
      ],
      [
        "e",
        "ar"
      ],
      [
        "th",
        "is"
      ],
      [
        "r",
        "ed"
      ],
      [
        "he",
        "ard"
      ],
      [
        "The",
        "n"
      ],
      [
        "wa",
        "ter"
      ],
      [
        "u",
        "c"
      ],
      [
        "s",
        "ha"
      ],
      [
        "p",
        "ick"
      ],
      [
        "l",
        "ed"
      ],
      [
        "j",
        "ust"
      ],
      [
        "c",
        "he"
      ],
      [
        "hug",
        "ged"
      ],
      [
        "f",
        "ly"
      ],
      [
        "L",
        "et"
      ],
      [
        "of",
        "f"
      ],
      [
        "e",
        "ach"
      ],
      [
        "pre",
        "t"
      ],
      [
        "wa",
        "r"
      ],
      [
        "il",
        "e"
      ],
      [
        "H",
        "is"
      ],
      [
        "ex",
        "p"
      ],
      [
        "c",
        "om"
      ],
      [
        "po",
        "t"
      ],
      [
        "be",
        "ar"
      ],
      [
        "ra",
        "bb"
      ],
      [
        "t",
        "ry"
      ],
      [
        "c",
        "t"
      ],
      [
        "in",
        "e"
      ],
      [
        "wa",
        "t"
      ],
      [
        "ne",
        "ed"
      ],
      [
        "i",
        "z"
      ],
      [
        "n",
        "ice"
      ],
      [
        "unt",
        "il"
      ],
      [
        "sm",
        "all"
      ],
      [
        "b",
        "er"
      ],
      [
        "lo",
        "ve"
      ],
      [
        "M",
        "ia"
      ],
      [
        "v",
        "ing"
      ],
      [
        "re",
        "ad"
      ],
      [
        "oug",
        "h"
      ],
      [
        "learn",
        "ed"
      ],
      [
        "b",
        "ed"
      ],
      [
        "se",
        "lf"
      ],
      [
        "f",
        "low"
      ],
      [
        "be",
        "a"
      ],
      [
        "A",
        "nd"
      ],
      [
        "k",
        "ind"
      ],
      [
        "man",
        "y"
      ],
      [
        "'",
        "m"
      ],
      [
        "be",
        "tter"
      ],
      [
        "ha",
        "s"
      ],
      [
        "im",
        "al"
      ],
      [
        "an",
        "imal"
      ],
      [
        "as",
        "s"
      ],
      [
        "it",
        "s"
      ],
      [
        "v",
        "ent"
      ],
      [
        "fa",
        "st"
      ],
      [
        "sa",
        "fe"
      ],
      [
        "T",
        "hat"
      ],
      [
        "l",
        "ad"
      ],
      [
        "ra",
        "in"
      ],
      [
        "p",
        "er"
      ],
      [
        "a",
        "ce"
      ],
      [
        "exp",
        "lo"
      ],
      [
        "w",
        "here"
      ],
      [
        "bea",
        "ut"
      ],
      [
        "j",
        "ump"
      ],
      [
        "p",
        "t"
      ],
      [
        "e",
        "ven"
      ],
      [
        "be",
        "st"
      ],
      [
        "than",
        "ked"
      ],
      [
        "t",
        "ur"
      ],
      [
        "b",
        "ra"
      ],
      [
        "c",
        "all"
      ],
      [
        "lo",
        "ts"
      ],
      [
        "n",
        "t"
      ],
      [
        "h",
        "ur"
      ],
      [
        "laug",
        "hed"
      ],
      [
        "f",
        "le"
      ],
      [
        "Mom",
        "my"
      ],
      [
        "f",
        "am"
      ],
      [
        "s",
        "ur"
      ],
      [
        "f",
        "i"
      ],
      [
        "y",
        "es"
      ],
      [
        "ard",
        "en"
      ],
      [
        "g",
        "arden"
      ],
      [
        "i",
        "ful"
      ],
      [
        "beaut",
        "iful"
      ],
      [
        "un",
        "der"
      ],
      [
        "W",
        "hat"
      ],
      [
        "Jo",
        "h"
      ],
      [
        "Joh",
        "n"
      ],
      [
        "l",
        "oud"
      ],
      [
        "sk",
        "y"
      ],
      [
        "f",
        "t"
      ],
      [
        "c",
        "hed"
      ],
      [
        "d",
        "on"
      ],
      [
        "jo",
        "y"
      ],
      [
        "n",
        "ing"
      ],
      [
        "âĢ",
        "Ŀ"
      ],
      [
        "le",
        "t"
      ],
      [
        "âĢ",
        "ľ"
      ],
      [
        "r",
        "ong"
      ],
      [
        "in",
        "y"
      ],
      [
        "am",
        "a"
      ],
      [
        "b",
        "le"
      ],
      [
        "sa",
        "y"
      ],
      [
        "Y",
        "es"
      ],
      [
        "st",
        "ay"
      ],
      [
        "l",
        "ist"
      ],
      [
        "an",
        "k"
      ],
      [
        "op",
        "le"
      ],
      [
        "st",
        "ill"
      ],
      [
        "re",
        "e"
      ],
      [
        "A",
        "s"
      ],
      [
        "g",
        "ive"
      ],
      [
        "or",
        "t"
      ],
      [
        "A",
        "fter"
      ],
      [
        "bo",
        "th"
      ],
      [
        "fam",
        "ily"
      ],
      [
        "ig",
        "h"
      ],
      [
        "bra",
        "ve"
      ],
      [
        "p",
        "u"
      ],
      [
        "pe",
        "ople"
      ],
      [
        "el",
        "l"
      ],
      [
        "bo",
        "ok"
      ],
      [
        "f",
        "in"
      ],
      [
        "animal",
        "s"
      ],
      [
        "gr",
        "ound"
      ],
      [
        "a",
        "pp"
      ],
      [
        "li",
        "ved"
      ],
      [
        "o",
        "b"
      ],
      [
        "wal",
        "ked"
      ],
      [
        "T",
        "h"
      ],
      [
        "C",
        "an"
      ],
      [
        "har",
        "d"
      ],
      [
        "tur",
        "n"
      ],
      [
        "sur",
        "pr"
      ],
      [
        "t",
        "wo"
      ],
      [
        "b",
        "ad"
      ],
      [
        "N",
        "o"
      ],
      [
        "c",
        "on"
      ],
      [
        "is",
        "hed"
      ],
      [
        "w",
        "on"
      ],
      [
        "sh",
        "ould"
      ],
      [
        "ke",
        "pt"
      ],
      [
        "hur",
        "t"
      ],
      [
        "r",
        "u"
      ],
      [
        "fle",
        "w"
      ],
      [
        "is",
        "ed"
      ],
      [
        "re",
        "al"
      ],
      [
        "an",
        "e"
      ],
      [
        "p",
        "ic"
      ],
      [
        "st",
        "e"
      ],
      [
        "Th",
        "ank"
      ],
      [
        "im",
        "p"
      ],
      [
        "cle",
        "an"
      ],
      [
        "L",
        "uc"
      ],
      [
        "clo",
        "s"
      ],
      [
        "Luc",
        "y"
      ],
      [
        "go",
        "ing"
      ],
      [
        "call",
        "ed"
      ],
      [
        "ke",
        "ep"
      ],
      [
        "ang",
        "ry"
      ],
      [
        "sha",
        "re"
      ],
      [
        "s",
        "l"
      ],
      [
        "so",
        "on"
      ],
      [
        "le",
        "a"
      ],
      [
        "pret",
        "ty"
      ],
      [
        "ro",
        "ck"
      ],
      [
        "il",
        "ly"
      ],
      [
        "c",
        "u"
      ],
      [
        "feel",
        "ing"
      ],
      [
        "le",
        "s"
      ],
      [
        "explo",
        "re"
      ],
      [
        "pl",
        "ace"
      ],
      [
        "w",
        "ind"
      ],
      [
        "D",
        "ad"
      ],
      [
        "f",
        "ar"
      ],
      [
        "ad",
        "vent"
      ],
      [
        "c",
        "ry"
      ],
      [
        "do",
        "ll"
      ],
      [
        "al",
        "so"
      ],
      [
        "sh",
        "o"
      ],
      [
        "do",
        "or"
      ],
      [
        "m",
        "or"
      ],
      [
        "ide",
        "a"
      ],
      [
        "wh",
        "ile"
      ],
      [
        "op",
        "ened"
      ],
      [
        "b",
        "ro"
      ],
      [
        "sh",
        "iny"
      ],
      [
        "lo",
        "t"
      ],
      [
        "i",
        "ed"
      ],
      [
        "t",
        "ing"
      ],
      [
        "be",
        "fore"
      ],
      [
        "B",
        "ob"
      ],
      [
        "p",
        "ar"
      ],
      [
        "um",
        "my"
      ],
      [
        "wor",
        "k"
      ],
      [
        "se",
        "t"
      ],
      [
        "il",
        "d"
      ],
      [
        "wal",
        "king"
      ],
      [
        "no",
        "ise"
      ],
      [
        "li",
        "e"
      ],
      [
        "co",
        "lo"
      ],
      [
        "lo",
        "ck"
      ],
      [
        "r",
        "ight"
      ],
      [
        "f",
        "ish"
      ],
      [
        "t",
        "ure"
      ],
      [
        "u",
        "ch"
      ],
      [
        "colo",
        "r"
      ],
      [
        "fa",
        "ce"
      ],
      [
        "i",
        "es"
      ],
      [
        "t",
        "al"
      ],
      [
        "m",
        "ber"
      ],
      [
        "pick",
        "ed"
      ],
      [
        "be",
        "ing"
      ],
      [
        "look",
        "ing"
      ],
      [
        "cl",
        "im"
      ],
      [
        "ne",
        "x"
      ],
      [
        "âĢ",
        "Ļ"
      ],
      [
        "d",
        "s"
      ],
      [
        "fo",
        "od"
      ],
      [
        "ha",
        "ir"
      ],
      [
        "d",
        "if"
      ],
      [
        "th",
        "r"
      ],
      [
        "advent",
        "ure"
      ],
      [
        "bl",
        "ue"
      ],
      [
        "a",
        "k"
      ],
      [
        "smil",
        "e"
      ],
      [
        "ug",
        "ht"
      ],
      [
        "es",
        "s"
      ],
      [
        "ic",
        "ed"
      ],
      [
        "nex",
        "t"
      ],
      [
        "d",
        "is"
      ],
      [
        "e",
        "ver"
      ],
      [
        "qu",
        "ick"
      ],
      [
        "p",
        "h"
      ],
      [
        "d",
        "ra"
      ],
      [
        "he",
        "ar"
      ],
      [
        "no",
        "dd"
      ],
      [
        "as",
        "k"
      ],
      [
        "n",
        "ight"
      ],
      [
        "me",
        "mber"
      ],
      [
        "fore",
        "st"
      ],
      [
        "nodd",
        "ed"
      ],
      [
        "e",
        "yes"
      ],
      [
        "le",
        "ss"
      ],
      [
        "us",
        "ed"
      ],
      [
        "L",
        "o"
      ],
      [
        "pic",
        "ture"
      ],
      [
        "iz",
        "ed"
      ],
      [
        "he",
        "ad"
      ],
      [
        "imp",
        "ort"
      ],
      [
        "S",
        "ue"
      ],
      [
        "gre",
        "at"
      ],
      [
        "sto",
        "pped"
      ],
      [
        "re",
        "pl"
      ],
      [
        "we",
        "et"
      ],
      [
        "wa",
        "it"
      ],
      [
        "en",
        "joy"
      ],
      [
        "wal",
        "k"
      ],
      [
        "import",
        "ant"
      ],
      [
        "ne",
        "ar"
      ],
      [
        "Sara",
        "h"
      ],
      [
        "re",
        "member"
      ],
      [
        "g",
        "an"
      ],
      [
        "v",
        "o"
      ],
      [
        "quick",
        "ly"
      ],
      [
        "y",
        "ear"
      ],
      [
        "tr",
        "uck"
      ],
      [
        "a",
        "fter"
      ],
      [
        "ri",
        "es"
      ],
      [
        "list",
        "en"
      ],
      [
        "th",
        "ink"
      ],
      [
        "repl",
        "ied"
      ],
      [
        "not",
        "iced"
      ],
      [
        "co",
        "ok"
      ],
      [
        "cre",
        "am"
      ],
      [
        "by",
        "e"
      ],
      [
        "to",
        "r"
      ],
      [
        "S",
        "pot"
      ],
      [
        "sl",
        "ide"
      ],
      [
        "hand",
        "s"
      ],
      [
        "T",
        "his"
      ],
      [
        "every",
        "one"
      ],
      [
        "show",
        "ed"
      ],
      [
        "n",
        "er"
      ],
      [
        "s",
        "ure"
      ],
      [
        "won",
        "der"
      ],
      [
        "ir",
        "st"
      ],
      [
        "fe",
        "re"
      ],
      [
        "s",
        "har"
      ],
      [
        "dif",
        "fere"
      ],
      [
        "rabb",
        "it"
      ],
      [
        "J",
        "ane"
      ],
      [
        "y",
        "el"
      ],
      [
        "sw",
        "ing"
      ],
      [
        "s",
        "ound"
      ],
      [
        "m",
        "on"
      ],
      [
        "sh",
        "out"
      ],
      [
        "ama",
        "z"
      ],
      [
        "c",
        "ake"
      ],
      [
        "be",
        "en"
      ],
      [
        "be",
        "came"
      ],
      [
        "le",
        "ave"
      ],
      [
        "st",
        "rong"
      ],
      [
        "i",
        "p"
      ],
      [
        "sto",
        "re"
      ],
      [
        "f",
        "f"
      ],
      [
        "bo",
        "at"
      ],
      [
        "me",
        "an"
      ],
      [
        "br",
        "ight"
      ],
      [
        "re",
        "st"
      ],
      [
        "vo",
        "ice"
      ],
      [
        "ay",
        "be"
      ],
      [
        "t",
        "ell"
      ],
      [
        "wat",
        "ched"
      ],
      [
        "D",
        "o"
      ],
      [
        "s",
        "ing"
      ],
      [
        "wat",
        "ch"
      ],
      [
        "differe",
        "nt"
      ],
      [
        "to",
        "p"
      ],
      [
        "h",
        "igh"
      ],
      [
        "ch",
        "o"
      ],
      [
        "ok",
        "ay"
      ],
      [
        "good",
        "bye"
      ],
      [
        "p",
        "ul"
      ],
      [
        "dre",
        "ss"
      ],
      [
        "s",
        "n"
      ],
      [
        "l",
        "low"
      ],
      [
        "un",
        "g"
      ],
      [
        "b",
        "re"
      ],
      [
        "clos",
        "er"
      ],
      [
        "flow",
        "ers"
      ],
      [
        "st",
        "and"
      ],
      [
        "lea",
        "se"
      ],
      [
        "b",
        "ow"
      ],
      [
        "fo",
        "llow"
      ],
      [
        "read",
        "y"
      ],
      [
        "fa",
        "v"
      ],
      [
        "le",
        "ep"
      ],
      [
        "c",
        "ou"
      ],
      [
        "st",
        "ick"
      ],
      [
        "Every",
        "one"
      ],
      [
        "ir",
        "ed"
      ],
      [
        "g",
        "rabb"
      ],
      [
        "is",
        "y"
      ],
      [
        "flow",
        "er"
      ],
      [
        "m",
        "ag"
      ],
      [
        "un",
        "ny"
      ],
      [
        "cu",
        "ri"
      ],
      [
        "st",
        "er"
      ],
      [
        "grabb",
        "ed"
      ],
      [
        "Lo",
        "ok"
      ],
      [
        "de",
        "li"
      ],
      [
        "I",
        "n"
      ],
      [
        "d",
        "an"
      ],
      [
        "on",
        "d"
      ],
      [
        "s",
        "qu"
      ],
      [
        "war",
        "m"
      ],
      [
        "jump",
        "ed"
      ],
      [
        "b",
        "it"
      ],
      [
        "any",
        "more"
      ],
      [
        "but",
        "ter"
      ],
      [
        "d",
        "ro"
      ],
      [
        "curi",
        "ous"
      ],
      [
        "ke",
        "t"
      ],
      [
        "th",
        "ree"
      ],
      [
        "fel",
        "l"
      ],
      [
        "m",
        "ed"
      ],
      [
        "ac",
        "hed"
      ],
      [
        "m",
        "is"
      ],
      [
        "and",
        "ma"
      ],
      [
        "bird",
        "s"
      ],
      [
        "l",
        "ight"
      ],
      [
        "c",
        "ut"
      ],
      [
        "er",
        "ed"
      ],
      [
        "Jo",
        "e"
      ],
      [
        "laug",
        "h"
      ],
      [
        "f",
        "lo"
      ],
      [
        "d",
        "in"
      ],
      [
        "p",
        "ie"
      ],
      [
        "b",
        "lock"
      ],
      [
        "f",
        "irst"
      ],
      [
        "help",
        "ed"
      ],
      [
        "yel",
        "low"
      ],
      [
        "il",
        "a"
      ],
      [
        "t",
        "w"
      ],
      [
        "con",
        "t"
      ],
      [
        "k",
        "it"
      ],
      [
        "k",
        "id"
      ],
      [
        "D",
        "on"
      ],
      [
        "real",
        "ized"
      ],
      [
        "p",
        "are"
      ],
      [
        "L",
        "ila"
      ],
      [
        "a",
        "ir"
      ],
      [
        "sto",
        "p"
      ],
      [
        "bro",
        "ther"
      ],
      [
        "z",
        "y"
      ],
      [
        "do",
        "es"
      ],
      [
        "happ",
        "ened"
      ],
      [
        "gre",
        "en"
      ],
      [
        "M",
        "aybe"
      ],
      [
        "fav",
        "or"
      ],
      [
        "c",
        "hen"
      ],
      [
        "t",
        "ra"
      ],
      [
        "kit",
        "chen"
      ],
      [
        "re",
        "ally"
      ],
      [
        "y",
        "ummy"
      ],
      [
        "favor",
        "ite"
      ],
      [
        "gr",
        "ass"
      ],
      [
        "be",
        "gan"
      ],
      [
        "p",
        "ain"
      ],
      [
        "re",
        "ached"
      ],
      [
        "t",
        "able"
      ],
      [
        "He",
        "l"
      ],
      [
        "tim",
        "es"
      ],
      [
        "F",
        "in"
      ],
      [
        "to",
        "w"
      ],
      [
        "pr",
        "in"
      ],
      [
        "f",
        "l"
      ],
      [
        "'",
        "re"
      ],
      [
        "c",
        "r"
      ],
      [
        "sto",
        "ry"
      ],
      [
        "s",
        "and"
      ],
      [
        "wor",
        "ld"
      ],
      [
        "on",
        "ly"
      ],
      [
        "Ben",
        "ny"
      ],
      [
        "as",
        "h"
      ],
      [
        "op",
        "en"
      ],
      [
        "fi",
        "re"
      ],
      [
        "g",
        "lad"
      ],
      [
        "c",
        "ra"
      ],
      [
        "thr",
        "ough"
      ],
      [
        "a",
        "isy"
      ],
      [
        "ha",
        "ving"
      ],
      [
        "b",
        "unny"
      ],
      [
        "b",
        "al"
      ],
      [
        "him",
        "self"
      ],
      [
        "d",
        "one"
      ],
      [
        "f",
        "ro"
      ],
      [
        "t",
        "ired"
      ],
      [
        "com",
        "ing"
      ],
      [
        "she",
        "d"
      ],
      [
        "so",
        "ft"
      ],
      [
        "wh",
        "y"
      ],
      [
        "f",
        "r"
      ],
      [
        "ol",
        "ly"
      ],
      [
        "b",
        "or"
      ],
      [
        "mag",
        "ic"
      ],
      [
        "r",
        "ing"
      ],
      [
        "wa",
        "ved"
      ],
      [
        "ri",
        "ver"
      ],
      [
        "mo",
        "ve"
      ],
      [
        "shout",
        "ed"
      ],
      [
        "p",
        "ro"
      ],
      [
        "m",
        "er"
      ],
      [
        "wor",
        "ry"
      ],
      [
        "d",
        "uck"
      ],
      [
        "Tom",
        "my"
      ],
      [
        "s",
        "weet"
      ],
      [
        "pie",
        "ce"
      ],
      [
        "co",
        "ld"
      ],
      [
        "kid",
        "s"
      ],
      [
        "g",
        "ame"
      ],
      [
        "N",
        "ow"
      ],
      [
        "q",
        "ue"
      ],
      [
        "ke",
        "y"
      ],
      [
        "f",
        "ill"
      ],
      [
        "than",
        "k"
      ],
      [
        "W",
        "h"
      ],
      [
        "c",
        "or"
      ],
      [
        "co",
        "l"
      ],
      [
        "re",
        "l"
      ],
      [
        "at",
        "er"
      ],
      [
        "S",
        "ally"
      ],
      [
        "p",
        "ond"
      ],
      [
        "ma",
        "king"
      ],
      [
        "u",
        "ff"
      ],
      [
        "se",
        "es"
      ],
      [
        "cat",
        "ch"
      ],
      [
        "fi",
        "x"
      ],
      [
        "we",
        "l"
      ],
      [
        "co",
        "ol"
      ],
      [
        "lad",
        "y"
      ],
      [
        "se",
        "en"
      ],
      [
        "ho",
        "pped"
      ],
      [
        "dra",
        "w"
      ],
      [
        "a",
        "th"
      ],
      [
        "d",
        "ark"
      ],
      [
        "B",
        "illy"
      ],
      [
        "st",
        "re"
      ],
      [
        "\"",
        "."
      ],
      [
        "D",
        "aisy"
      ],
      [
        "a",
        "ge"
      ],
      [
        "surpr",
        "ise"
      ],
      [
        "n",
        "ts"
      ],
      [
        "pp",
        "y"
      ],
      [
        "clo",
        "se"
      ],
      [
        "p",
        "rom"
      ],
      [
        "ci",
        "ous"
      ],
      [
        "g",
        "u"
      ],
      [
        "The",
        "re"
      ],
      [
        "m",
        "um"
      ],
      [
        "at",
        "ion"
      ],
      [
        "fun",
        "ny"
      ],
      [
        "to",
        "uch"
      ],
      [
        "ful",
        "l"
      ],
      [
        "pare",
        "nts"
      ],
      [
        "sa",
        "t"
      ],
      [
        "i",
        "ke"
      ],
      [
        "p",
        "le"
      ],
      [
        "ar",
        "y"
      ],
      [
        "surpr",
        "ised"
      ],
      [
        "wor",
        "ked"
      ],
      [
        "m",
        "ar"
      ],
      [
        "do",
        "ing"
      ],
      [
        "fro",
        "g"
      ],
      [
        "tre",
        "es"
      ],
      [
        "p",
        "ed"
      ],
      [
        "A",
        "t"
      ],
      [
        "turn",
        "ed"
      ],
      [
        "W",
        "ow"
      ],
      [
        "on",
        "s"
      ],
      [
        "m",
        "ess"
      ],
      [
        "we",
        "ar"
      ],
      [
        "Fin",
        "ally"
      ],
      [
        "in",
        "s"
      ],
      [
        "pret",
        "end"
      ],
      [
        "one",
        "y"
      ],
      [
        "wo",
        "od"
      ],
      [
        "careful",
        "ly"
      ],
      [
        "h",
        "ind"
      ],
      [
        "ho",
        "le"
      ],
      [
        "s",
        "low"
      ],
      [
        "t",
        "ight"
      ],
      [
        "need",
        "ed"
      ],
      [
        "y",
        "ard"
      ],
      [
        "deli",
        "cious"
      ],
      [
        "m",
        "ouse"
      ],
      [
        "year",
        "s"
      ],
      [
        "block",
        "s"
      ],
      [
        "sw",
        "im"
      ],
      [
        "he",
        "ld"
      ],
      [
        "remember",
        "ed"
      ],
      [
        "E",
        "m"
      ],
      [
        "lo",
        "st"
      ],
      [
        "be",
        "hind"
      ],
      [
        "look",
        "s"
      ],
      [
        "run",
        "ning"
      ],
      [
        "her",
        "self"
      ],
      [
        "ar",
        "ri"
      ],
      [
        "butter",
        "fly"
      ],
      [
        "c",
        "ried"
      ],
      [
        "s",
        "pot"
      ],
      [
        "nam",
        "e"
      ],
      [
        "ab",
        "y"
      ],
      [
        "c",
        "la"
      ],
      [
        "ig",
        "n"
      ],
      [
        "happ",
        "ily"
      ],
      [
        "enjoy",
        "ed"
      ],
      [
        "b",
        "ag"
      ],
      [
        "w",
        "ished"
      ],
      [
        "flo",
        "or"
      ],
      [
        "an",
        "other"
      ],
      [
        "s",
        "leep"
      ],
      [
        "clim",
        "b"
      ],
      [
        "J",
        "im"
      ],
      [
        "pe",
        "t"
      ],
      [
        "wind",
        "ow"
      ],
      [
        "T",
        "o"
      ],
      [
        "bu",
        "y"
      ],
      [
        "M",
        "olly"
      ],
      [
        "car",
        "s"
      ],
      [
        "h",
        "ill"
      ],
      [
        "dre",
        "n"
      ],
      [
        "il",
        "dren"
      ],
      [
        "ce",
        "ss"
      ],
      [
        "ch",
        "ildren"
      ],
      [
        "t",
        "le"
      ],
      [
        "fin",
        "ished"
      ],
      [
        "less",
        "on"
      ],
      [
        "like",
        "s"
      ],
      [
        "g",
        "l"
      ],
      [
        "re",
        "ed"
      ],
      [
        "pa",
        "per"
      ],
      [
        "and",
        "y"
      ],
      [
        "ho",
        "ld"
      ],
      [
        "s",
        "po"
      ],
      [
        "w",
        "rong"
      ],
      [
        "t",
        "ri"
      ],
      [
        "t",
        "all"
      ],
      [
        "ca",
        "st"
      ],
      [
        "under",
        "stand"
      ],
      [
        "arri",
        "ved"
      ],
      [
        "en",
        "s"
      ],
      [
        "g",
        "ent"
      ],
      [
        "ar",
        "m"
      ],
      [
        "any",
        "thing"
      ],
      [
        "cont",
        "in"
      ],
      [
        "h",
        "ung"
      ],
      [
        "le",
        "ft"
      ],
      [
        "g",
        "er"
      ],
      [
        "b",
        "ar"
      ],
      [
        "m",
        "in"
      ],
      [
        "ro",
        "ss"
      ],
      [
        "m",
        "ou"
      ],
      [
        "ok",
        "en"
      ],
      [
        "friend",
        "ly"
      ],
      [
        "as",
        "ure"
      ],
      [
        "st",
        "ran"
      ],
      [
        "Hel",
        "lo"
      ],
      [
        "for",
        "got"
      ],
      [
        "J",
        "en"
      ],
      [
        "dre",
        "am"
      ],
      [
        "p",
        "at"
      ],
      [
        "ag",
        "reed"
      ],
      [
        "fill",
        "ed"
      ],
      [
        "v",
        "is"
      ],
      [
        "br",
        "oken"
      ],
      [
        "d",
        "ir"
      ],
      [
        "g",
        "one"
      ],
      [
        "u",
        "ed"
      ],
      [
        "i",
        "ent"
      ],
      [
        "we",
        "t"
      ],
      [
        "mo",
        "st"
      ],
      [
        "cre",
        "at"
      ],
      [
        "cook",
        "ies"
      ],
      [
        "din",
        "ner"
      ],
      [
        "o",
        "o"
      ],
      [
        "a",
        "v"
      ],
      [
        ".",
        "âĢĿ"
      ],
      [
        "ie",
        "ld"
      ],
      [
        "er",
        "ous"
      ],
      [
        "A",
        "my"
      ],
      [
        "el",
        "se"
      ],
      [
        "a",
        "ther"
      ],
      [
        "s",
        "it"
      ],
      [
        "c",
        "ed"
      ],
      [
        "h",
        "id"
      ],
      [
        "mo",
        "ther"
      ],
      [
        "ra",
        "ce"
      ],
      [
        "ho",
        "t"
      ],
      [
        "bu",
        "ild"
      ],
      [
        "color",
        "s"
      ],
      [
        "t",
        "rain"
      ],
      [
        "ing",
        "s"
      ],
      [
        "ve",
        "s"
      ],
      [
        "follow",
        "ed"
      ],
      [
        "p",
        "ink"
      ],
      [
        "mom",
        "ent"
      ],
      [
        "bo",
        "t"
      ],
      [
        "an",
        "ge"
      ],
      [
        "b",
        "ug"
      ],
      [
        "wonder",
        "ful"
      ],
      [
        "fe",
        "ct"
      ],
      [
        "pu",
        "ppy"
      ],
      [
        "d",
        "r"
      ],
      [
        "war",
        "ds"
      ],
      [
        "get",
        "ting"
      ],
      [
        "contin",
        "ued"
      ],
      [
        "p",
        "ack"
      ],
      [
        "m",
        "ight"
      ],
      [
        "fin",
        "ally"
      ],
      [
        "mor",
        "ning"
      ],
      [
        "!",
        "âĢĿ"
      ],
      [
        "l",
        "and"
      ],
      [
        "en",
        "ough"
      ],
      [
        "fa",
        "ir"
      ],
      [
        "j",
        "u"
      ],
      [
        "ir",
        "rel"
      ],
      [
        "per",
        "fect"
      ],
      [
        "co",
        "ver"
      ],
      [
        "stay",
        "ed"
      ],
      [
        "f",
        "all"
      ],
      [
        "some",
        "one"
      ],
      [
        "dad",
        "dy"
      ],
      [
        "ck",
        "ed"
      ],
      [
        "other",
        "s"
      ],
      [
        "ta",
        "st"
      ],
      [
        "ou",
        "p"
      ],
      [
        "try",
        "ing"
      ],
      [
        "'",
        "ll"
      ],
      [
        "na",
        "p"
      ],
      [
        "m",
        "at"
      ],
      [
        "ic",
        "y"
      ],
      [
        "gr",
        "andma"
      ],
      [
        "f",
        "ur"
      ],
      [
        "s",
        "now"
      ],
      [
        "mu",
        "s"
      ],
      [
        "squ",
        "irrel"
      ],
      [
        "b",
        "aby"
      ],
      [
        "leave",
        "s"
      ],
      [
        "fe",
        "w"
      ],
      [
        "p",
        "lease"
      ],
      [
        "f",
        "ight"
      ],
      [
        "bre",
        "ak"
      ],
      [
        "clim",
        "bed"
      ],
      [
        "wa",
        "ll"
      ],
      [
        "li",
        "on"
      ],
      [
        "r",
        "ow"
      ],
      [
        "br",
        "ought"
      ],
      [
        "cast",
        "le"
      ],
      [
        "ar",
        "t"
      ],
      [
        "be",
        "ach"
      ],
      [
        "at",
        "ed"
      ],
      [
        "Wh",
        "y"
      ],
      [
        "g",
        "on"
      ],
      [
        "pl",
        "ain"
      ],
      [
        "some",
        "times"
      ],
      [
        "jo",
        "in"
      ],
      [
        "every",
        "thing"
      ],
      [
        "de",
        "ep"
      ],
      [
        "i",
        "ous"
      ],
      [
        "me",
        "t"
      ],
      [
        "mus",
        "ic"
      ],
      [
        "M",
        "ama"
      ],
      [
        "pl",
        "an"
      ],
      [
        "hung",
        "ry"
      ],
      [
        "was",
        "n"
      ],
      [
        "pp",
        "ing"
      ],
      [
        "s",
        "ong"
      ],
      [
        "app",
        "ear"
      ],
      [
        "b",
        "us"
      ],
      [
        "r",
        "ide"
      ],
      [
        "picture",
        "s"
      ],
      [
        "p",
        "es"
      ],
      [
        "to",
        "n"
      ],
      [
        "make",
        "s"
      ],
      [
        "z",
        "z"
      ],
      [
        "list",
        "ened"
      ],
      [
        "book",
        "s"
      ],
      [
        "se",
        "ar"
      ],
      [
        "G",
        "o"
      ],
      [
        "w",
        "he"
      ],
      [
        "clo",
        "the"
      ],
      [
        "s",
        "park"
      ],
      [
        "clothe",
        "s"
      ],
      [
        "e",
        "m"
      ],
      [
        "an",
        "ce"
      ],
      [
        "sa",
        "il"
      ],
      [
        "uck",
        "y"
      ],
      [
        "po",
        "in"
      ],
      [
        "gr",
        "ow"
      ],
      [
        "ted",
        "dy"
      ],
      [
        "want",
        "s"
      ],
      [
        "fly",
        "ing"
      ],
      [
        "stran",
        "ge"
      ],
      [
        "z",
        "e"
      ],
      [
        "scar",
        "y"
      ],
      [
        "sw",
        "er"
      ],
      [
        "G",
        "r"
      ],
      [
        "wa",
        "ited"
      ],
      [
        "e",
        "le"
      ],
      [
        "amaz",
        "ed"
      ],
      [
        "d",
        "ang"
      ],
      [
        "w",
        "his"
      ],
      [
        "tre",
        "at"
      ],
      [
        "amaz",
        "ing"
      ],
      [
        "Dad",
        "dy"
      ],
      [
        "O",
        "K"
      ],
      [
        "o",
        "t"
      ],
      [
        "bal",
        "lo"
      ],
      [
        "So",
        "on"
      ],
      [
        "g",
        "i"
      ],
      [
        "en",
        "ce"
      ],
      [
        "B",
        "e"
      ],
      [
        "s",
        "pl"
      ],
      [
        "own",
        "er"
      ],
      [
        "s",
        "uch"
      ],
      [
        "o",
        "se"
      ],
      [
        "wh",
        "ite"
      ],
      [
        "tal",
        "k"
      ],
      [
        "O",
        "h"
      ],
      [
        "b",
        "ike"
      ],
      [
        "prom",
        "ised"
      ],
      [
        "ro",
        "t"
      ],
      [
        "ta",
        "il"
      ],
      [
        "shar",
        "ed"
      ],
      [
        "C",
        "ome"
      ],
      [
        "wood",
        "s"
      ],
      [
        "s",
        "y"
      ],
      [
        "uff",
        "y"
      ],
      [
        "pul",
        "led"
      ],
      [
        "p",
        "ers"
      ],
      [
        "p",
        "en"
      ],
      [
        "th",
        "y"
      ],
      [
        "ro",
        "ll"
      ],
      [
        "be",
        "lie"
      ],
      [
        "color",
        "ful"
      ],
      [
        "J",
        "ill"
      ],
      [
        "c",
        "hair"
      ],
      [
        "magic",
        "al"
      ],
      [
        "to",
        "wards"
      ],
      [
        "al",
        "one"
      ],
      [
        "k",
        "ay"
      ],
      [
        "u",
        "ally"
      ],
      [
        "ate",
        "ful"
      ],
      [
        "s",
        "is"
      ],
      [
        "he",
        "s"
      ],
      [
        "gr",
        "ateful"
      ],
      [
        "ph",
        "one"
      ],
      [
        "M",
        "r"
      ],
      [
        "c",
        "ha"
      ],
      [
        "p",
        "ass"
      ],
      [
        "S",
        "ome"
      ],
      [
        "smil",
        "es"
      ],
      [
        "h",
        "ide"
      ],
      [
        "h",
        "ig"
      ],
      [
        "A",
        "ll"
      ],
      [
        "s",
        "illy"
      ],
      [
        "i",
        "re"
      ],
      [
        "mor",
        "al"
      ],
      [
        "mis",
        "s"
      ],
      [
        "f",
        "ield"
      ],
      [
        "j",
        "e"
      ],
      [
        "slow",
        "ly"
      ],
      [
        "k",
        "ite"
      ],
      [
        "ask",
        "s"
      ],
      [
        "or",
        "n"
      ],
      [
        "mon",
        "ster"
      ],
      [
        "sn",
        "ack"
      ],
      [
        "se",
        "s"
      ],
      [
        "sis",
        "ter"
      ],
      [
        "li",
        "ce"
      ],
      [
        "vis",
        "it"
      ],
      [
        "tre",
        "asure"
      ],
      [
        "jo",
        "b"
      ],
      [
        "fast",
        "er"
      ],
      [
        "p",
        "ur"
      ],
      [
        "is",
        "s"
      ],
      [
        "help",
        "ing"
      ],
      [
        "wor",
        "ried"
      ],
      [
        "W",
        "ho"
      ],
      [
        "g",
        "ra"
      ],
      [
        "par",
        "ty"
      ],
      [
        "he",
        "av"
      ],
      [
        "a",
        "f"
      ],
      [
        "m",
        "oney"
      ],
      [
        "li",
        "ving"
      ],
      [
        "i",
        "et"
      ],
      [
        "sm",
        "el"
      ],
      [
        "mu",
        "st"
      ],
      [
        "b",
        "ath"
      ],
      [
        "ig",
        "g"
      ],
      [
        "l",
        "ake"
      ],
      [
        "bo",
        "ard"
      ],
      [
        "ex",
        "plain"
      ],
      [
        "fo",
        "x"
      ],
      [
        "c",
        "up"
      ],
      [
        "b",
        "as"
      ],
      [
        "c",
        "andy"
      ],
      [
        "s",
        "ign"
      ],
      [
        "qu",
        "iet"
      ],
      [
        "d",
        "ry"
      ],
      [
        "p",
        "s"
      ],
      [
        "id",
        "ent"
      ],
      [
        "l",
        "ing"
      ],
      [
        "hig",
        "her"
      ],
      [
        "every",
        "where"
      ],
      [
        "cl",
        "oud"
      ],
      [
        "tow",
        "n"
      ],
      [
        "m",
        "ind"
      ],
      [
        "J",
        "ust"
      ],
      [
        "run",
        "s"
      ],
      [
        "ste",
        "pped"
      ],
      [
        "am",
        "es"
      ],
      [
        "big",
        "ger"
      ],
      [
        "bl",
        "an"
      ],
      [
        "che",
        "e"
      ],
      [
        "mou",
        "th"
      ],
      [
        "st",
        "u"
      ],
      [
        "S",
        "ure"
      ],
      [
        "clos",
        "ed"
      ],
      [
        "dan",
        "ce"
      ],
      [
        "b",
        "uck"
      ],
      [
        "s",
        "cream"
      ],
      [
        "d",
        "a"
      ],
      [
        "dang",
        "erous"
      ],
      [
        "is",
        "es"
      ],
      [
        "bro",
        "ke"
      ],
      [
        "t",
        "en"
      ],
      [
        "b",
        "ran"
      ],
      [
        "doll",
        "s"
      ],
      [
        "pl",
        "ant"
      ],
      [
        "sh",
        "ine"
      ],
      [
        "bas",
        "ket"
      ],
      [
        "re",
        "ach"
      ],
      [
        "m",
        "ent"
      ],
      [
        "Em",
        "ma"
      ],
      [
        "appear",
        "ed"
      ],
      [
        "th",
        "re"
      ],
      [
        "te",
        "ac"
      ],
      [
        "would",
        "n"
      ],
      [
        "heav",
        "y"
      ],
      [
        "n",
        "g"
      ],
      [
        "w",
        "r"
      ],
      [
        "ne",
        "e"
      ],
      [
        "sto",
        "od"
      ],
      [
        "O",
        "kay"
      ],
      [
        "m",
        "ing"
      ],
      [
        "ck",
        "et"
      ],
      [
        "think",
        "s"
      ],
      [
        "Jim",
        "my"
      ],
      [
        "piece",
        "s"
      ],
      [
        "H",
        "i"
      ],
      [
        "eat",
        "ing"
      ],
      [
        "prin",
        "cess"
      ],
      [
        "ac",
        "ross"
      ],
      [
        "belie",
        "ve"
      ],
      [
        "f",
        "ru"
      ],
      [
        "ste",
        "ad"
      ],
      [
        "ne",
        "igh"
      ],
      [
        "f",
        "ree"
      ],
      [
        "g",
        "s"
      ],
      [
        "st",
        "uck"
      ],
      [
        "it",
        "ing"
      ],
      [
        "far",
        "mer"
      ],
      [
        "c",
        "tor"
      ],
      [
        "c",
        "ident"
      ],
      [
        "pain",
        "t"
      ],
      [
        "c",
        "y"
      ],
      [
        "P",
        "lease"
      ],
      [
        "cry",
        "ing"
      ],
      [
        "s",
        "uddenly"
      ],
      [
        "ph",
        "ant"
      ],
      [
        "d",
        "ri"
      ],
      [
        "s",
        "oup"
      ],
      [
        "thre",
        "w"
      ],
      [
        "a",
        "p"
      ],
      [
        "g",
        "if"
      ],
      [
        "dir",
        "ty"
      ],
      [
        "s",
        "wa"
      ],
      [
        "be",
        "e"
      ],
      [
        "pre",
        "ss"
      ],
      [
        "ac",
        "cident"
      ],
      [
        "vent",
        "ually"
      ],
      [
        "ele",
        "phant"
      ],
      [
        "un",
        "ch"
      ],
      [
        "wor",
        "ds"
      ],
      [
        "he",
        "al"
      ],
      [
        "w",
        "in"
      ],
      [
        "we",
        "ll"
      ],
      [
        "ch",
        "ild"
      ],
      [
        "a",
        "se"
      ],
      [
        "sa",
        "me"
      ],
      [
        "se",
        "a"
      ],
      [
        "dra",
        "gon"
      ],
      [
        "teac",
        "her"
      ],
      [
        "M",
        "um"
      ],
      [
        "b",
        "en"
      ],
      [
        "pl",
        "ane"
      ],
      [
        "our",
        "se"
      ],
      [
        "i",
        "ch"
      ],
      [
        "i",
        "ble"
      ],
      [
        "gent",
        "le"
      ],
      [
        "br",
        "own"
      ],
      [
        "up",
        "set"
      ],
      [
        "buck",
        "et"
      ],
      [
        "Sam",
        "my"
      ],
      [
        "che",
        "ered"
      ],
      [
        "cho",
        "ol"
      ],
      [
        "long",
        "er"
      ],
      [
        "star",
        "t"
      ],
      [
        "swa",
        "m"
      ],
      [
        "s",
        "c"
      ],
      [
        "s",
        "chool"
      ],
      [
        "pr",
        "ay"
      ],
      [
        "bl",
        "ack"
      ],
      [
        "b",
        "ite"
      ],
      [
        "po",
        "l"
      ],
      [
        "v",
        "al"
      ],
      [
        "do",
        "ctor"
      ],
      [
        "al",
        "ong"
      ],
      [
        "cla",
        "pped"
      ],
      [
        "k",
        "no"
      ],
      [
        "blan",
        "ket"
      ],
      [
        "ca",
        "ught"
      ],
      [
        "pul",
        "l"
      ],
      [
        "s",
        "ang"
      ],
      [
        "bow",
        "l"
      ],
      [
        "s",
        "ug"
      ],
      [
        "but",
        "ton"
      ],
      [
        "E",
        "l"
      ],
      [
        "F",
        "l"
      ],
      [
        "t",
        "u"
      ],
      [
        "explain",
        "ed"
      ],
      [
        "dro",
        "pped"
      ],
      [
        "ju",
        "ice"
      ],
      [
        "i",
        "x"
      ],
      [
        "M",
        "ary"
      ],
      [
        "Gr",
        "andma"
      ],
      [
        "sto",
        "ries"
      ],
      [
        "wo",
        "ke"
      ],
      [
        "br",
        "ing"
      ],
      [
        "our",
        "s"
      ],
      [
        "w",
        "ings"
      ],
      [
        "swing",
        "s"
      ],
      [
        "?",
        "âĢĿ"
      ],
      [
        "m",
        "ine"
      ],
      [
        "dr",
        "ink"
      ],
      [
        "r",
        "ound"
      ],
      [
        "In",
        "side"
      ],
      [
        "j",
        "our"
      ],
      [
        "you",
        "ng"
      ],
      [
        "wel",
        "come"
      ],
      [
        "dro",
        "ve"
      ],
      [
        "ul",
        "l"
      ],
      [
        "c",
        "ourse"
      ],
      [
        "se",
        "cre"
      ],
      [
        "sm",
        "art"
      ],
      [
        "mo",
        "ved"
      ],
      [
        "near",
        "by"
      ],
      [
        "to",
        "day"
      ],
      [
        "ught",
        "er"
      ],
      [
        "j",
        "ar"
      ],
      [
        "L",
        "ater"
      ],
      [
        "s",
        "u"
      ],
      [
        "with",
        "out"
      ],
      [
        "stre",
        "et"
      ],
      [
        "da",
        "ughter"
      ],
      [
        "th",
        "ough"
      ],
      [
        "happ",
        "en"
      ],
      [
        "pu",
        "shed"
      ],
      [
        "cr",
        "ay"
      ],
      [
        "chee",
        "se"
      ],
      [
        "turn",
        "s"
      ],
      [
        "com",
        "for"
      ],
      [
        "sing",
        "ing"
      ],
      [
        "g",
        "ames"
      ],
      [
        "s",
        "ent"
      ],
      [
        "t",
        "iny"
      ],
      [
        "f",
        "it"
      ],
      [
        "w",
        "ish"
      ],
      [
        "po",
        "cket"
      ],
      [
        "Fl",
        "uffy"
      ],
      [
        "par",
        "t"
      ],
      [
        "ne",
        "y"
      ],
      [
        "fair",
        "y"
      ],
      [
        "sh",
        "ip"
      ],
      [
        "ho",
        "ped"
      ],
      [
        "che",
        "s"
      ],
      [
        "i",
        "er"
      ],
      [
        "w",
        "ise"
      ],
      [
        "bo",
        "dy"
      ],
      [
        "T",
        "weet"
      ],
      [
        "c",
        "ow"
      ],
      [
        "d",
        "el"
      ],
      [
        "s",
        "uc"
      ],
      [
        "it",
        "ch"
      ],
      [
        "she",
        "ll"
      ],
      [
        "itt",
        "ing"
      ],
      [
        "hug",
        "s"
      ],
      [
        "tw",
        "ins"
      ],
      [
        "l",
        "one"
      ],
      [
        "p",
        "ow"
      ],
      [
        "tr",
        "ou"
      ],
      [
        "for",
        "get"
      ],
      [
        "app",
        "le"
      ],
      [
        "no",
        "ises"
      ],
      [
        "explo",
        "ring"
      ],
      [
        "nt",
        "ain"
      ],
      [
        "rock",
        "s"
      ],
      [
        "ballo",
        "on"
      ],
      [
        "l",
        "unch"
      ],
      [
        "see",
        "med"
      ],
      [
        "lone",
        "ly"
      ],
      [
        "bu",
        "sh"
      ],
      [
        "back",
        "yard"
      ],
      [
        "tow",
        "er"
      ],
      [
        "bu",
        "bb"
      ],
      [
        "sho",
        "ok"
      ],
      [
        "c",
        "has"
      ],
      [
        "The",
        "ir"
      ],
      [
        "ou",
        "n"
      ],
      [
        "hel",
        "lo"
      ],
      [
        "c",
        "ir"
      ],
      [
        "sto",
        "ne"
      ],
      [
        "f",
        "used"
      ],
      [
        "cover",
        "ed"
      ],
      [
        "s",
        "er"
      ],
      [
        "s",
        "co"
      ],
      [
        "star",
        "s"
      ],
      [
        "sha",
        "pes"
      ],
      [
        "thr",
        "ow"
      ],
      [
        "o",
        "om"
      ],
      [
        "take",
        "s"
      ],
      [
        "sho",
        "es"
      ],
      [
        "m",
        "il"
      ],
      [
        "war",
        "d"
      ],
      [
        "ad",
        "d"
      ],
      [
        "k",
        "iss"
      ],
      [
        "p",
        "il"
      ],
      [
        "re",
        "lie"
      ],
      [
        "ta",
        "king"
      ],
      [
        "ben",
        "ch"
      ],
      [
        "itt",
        "ens"
      ],
      [
        "l",
        "ate"
      ],
      [
        "adventure",
        "s"
      ],
      [
        "h",
        "it"
      ],
      [
        "ow",
        "l"
      ],
      [
        "cut",
        "e"
      ],
      [
        "d",
        "river"
      ],
      [
        "f",
        "ence"
      ],
      [
        "pp",
        "er"
      ],
      [
        "m",
        "ix"
      ],
      [
        "ne",
        "ck"
      ],
      [
        "or",
        "ange"
      ],
      [
        "P",
        "e"
      ],
      [
        "sp",
        "in"
      ],
      [
        "er",
        "ful"
      ],
      [
        "co",
        "at"
      ],
      [
        "creat",
        "ure"
      ],
      [
        "accident",
        "ally"
      ],
      [
        "W",
        "ith"
      ],
      [
        "in",
        "ing"
      ],
      [
        "rain",
        "bow"
      ],
      [
        "ion",
        "s"
      ],
      [
        "come",
        "s"
      ],
      [
        "f",
        "ing"
      ],
      [
        "M",
        "y"
      ],
      [
        "to",
        "uc"
      ],
      [
        "on",
        "to"
      ],
      [
        "arm",
        "s"
      ],
      [
        "Jen",
        "ny"
      ],
      [
        "a",
        "st"
      ],
      [
        "s",
        "itting"
      ],
      [
        "hear",
        "t"
      ],
      [
        "que",
        "st"
      ],
      [
        "secre",
        "t"
      ],
      [
        "d",
        "ist"
      ],
      [
        "n",
        "ed"
      ],
      [
        "p",
        "ra"
      ],
      [
        "ne",
        "st"
      ],
      [
        "id",
        "ge"
      ],
      [
        "sun",
        "shine"
      ],
      [
        "g",
        "ged"
      ],
      [
        "na",
        "ught"
      ],
      [
        "ve",
        "l"
      ],
      [
        "naught",
        "y"
      ],
      [
        "in",
        "ed"
      ],
      [
        "in",
        "stead"
      ],
      [
        "b",
        "ought"
      ],
      [
        "wonder",
        "ed"
      ],
      [
        "b",
        "oun"
      ],
      [
        "e",
        "as"
      ],
      [
        "laugh",
        "ing"
      ],
      [
        "spo",
        "on"
      ],
      [
        "sh",
        "op"
      ],
      [
        "cou",
        "nt"
      ],
      [
        "sear",
        "ched"
      ],
      [
        "at",
        "t"
      ],
      [
        "co",
        "zy"
      ],
      [
        "mon",
        "key"
      ],
      [
        "mil",
        "k"
      ],
      [
        "h",
        "u"
      ],
      [
        "n",
        "um"
      ],
      [
        "car",
        "ry"
      ],
      [
        "ca",
        "ve"
      ],
      [
        "g",
        "en"
      ],
      [
        "ne",
        "ss"
      ],
      [
        "pur",
        "ple"
      ],
      [
        "touc",
        "hed"
      ],
      [
        "tal",
        "ked"
      ],
      [
        "a",
        "tor"
      ],
      [
        "p",
        "ig"
      ],
      [
        "sun",
        "ny"
      ],
      [
        "sound",
        "s"
      ],
      [
        "T",
        "ed"
      ],
      [
        "b",
        "and"
      ],
      [
        "w",
        "and"
      ],
      [
        "day",
        "s"
      ],
      [
        "app",
        "les"
      ],
      [
        "L",
        "e"
      ],
      [
        "l",
        "ucky"
      ],
      [
        "ck",
        "s"
      ],
      [
        "itt",
        "y"
      ],
      [
        "feel",
        "s"
      ],
      [
        "M",
        "ittens"
      ],
      [
        "e",
        "k"
      ],
      [
        "s",
        "li"
      ],
      [
        "bus",
        "y"
      ],
      [
        "un",
        "i"
      ],
      [
        "pa",
        "st"
      ],
      [
        "far",
        "m"
      ],
      [
        "f",
        "an"
      ],
      [
        "z",
        "oom"
      ],
      [
        "no",
        "se"
      ],
      [
        "li",
        "ve"
      ],
      [
        "ge",
        "st"
      ],
      [
        "pat",
        "ient"
      ],
      [
        "c",
        "al"
      ],
      [
        "s",
        "ick"
      ],
      [
        "relie",
        "ved"
      ],
      [
        "no",
        "thing"
      ],
      [
        "ra",
        "id"
      ],
      [
        "n",
        "ic"
      ],
      [
        "be",
        "long"
      ],
      [
        "ro",
        "pe"
      ],
      [
        "af",
        "raid"
      ],
      [
        "swim",
        "ming"
      ],
      [
        "w",
        "om"
      ],
      [
        "she",
        "lf"
      ],
      [
        "pu",
        "sh"
      ],
      [
        "c",
        "ing"
      ],
      [
        "wom",
        "an"
      ],
      [
        "m",
        "ad"
      ],
      [
        "pe",
        "ace"
      ],
      [
        "dan",
        "ced"
      ],
      [
        "id",
        "er"
      ],
      [
        "st",
        "r"
      ],
      [
        "ble",
        "m"
      ],
      [
        "watch",
        "ing"
      ],
      [
        "cir",
        "cle"
      ],
      [
        "hu",
        "ge"
      ],
      [
        "J",
        "ake"
      ],
      [
        "c",
        "er"
      ],
      [
        "li",
        "fe"
      ],
      [
        "love",
        "s"
      ],
      [
        "pro",
        "blem"
      ],
      [
        "neigh",
        "bor"
      ],
      [
        "jour",
        "ney"
      ],
      [
        "ac",
        "t"
      ],
      [
        "p",
        "udd"
      ],
      [
        "ar",
        "s"
      ],
      [
        "sto",
        "r"
      ],
      [
        "k",
        "nee"
      ],
      [
        "w",
        "ra"
      ],
      [
        "am",
        "p"
      ],
      [
        "exc",
        "iting"
      ],
      [
        "fore",
        "ver"
      ],
      [
        "min",
        "ut"
      ],
      [
        "gra",
        "b"
      ],
      [
        "v",
        "ill"
      ],
      [
        "v",
        "ie"
      ],
      [
        "as",
        "leep"
      ],
      [
        "cra",
        "w"
      ],
      [
        "ne",
        "t"
      ],
      [
        "col",
        "le"
      ],
      [
        "th",
        "day"
      ],
      [
        "stor",
        "m"
      ],
      [
        "O",
        "f"
      ],
      [
        "h",
        "or"
      ],
      [
        "or",
        "gan"
      ],
      [
        "cle",
        "ver"
      ],
      [
        "heal",
        "thy"
      ],
      [
        "Em",
        "ily"
      ],
      [
        "ir",
        "t"
      ],
      [
        "me",
        "et"
      ],
      [
        "hold",
        "ing"
      ],
      [
        "g",
        "ather"
      ],
      [
        "pro",
        "te"
      ],
      [
        "o",
        "s"
      ],
      [
        "Go",
        "od"
      ],
      [
        "An",
        "swer"
      ],
      [
        "i",
        "an"
      ],
      [
        "in",
        "v"
      ],
      [
        "spot",
        "ted"
      ],
      [
        "ber",
        "ries"
      ],
      [
        "shar",
        "p"
      ],
      [
        "ma",
        "il"
      ],
      [
        "rest",
        "ing"
      ],
      [
        "cou",
        "n"
      ],
      [
        "bot",
        "tle"
      ],
      [
        "bir",
        "thday"
      ],
      [
        "e",
        "y"
      ],
      [
        "itt",
        "en"
      ],
      [
        "sn",
        "ake"
      ],
      [
        "gent",
        "ly"
      ],
      [
        "bran",
        "ch"
      ],
      [
        "m",
        "ach"
      ],
      [
        "He",
        "y"
      ],
      [
        "sm",
        "ell"
      ],
      [
        "po",
        "p"
      ],
      [
        "place",
        "s"
      ],
      [
        "d",
        "i"
      ],
      [
        "f",
        "li"
      ],
      [
        "re",
        "spe"
      ],
      [
        "poin",
        "ted"
      ],
      [
        "pers",
        "on"
      ],
      [
        "gif",
        "t"
      ],
      [
        "H",
        "ow"
      ],
      [
        "ug",
        "g"
      ],
      [
        "ho",
        "pe"
      ],
      [
        "tast",
        "y"
      ],
      [
        "smil",
        "ing"
      ],
      [
        "too",
        "l"
      ],
      [
        "ru",
        "bb"
      ],
      [
        "w",
        "ide"
      ],
      [
        "sh",
        "ining"
      ],
      [
        "l",
        "ay"
      ],
      [
        "m",
        "el"
      ],
      [
        "ad",
        "m"
      ],
      [
        "ble",
        "w"
      ],
      [
        "tast",
        "ed"
      ],
      [
        "smel",
        "led"
      ],
      [
        "l",
        "ar"
      ],
      [
        "k",
        "ick"
      ],
      [
        "was",
        "h"
      ],
      [
        "or",
        "m"
      ],
      [
        "wear",
        "ing"
      ],
      [
        "le",
        "tter"
      ],
      [
        "pre",
        "sent"
      ],
      [
        "pic",
        "nic"
      ],
      [
        "g",
        "y"
      ],
      [
        "sp",
        "ider"
      ],
      [
        "cor",
        "n"
      ],
      [
        "trou",
        "ble"
      ],
      [
        "mat",
        "ter"
      ],
      [
        "e",
        "th"
      ],
      [
        "in",
        "te"
      ],
      [
        "on",
        "es"
      ],
      [
        "tight",
        "ly"
      ],
      [
        "e",
        "ag"
      ],
      [
        "p",
        "an"
      ],
      [
        "pre",
        "ad"
      ],
      [
        "iz",
        "e"
      ],
      [
        "pra",
        "ct"
      ],
      [
        "respe",
        "ct"
      ],
      [
        "g",
        "igg"
      ],
      [
        "s",
        "pread"
      ],
      [
        "fe",
        "ather"
      ],
      [
        "she",
        "s"
      ],
      [
        "d",
        "es"
      ],
      [
        "any",
        "one"
      ],
      [
        "se",
        "at"
      ],
      [
        "b",
        "read"
      ],
      [
        "ro",
        "ad"
      ],
      [
        "pu",
        "zz"
      ],
      [
        "who",
        "le"
      ],
      [
        "prin",
        "ce"
      ],
      [
        "m",
        "ark"
      ],
      [
        "wor",
        "d"
      ],
      [
        "pa",
        "th"
      ],
      [
        "gi",
        "ant"
      ],
      [
        "er",
        "t"
      ],
      [
        "h",
        "oney"
      ],
      [
        "l",
        "ater"
      ],
      [
        "con",
        "fused"
      ],
      [
        "cook",
        "ie"
      ],
      [
        "co",
        "p"
      ],
      [
        "do",
        "l"
      ],
      [
        "ro",
        "ar"
      ],
      [
        "ho",
        "p"
      ],
      [
        "la",
        "st"
      ]
    ]
  }
}