{
  "version": "1.0",
  "truncation": null,
  "padding": null,
  "added_tokens": [
    {
      "id": 0,
      "content": "<pad>",
      "single_word": false,
      "lstrip": false,
      "rstrip": false,
      "normalized": false,
      "special": true
    },
    {
      "id": 1,
      "content": "<unk>",
      "single_word": false,
      "lstrip": false,
      "rstrip": false,
      "normalized": false,
      "special": true
    },
    {
      "id": 2,
      "content": "<bos>",
      "single_word": false,
      "lstrip": false,
      "rstrip": false,
      "normalized": false,
      "special": true
    },
    {
      "id": 3,
      "content": "<eos>",
      "single_word": false,
      "lstrip": false,
      "rstrip": false,
      "normalized": false,
      "special": true
    },
    {
      "id": 4,
      "content": "<doc>",
      "single_word": false,
      "lstrip": false,
      "rstrip": false,
      "normalized": false,
      "special": true
    }
  ],
  "normalizer": null,
  "pre_tokenizer": {
    "type": "ByteLevel",
    "add_prefix_space": false,
    "trim_offsets": true,
    "use_regex": true
  },
  "post_processor": null,
  "decoder": {
    "type": "ByteLevel",
    "add_prefix_space": true,
    "trim_offsets": true,
    "use_regex": true
  },
  "model": {
    "type": "BPE",
    "dropout": null,
    "unk_token": "<unk>",
    "continuing_subword_prefix": null,
    "end_of_word_suffix": null,
    "fuse_unk": false,
    "byte_fallback": false,
    "ignore_merges": false,
    "vocab": {
      "<pad>": 0,
      "<unk>": 1,
      "<bos>": 2,
      "<eos>": 3,
      "<doc>": 4,
      "!": 5,
      "\"": 6,
      "#": 7,
      "$": 8,
      "%": 9,
      "&": 10,
      "'": 11,
      "(": 12,
      ")": 13,
      "*": 14,
      "+": 15,
      ",": 16,
      "-": 17,
      ".": 18,
      "/": 19,
      "0": 20,
      "1": 21,
      "2": 22,
      "3": 23,
      "4": 24,
      "5": 25,
      "6": 26,
      "7": 27,
      "8": 28,
      "9": 29,
      ":": 30,
      ";": 31,
      "<": 32,
      "=": 33,
      ">": 34,
      "?": 35,
      "@": 36,
      "A": 37,
      "B": 38,
      "C": 39,
      "D": 40,
      "E": 41,
      "F": 42,
      "G": 43,
      "H": 44,
      "I": 45,
      "J": 46,
      "K": 47,
      "L": 48,
      "M": 49,
      "N": 50,
      "O": 51,
      "P": 52,
      "Q": 53,
      "R": 54,
      "S": 55,
      "T": 56,
      "U": 57,
      "V": 58,
      "W": 59,
      "X": 60,
      "Y": 61,
      "Z": 62,
      "[": 63,
      "\\": 64,
      "]": 65,
      "^": 66,
      "_": 67,
      "`": 68,
      "a": 69,
      "b": 70,
      "c": 71,
      "d": 72,
      "e": 73,
      "f": 74,
      "g": 75,
      "h": 76,
      "i": 77,
      "j": 78,
      "k": 79,
      "l": 80,
      "m": 81,
      "n": 82,
      "o": 83,
      "p": 84,
      "q": 85,
      "r": 86,
      "s": 87,
      "t": 88,
      "u": 89,
      "v": 90,
      "w": 91,
      "x": 92,
      "y": 93,
      "z": 94,
      "{": 95,
      "|": 96,
      "}": 97,
      "~": 98,
      "¡": 99,
      "¢": 100,
      "£": 101,
      "¤": 102,
      "¥": 103,
      "¦": 104,
      "§": 105,
      "¨": 106,
      "©": 107,
      "ª": 108,
      "«": 109,
      "¬": 110,
      "®": 111,
      "¯": 112,
      "°": 113,
      "±": 114,
      "²": 115,
      "³": 116,
      "´": 117,
      "µ": 118,
      "¶": 119,
      "·": 120,
      "¸": 121,
      "¹": 122,
      "º": 123,
      "»": 124,
      "¼": 125,
      "½": 126,
      "¾": 127,
      "¿": 128,
      "À": 129,
      "Á": 130,
      "Â": 131,
      "Ã": 132,
      "Ä": 133,
      "Å": 134,
      "Æ": 135,
      "Ç": 136,
      "È": 137,
      "É": 138,
      "Ê": 139,
      "Ë": 140,
      "Ì": 141,
      "Í": 142,
      "Î": 143,
      "Ï": 144,
      "Ð": 145,
      "Ñ": 146,
      "Ò": 147,
      "Ó": 148,
      "Ô": 149,
      "Õ": 150,
      "Ö": 151,
      "×": 152,
      "Ø": 153,
      "Ù": 154,
      "Ú": 155,
      "Û": 156,
      "Ü": 157,
      "Ý": 158,
      "Þ": 159,
      "ß": 160,
      "à": 161,
      "á": 162,
      "â": 163,
      "ã": 164,
      "ä": 165,
      "å": 166,
      "æ": 167,
      "ç": 168,
      "è": 169,
      "é": 170,
      "ê": 171,
      "ë": 172,
      "ì": 173,
      "í": 174,
      "î": 175,
      "ï": 176,
      "ð": 177,
      "ñ": 178,
      "ò": 179,
      "ó": 180,
      "ô": 181,
      "õ": 182,
      "ö": 183,
      "÷": 184,
      "ø": 185,
      "ù": 186,
      "ú": 187,
      "û": 188,
      "ü": 189,
      "ý": 190,
      "þ": 191,
      "ÿ": 192,
      "Ā": 193,
      "ā": 194,
      "Ă": 195,
      "ă": 196,
      "Ą": 197,
      "ą": 198,
      "Ć": 199,
      "ć": 200,
      "Ĉ": 201,
      "ĉ": 202,
      "Ċ": 203,
      "ċ": 204,
      "Č": 205,
      "č": 206,
      "Ď": 207,
      "ď": 208,
      "Đ": 209,
      "đ": 210,
      "Ē": 211,
      "ē": 212,
      "Ĕ": 213,
      "ĕ": 214,
      "Ė": 215,
      "ė": 216,
      "Ę": 217,
      "ę": 218,
      "Ě": 219,
      "ě": 220,
      "Ĝ": 221,
      "ĝ": 222,
      "Ğ": 223,
      "ğ": 224,
      "Ġ": 225,
      "ġ": 226,
      "Ģ": 227,
      "ģ": 228,
      "Ĥ": 229,
      "ĥ": 230,
      "Ħ": 231,
      "ħ": 232,
      "Ĩ": 233,
      "ĩ": 234,
      "Ī": 235,
      "ī": 236,
      "Ĭ": 237,
      "ĭ": 238,
      "Į": 239,
      "į": 240,
      "İ": 241,
      "ı": 242,
      "Ĳ": 243,
      "ĳ": 244,
      "Ĵ": 245,
      "ĵ": 246,
      "Ķ": 247,
      "ķ": 248,
      "ĸ": 249,
      "Ĺ": 250,
      "ĺ": 251,
      "Ļ": 252,
      "ļ": 253,
      "Ľ": 254,
      "ľ": 255,
      "Ŀ": 256,
      "ŀ": 257,
      "Ł": 258,
      "ł": 259,
      "Ń": 260,
      "he": 261,
      "Ġt": 262,
      "Ġa": 263,
      "Ġs": 264,
      "Ġw": 265,
      "nd": 266,
      "Ġthe": 267,
      "ed": 268,
      "Ġand": 269,
      "Ġto": 270,
      "Ġb": 271,
      "in": 272,
      "Ġh": 273,
      "Ġwa": 274,
      "re": 275,
      "Ġf": 276,
      "it": 277,
      "ou": 278,
      "Ġc": 279,
      "Ġl": 280,
      "Ġhe": 281,
      "Ġd": 282,
      "er": 283,
      "Ġwas": 284,
      "Ġm": 285,
      "Ġp": 286,
      "om": 287,
      "ĠT": 288,
      "Ġo": 289,
      "ay": 290,
      "ar": 291,
      "is": 292,
      "ing": 293,
      "Ġg": 294,
      "il": 295,
      "id": 296,
      "at": 297,
      "en": 298,
      "Ġn": 299,
      "Ġsa": 300,
      "Ġha": 301,
      "ĠS": 302,
      "im": 303,
      "ĠThe": 304,
      "an": 305,
      "or": 306,
      "on": 307,
      "Ġit": 308,
      "Ġth": 309,
      "ll": 310,
      "le": 311,
      "ĠH": 312,
      "Ġher": 313,
      "et": 314,
      "ot": 315,
      "ir": 316,
      "ĠShe": 317,
      "ĠHe": 318,
      "ver": 319,
      "es": 320,
      "Ġin": 321,
      "ut": 322,
      "ow": 323,
      "ck": 324,
      "Ġe": 325,
      "Ġu": 326,
      "ld": 327,
      "ĠThey": 328,
      "oo": 329,
      "ig": 330,
      "Ġy": 331,
      "Ġr": 332,
      "Ġsaid": 333,
      "am": 334,
      "ily": 335,
      "Ġbe": 336,
      "Ġst": 337,
      "ce": 338,
      "Ġshe": 339,
      "ith": 340,
      "Ġ\"": 341,
      "pp": 342,
      "ke": 343,
      "Ġwith": 344,
      "On": 345,
      "ĠI": 346,
      "ve": 347,
      "Lily": 348,
      "Ġon": 349,
      "Ġof": 350,
      "Ġso": 351,
      "Ġhis": 352,
      "ked": 353,
      "ri": 354,
      "nt": 355,
      "very": 356,
      "Ġpl": 357,
      "Ġday": 358,
      "ad": 359,
      "Ġyou": 360,
      "Ġthat": 361,
      "Ġup": 362,
      "Ġhad": 363,
      "st": 364,
      "Ġplay": 365,
      "Ġthey": 366,
      "ĠLily": 367,
      "Ġwe": 368,
      "Ġmom": 369,
      "my": 370,
      "Ġfor": 371,
      "el": 372,
      "ould": 373,
      "un": 374,
      "ĠB": 375,
      "'s": 376,
      "itt": 377,
      "ent": 378,
      "The": 379,
      "Ġhapp": 380,
      "ch": 381,
      "Ġli": 382,
      "Ġwant": 383,
      "out": 384,
      "Ġsh": 385,
      "her": 386,
      "ly": 387,
      "ime": 388,
      "ittle": 389,
      "Ġvery": 390,
      "ound": 391,
      "Ġtime": 392,
      "ome": 393,
      "Ġdo": 394,
      "Ġlittle": 395,
      "Ġthere": 396,
      "all": 397,
      "se": 398,
      "Ġk": 399,
      "Ġwh": 400,
      "end": 401,
      "al": 402,
      "ht": 403,
      "Ġne": 404,
      "Ġre": 405,
      "Ġnot": 406,
      "Ġhappy": 407,
      "ĠM": 408,
      "Ġbig": 409,
      "Ġbut": 410,
      "ack": 411,
      "Ġsm": 412,
      "Ġsaw": 413,
      "ĠIt": 414,
      "Ġas": 415,
      "Ġan": 416,
      "riend": 417,
      "Ġfriend": 418,
      "ra": 419,
      "ry": 420,
      "ide": 421,
      "Ġis": 422,
      "One": 423,
      "ved": 424,
      "'t": 425,
      "Once": 426,
      "ake": 427,
      ".\"": 428,
      "Ġwere": 429,
      "ter": 430,
      "ug": 431,
      "Ġloo": 432,
      "Ġlo": 433,
      "ec": 434,
      "ore": 435,
      "Ġbo": 436,
      "ĠTim": 437,
      "Ġhim": 438,
      "!\"": 439,
      "Ġgo": 440,
      "Ġtoo": 441,
      "Ġupon": 442,
      "irl": 443,
      "Ġj": 444,
      "Ġwanted": 445,
      "Ġse": 446,
      "Ġgirl": 447,
      "Ġout": 448,
      "ard": 449,
      "way": 450,
      "Ġsp": 451,
      "ill": 452,
      "Ġthem": 453,
      "ind": 454,
      "fu": 455,
      "Ġat": 456,
      "Ġcould": 457,
      "hen": 458,
      "ur": 459,
      "Ġdid": 460,
      "ĠA": 461,
      "Ġtheir": 462,
      "Ġare": 463,
      "Ġsmil": 464,
      "Ġex": 465,
      "ain": 466,
      "Ġwent": 467,
      "hed": 468,
      "ic": 469,
      "art": 470,
      "rom": 471,
      "round": 472,
      "Ġhave": 473,
      "lp": 474,
      "Ġnam": 475,
      "ĠJ": 476,
      "Ġall": 477,
      "ful": 478,
      "Ġkn": 479,
      "hing": 480,
      "ood": 481,
      "Ġhelp": 482,
      "ight": 483,
      "Ġfriends": 484,
      "ark": 485,
      "one": 486,
      "um": 487,
      "Ġback": 488,
      "Ġcan": 489,
      "Ġnamed": 490,
      "Ġcl": 491,
      "?\"": 492,
      "Ġfun": 493,
      "ĠBen": 494,
      "are": 495,
      "Ġloved": 496,
      "ĠTimmy": 497,
      "op": 498,
      "Ġal": 499,
      "elt": 500,
      "ĠOne": 501,
      "side": 502,
      "Ġle": 503,
      "Ġno": 504,
      "Ġsc": 505,
      "Ġfelt": 506,
      "oug": 507,
      "ĠTom": 508,
      "Ġsmiled": 509,
      "ick": 510,
      "You": 511,
      "Ġasked": 512,
      "Ġtoy": 513,
      "Ġsay": 514,
      "Ġman": 515,
      "Ġaround": 516,
      "Ġfe": 517,
      "ame": 518,
      "ĠW": 519,
      "Ġsome": 520,
      "Ġboy": 521,
      "Ġlooked": 522,
      "ure": 523,
      "omet": 524,
      "Ġwould": 525,
      "Ġbr": 526,
      "Ġme": 527,
      "Ġbir": 528,
      "Ġlike": 529,
      "Ġro": 530,
      "as": 531,
      "Ġstart": 532,
      "get": 533,
      "Ġsee": 534,
      "ice": 535,
      "ong": 536,
      "Ġbird": 537,
      "Ġsomet": 538,
      "dd": 539,
      "ie": 540,
      "Ġwor": 541,
      "ade": 542,
      "Ġag": 543,
      "own": 544,
      "king": 545,
      "Ġfa": 546,
      "Ġaway": 547,
      "ings": 548,
      "Ġwhat": 549,
      "Ġtre": 550,
      "âĢ": 551,
      "Ġran": 552,
      "Ġstarted": 553,
      "gether": 554,
      "ared": 555,
      "Ġmake": 556,
      "ĠBut": 557,
      "ited": 558,
      "if": 559,
      "oud": 560,
      "Ġmade": 561,
      "Ġtogether": 562,
      "Ġsomething": 563,
      "ag": 564,
      "Ġexc": 565,
      "Ġco": 566,
      "Ġpark": 567,
      "Ġnew": 568,
      "Ġsad": 569,
      ",\"": 570,
      "ell": 571,
      "Ġcar": 572,
      "Ġput": 573,
      "Ġfrom": 574,
      "ble": 575,
      "Ġpr": 576,
      "ther": 577,
      "Ġmu": 578,
      "ĠYou": 579,
      "Ġthen": 580,
      "Ġhome": 581,
      "Ġwhen": 582,
      "Ġagain": 583,
      "Ġother": 584,
      "Ġfound": 585,
      "Ġdec": 586,
      "Ġwho": 587,
      "Ġla": 588,
      "ss": 589,
      "Ġch": 590,
      "ried": 591,
      "ook": 592,
      "Ġhug": 593,
      "ĠL": 594,
      "Ġgood": 595,
      "pped": 596,
      "Ġsays": 597,
      "Ġwal": 598,
      "ally": 599,
      "est": 600,
      "ep": 601,
      "Ġfl": 602,
      "ĠE": 603,
      "pl": 604,
      "qu": 605,
      "Ġget": 606,
      "ach": 607,
      "Ġexcited": 608,
      "ought": 609,
      "Ġplaying": 610,
      "Ġgot": 611,
      "ous": 612,
      "Ġsw": 613,
      "ided": 614,
      "Ġthings": 615,
      "uck": 616,
      "hat": 617,
      "ny": 618,
      "Ġdecided": 619,
      "Ġevery": 620,
      "Ġcame": 621,
      "Ġbec": 622,
      "Ġbl": 623,
      "ave": 624,
      "ax": 625,
      "ro": 626,
      "Ġliked": 627,
      "Ġdown": 628,
      "Ġdog": 629,
      "Ġscared": 630,
      "Ġv": 631,
      "ue": 632,
      "udd": 633,
      "ust": 634,
      "Ġone": 635,
      "Ġfind": 636,
      "ap": 637,
      "Ġdidn": 638,
      "Ġthan": 639,
      "Ġkne": 640,
      "ways": 641,
      "ĠD": 642,
      "ouse": 643,
      "Ġcare": 644,
      "Ġmommy": 645,
      "Ġdad": 646,
      "Ġalways": 647,
      "Ġab": 648,
      "bb": 649,
      "Ġfeel": 650,
      "ara": 651,
      "arn": 652,
      "ist": 653,
      "fe": 654,
      "Ġyour": 655,
      "Ġgra": 656,
      "Ġoutside": 657,
      "ant": 658,
      "ĠMom": 659,
      "Ġke": 660,
      "Ġlot": 661,
      "us": 662,
      "Ġtook": 663,
      "nn": 664,
      "ite": 665,
      "ess": 666,
      "Ġabout": 667,
      "ĠF": 668,
      "nder": 669,
      "Ġtree": 670,
      "Ġlook": 671,
      "eci": 672,
      "Ġmy": 673,
      "our": 674,
      "Ġtoys": 675,
      "Ġpo": 676,
      "ched": 677,
      "Ġthought": 678,
      "ened": 679,
      "Ġknew": 680,
      "Ġball": 681,
      "Ġlearn": 682,
      "Ġint": 683,
      "Ġmore": 684,
      "ise": 685,
      "Ġold": 686,
      "ged": 687,
      "nna": 688,
      "ĠMax": 689,
      "They": 690,
      "Ġta": 691,
      "udden": 692,
      "Ġwill": 693,
      "ers": 694,
      "ecial": 695,
      "Ġspecial": 696,
      "Ġho": 697,
      "ĠSam": 698,
      "Ġpe": 699,
      "ret": 700,
      "Ġtake": 701,
      "Ġknow": 702,
      "Ġlaug": 703,
      "fter": 704,
      "uddenly": 705,
      "au": 706,
      "Ġcat": 707,
      "Ġtr": 708,
      "Ġhow": 709,
      "ive": 710,
      "Ġmuch": 711,
      "Ġany": 712,
      "Ġsor": 713,
      "Ġsl": 714,
      "ma": 715,
      "ven": 716,
      "ish": 717,
      "Ġmo": 718,
      "Ġshow": 719,
      "ink": 720,
      "ause": 721,
      "Ġcouldn": 722,
      "But": 723,
      "ump": 724,
      "ia": 725,
      "Ġhouse": 726,
      "Ġtried": 727,
      "Ġinto": 728,
      "Ġover": 729,
      "Ġclo": 730,
      "Ġsun": 731,
      "Ġsk": 732,
      "and": 733,
      "Ġeat": 734,
      "Ġtw": 735,
      "Ġinside": 736,
      "ĠEvery": 737,
      "dy": 738,
      "Ġrun": 739,
      "Ġhand": 740,
      "Ġen": 741,
      "Ġif": 742,
      "Ġqu": 743,
      "Ġtold": 744,
      "Ġgre": 745,
      "Ġproud": 746,
      "Ġnever": 747,
      "ion": 748,
      "Ġbecause": 749,
      "Ġsorry": 750,
      "by": 751,
      "Ġop": 752,
      "Ġgave": 753,
      "Ġbox": 754,
      "Ġor": 755,
      "Ġplayed": 756,
      "ate": 757,
      "Ġthis": 758,
      "Ġexpl": 759,
      "Ġheard": 760,
      "ank": 761,
      "ty": 762,
      "Ġroom": 763,
      "ge": 764,
      "Ġwater": 765,
      "other": 766,
      "Ġra": 767,
      "Ġpick": 768,
      "etter": 769,
      "Ġjust": 770,
      "Ġhugged": 771,
      "ak": 772,
      "here": 773,
      "Ġoff": 774,
      "Ġpret": 775,
      "Ġeach": 776,
      "ĠSara": 777,
      "sed": 778,
      "Ġbu": 779,
      "Ġlong": 780,
      "Ġcom": 781,
      "ile": 782,
      "ort": 783,
      "Ġbear": 784,
      "Ġunt": 785,
      "ĠWe": 786,
      "Ġstr": 787,
      "ine": 788,
      "Ġneed": 789,
      "iz": 790,
      "Ġwat": 791,
      "oth": 792,
      "Tom": 793,
      "Ġjo": 794,
      "Ġuntil": 795,
      "Mom": 796,
      "Ġsmall": 797,
      "Ġnice": 798,
      "Ġtry": 799,
      "uc": 800,
      "ving": 801,
      "sel": 802,
      "ough": 803,
      "Ġlearned": 804,
      "ild": 805,
      "ĠAnna": 806,
      "Ġkind": 807,
      "Ġmany": 808,
      "Ġbetter": 809,
      "'m": 810,
      "Ġfo": 811,
      "gry": 812,
      "Ġim": 813,
      "ĠJack": 814,
      "ft": 815,
      "Ġend": 816,
      "urt": 817,
      "Ġsn": 818,
      "imal": 819,
      "Ġanimal": 820,
      "ull": 821,
      "aut": 822,
      "Ġcle": 823,
      "Ġte": 824,
      "ĠJo": 825,
      "vent": 826,
      "urp": 827,
      "Ġgr": 828,
      "ream": 829,
      "Ġche": 830,
      "Ġbeaut": 831,
      "mb": 832,
      "Ġjump": 833,
      "Ġad": 834,
      "ĠHer": 835,
      "ies": 836,
      "pt": 837,
      "Ġbra": 838,
      "Ġeven": 839,
      "Ġbest": 840,
      "ĠSo": 841,
      "Ġflow": 842,
      "Ġthanked": 843,
      "Ġcall": 844,
      "Ġlots": 845,
      "ady": 846,
      "He": 847,
      "Ġlaughed": 848,
      "ace": 849,
      "urn": 850,
      "self": 851,
      "Ġby": 852,
      "lly": 853,
      "ars": 854,
      "Ġway": 855,
      "Ġfast": 856,
      "Ġfam": 857,
      "ĠC": 858,
      "ves": 859,
      "arden": 860,
      "Ġgarden": 861,
      "Ġbeauti": 862,
      "wn": 863,
      "Ġbeautiful": 864,
      "Th": 865,
      "Ġloud": 866,
      "Ġsky": 867,
      "hn": 868,
      "Ġdon": 869,
      "lew": 870,
      "ered": 871,
      "Ġcareful": 872,
      "Ġlove": 873,
      "âĢĿ": 874,
      "Ġfi": 875,
      "Ġsafe": 876,
      "âĢľ": 877,
      "iny": 878,
      "ĠThen": 879,
      "ect": 880,
      "ase": 881,
      "Ġcome": 882,
      "ĠMia": 883,
      "ĠAnd": 884,
      "Yes": 885,
      "ĠFrom": 886,
      "Ġhard": 887,
      "Ġwo": 888,
      "Ġunder": 889,
      "me": 890,
      "ane": 891,
      "It": 892,
      "Ġstay": 893,
      "ople": 894,
      "Ġlist": 895,
      "Ġgl": 896,
      "ool": 897,
      "Ġstill": 898,
      "ning": 899,
      "Ġhurt": 900,
      "ree": 901,
      "Ġhas": 902,
      "ĠHis": 903,
      "Ġimp": 904,
      "Ġboth": 905,
      "Ġfamily": 906,
      "rm": 907,
      "hes": 908,
      "Ġpeople": 909,
      "Ġanimals": 910,
      "Ġcol": 911,
      "Ġred": 912,
      "When": 913,
      "Ġcu": 914,
      "igh": 915,
      "Ġbrave": 916,
      "Ġlived": 917,
      "Ġwalked": 918,
      "ct": 919,
      "Tim": 920,
      "urpr": 921,
      "ob": 922,
      "Ġsurpr": 923,
      "ĠWhen": 924,
      "Ġtwo": 925,
      "Ġbad": 926,
      "Ġlet": 927,
      "ress": 928,
      "ished": 929,
      "Ġshould": 930,
      "ĠâĢľ": 931,
      "Ġfore": 932,
      "ip": 933,
      "Ġkept": 934,
      "Ġbook": 935,
      "Ġstor": 936,
      "Ġfin": 937,
      "ast": 938,
      "Ġflew": 939,
      "ised": 940,
      "Ġfly": 941,
      "Ġits": 942,
      "led": 943,
      "ock": 944,
      "Ġdan": 945,
      "Ġclean": 946,
      "Ġpic": 947,
      "ucy": 948,
      "fore": 949,
      "Ġgoing": 950,
      "kay": 951,
      "Ġcalled": 952,
      "Ġangry": 953,
      "Ġshare": 954,
      "Ġide": 955,
      "Ġsoon": 956,
      "No": 957,
      "Ġcon": 958,
      "Ġpretty": 959,
      "Ġrock": 960,
      "ied": 961,
      "illy": 962,
      "xt": 963,
      "Ġground": 964,
      "Ġexplore": 965,
      "so": 966,
      "Ġwind": 967,
      "be": 968,
      "Ġreal": 969,
      "Let": 970,
      "Ġsto": 971,
      "Ġcry": 972,
      "Ġadvent": 973,
      "Ġdoll": 974,
      "Ġalso": 975,
      "Ġidea": 976,
      "Ġopened": 977,
      "Ġshiny": 978,
      "oy": 979,
      "Ġbefore": 980,
      "Ġey": 981,
      "dded": 982,
      "ummy": 983,
      "Ġfeeling": 984,
      "Ġwhile": 985,
      "Ġnow": 986,
      "Ġdoor": 987,
      "Ġkeep": 988,
      "les": 989,
      "oon": 990,
      "Ġwalking": 991,
      "Ġnoise": 992,
      "Ġfr": 993,
      "Ġturn": 994,
      "age": 995,
      "Ġcolor": 996,
      "ious": 997,
      "Ġbed": 998,
      "thing": 999,
      "uch": 1000,
      "ff": 1001,
      "th": 1002,
      "Ġdra": 1003,
      "Ġfar": 1004,
      "Ġpicked": 1005,
      "ary": 1006,
      "imb": 1007,
      "ture": 1008,
      "Ġdel": 1009,
      "Ġbeing": 1010,
      "ac": 1011,
      "Ġclimb": 1012,
      "What": 1013,
      "âĢĻ": 1014,
      "eet": 1015,
      "Ġun": 1016,
      "Ġfood": 1017,
      "Ġwr": 1018,
      "Ġdif": 1019,
      "Ġadventure": 1020,
      "Ġthr": 1021,
      "ught": 1022,
      "Ġsmile": 1023,
      "Ġblue": 1024,
      "memb": 1025,
      "Ġnext": 1026,
      "iced": 1027,
      "joy": 1028,
      "Ġlooking": 1029,
      "Ġdis": 1030,
      "Ġquick": 1031,
      "ĠLucy": 1032,
      "bbit": 1033,
      "ĠP": 1034,
      "Ġclos": 1035,
      "Ġrepl": 1036,
      "Ġnodded": 1037,
      "Ġforest": 1038,
      "Ġeyes": 1039,
      "Ġyell": 1040,
      "Ġpicture": 1041,
      "ger": 1042,
      "Ġown": 1043,
      "ized": 1044,
      "ĠDad": 1045,
      "ted": 1046,
      "ĠSuddenly": 1047,
      "Ġwait": 1048,
      "That": 1049,
      "Ġrememb": 1050,
      "Ġgreat": 1051,
      "Ġimport": 1052,
      "Ġtra": 1053,
      "Ġstopped": 1054,
      "Suddenly": 1055,
      "Thank": 1056,
      "Ġvo": 1057,
      "Ġrain": 1058,
      "Ġgive": 1059,
      "Ben": 1060,
      "ĠG": 1061,
      "Ġenjoy": 1062,
      "Ġapp": 1063,
      "Ġnear": 1064,
      "Ġimportant": 1065,
      "gan": 1066,
      "Ġquickly": 1067,
      "Ġrabbit": 1068,
      "Ġever": 1069,
      "Ġwork": 1070,
      "ting": 1071,
      "Ġfish": 1072,
      "Ġafter": 1073,
      "Ġtruck": 1074,
      "bbed": 1075,
      "Ġlisten": 1076,
      "Ġbre": 1077,
      "Ġthink": 1078,
      "Ġbro": 1079,
      "Ġreplied": 1080,
      "Ġnoticed": 1081,
      "Ġma": 1082,
      "Ġhands": 1083,
      "pot": 1084,
      "Ġwalk": 1085,
      "Ġslide": 1086,
      "kes": 1087,
      "She": 1088,
      "Ġac": 1089,
      "Ġshowed": 1090,
      "Ġeveryone": 1091,
      "irst": 1092,
      "Ġwonder": 1093,
      "fere": 1094,
      "Ġdiffere": 1095,
      "So": 1096,
      "ĠR": 1097,
      "Ġde": 1098,
      "Ġtow": 1099,
      "Ġsound": 1100,
      "Ġsure": 1101,
      "bye": 1102,
      "Ġright": 1103,
      "maz": 1104,
      "Ġstrong": 1105,
      "Ġshout": 1106,
      "Ġamaz": 1107,
      "Ġtal": 1108,
      "Ġhead": 1109,
      "Ġbeen": 1110,
      "Ġbecame": 1111,
      "Ġmean": 1112,
      "Ġmor": 1113,
      "Ġbright": 1114,
      "Ġchild": 1115,
      "aybe": 1116,
      "Ġye": 1117,
      "Ġface": 1118,
      "Ġwatched": 1119,
      "Ġwhere": 1120,
      "ĠSue": 1121,
      "Ġdress": 1122,
      "Ġwatch": 1123,
      "llow": 1124,
      "able": 1125,
      "aught": 1126,
      "Ġcook": 1127,
      "Ġdifferent": 1128,
      "day": 1129,
      "Ġhigh": 1130,
      "ĠN": 1131,
      "ng": 1132,
      "Ġboat": 1133,
      "Ġokay": 1134,
      "Ġgoodbye": 1135,
      "ange": 1136,
      "ĠBob": 1137,
      "Ġsqu": 1138,
      "Ġus": 1139,
      "Ġstore": 1140,
      "Ġvoice": 1141,
      "Ġnight": 1142,
      "Ġcloser": 1143,
      "Jo": 1144,
      "ath": 1145,
      "lease": 1146,
      "Ġar": 1147,
      "Ġplace": 1148,
      "ĠMommy": 1149,
      "Ġfollow": 1150,
      "Ġuse": 1151,
      "Ġpu": 1152,
      "leep": 1153,
      "Ġfav": 1154,
      "Ġflowers": 1155,
      "Ġbus": 1156,
      "ired": 1157,
      "isy": 1158,
      "unny": 1159,
      "Ġcuri": 1160,
      "Ġgrabbed": 1161,
      "Ġstick": 1162,
      "Ġcr": 1163,
      "ĠJohn": 1164,
      "Ġforg": 1165,
      "ĠSpot": 1166,
      "Ġmag": 1167,
      "We": 1168,
      "Ġcake": 1169,
      "Ġwarm": 1170,
      "Ġjumped": 1171,
      "more": 1172,
      "Ġanymore": 1173,
      "Ġbutter": 1174,
      "ĠSarah": 1175,
      "After": 1176,
      "Ġask": 1177,
      "Ġtell": 1178,
      "Ġcurious": 1179,
      "ount": 1180,
      "Ġfell": 1181,
      "Ġthree": 1182,
      "lie": 1183,
      "Ġour": 1184,
      "ached": 1185,
      "co": 1186,
      "orn": 1187,
      "ndma": 1188,
      "ass": 1189,
      "ĠTh": 1190,
      "Ġbirds": 1191,
      "Ġcont": 1192,
      "Her": 1193,
      "ĠJane": 1194,
      "Ġblock": 1195,
      "Ġfirst": 1196,
      "Ġhelped": 1197,
      "iss": 1198,
      "Ġpull": 1199,
      "Ġhat": 1200,
      "Ġyellow": 1201,
      "Ġhop": 1202,
      "ila": 1203,
      "Ġru": 1204,
      "Ġbit": 1205,
      "itc": 1206,
      "Ġmon": 1207,
      "Sara": 1208,
      "ĠEveryone": 1209,
      "Ġkid": 1210,
      "Look": 1211,
      "Ġrealized": 1212,
      "Ġdr": 1213,
      "Ġz": 1214,
      "ppy": 1215,
      "Anna": 1216,
      "Ġbrother": 1217,
      "Ġstop": 1218,
      "zy": 1219,
      "Ġdoes": 1220,
      "Ġper": 1221,
      "Ġate": 1222,
      "Ġhappened": 1223,
      "Ġgreen": 1224,
      "imes": 1225,
      "Ġsweet": 1226,
      "Ġfavor": 1227,
      "Ġkitc": 1228,
      "Ġkitchen": 1229,
      "Ġreally": 1230,
      "Ġgrass": 1231,
      "Ġfavorite": 1232,
      "Ġyummy": 1233,
      "ĠAs": 1234,
      "Ġbegan": 1235,
      "Ġrest": 1236,
      "Ġpain": 1237,
      "Ġlea": 1238,
      "Ġreached": 1239,
      "air": 1240,
      "Ġready": 1241,
      "Ġunderst": 1242,
      "Ġflo": 1243,
      "'re": 1244,
      "Ġsing": 1245,
      "Ġhere": 1246,
      "Ġsand": 1247,
      "Ġstory": 1248,
      "Ġam": 1249,
      "Ġworld": 1250,
      "ster": 1251,
      "Ġtri": 1252,
      "Ġonly": 1253,
      "Ġbeh": 1254,
      "Ġprin": 1255,
      "Ġopen": 1256,
      "Ġglad": 1257,
      "Ġste": 1258,
      "Ġba": 1259,
      "arent": 1260,
      "aisy": 1261,
      "Ġthrough": 1262,
      "where": 1263,
      "Ġbunny": 1264,
      "Ġcre": 1265,
      "Ġflower": 1266,
      "Ġhimself": 1267,
      "Ġfire": 1268,
      "Ġdelic": 1269,
      "Ġtired": 1270,
      "Ġhaving": 1271,
      "Ġsoft": 1272,
      "fully": 1273,
      "Ġmess": 1274,
      "Ġparent": 1275,
      "Ġbutterf": 1276,
      "Ġfro": 1277,
      "Ġdone": 1278,
      "Ġthing": 1279,
      "ĠLet": 1280,
      "Can": 1281,
      "Timmy": 1282,
      "Ġwhy": 1283,
      "Mommy": 1284,
      "Ġcut": 1285,
      "olly": 1286,
      "ken": 1287,
      "Ġtast": 1288,
      "iver": 1289,
      "Ġpart": 1290,
      "Ġdin": 1291,
      "Ġmagic": 1292,
      "Ġwaved": 1293,
      "Ġshouted": 1294,
      "Ġworry": 1295,
      "Ġduck": 1296,
      "uff": 1297,
      "Ġgame": 1298,
      "Ġkids": 1299,
      "Ġsees": 1300,
      "ather": 1301,
      "illed": 1302,
      "eddy": 1303,
      "ater": 1304,
      "ient": 1305,
      "sh": 1306,
      "John": 1307,
      "Ġpond": 1308,
      "Ġcatch": 1309,
      "Ġmaking": 1310,
      "ation": 1311,
      "Ġcoming": 1312,
      "akes": 1313,
      "As": 1314,
      "Ġless": 1315,
      "Ġcool": 1316,
      "Ġfix": 1317,
      "Ġused": 1318,
      "Ġlady": 1319,
      "Ġseen": 1320,
      "Ġhopped": 1321,
      "Ġdark": 1322,
      "Ġthank": 1323,
      "\".": 1324,
      "ĠJoe": 1325,
      "Ġtop": 1326,
      "mer": 1327,
      "Ġsurprise": 1328,
      "Ġhair": 1329,
      "ĠCan": 1330,
      "aring": 1331,
      "Ġdraw": 1332,
      "Ġlight": 1333,
      "Ġfull": 1334,
      "Ġprom": 1335,
      "Ġcra": 1336,
      "Ġmum": 1337,
      "ign": 1338,
      "aper": 1339,
      "Ġfunny": 1340,
      "Ġtouch": 1341,
      "ins": 1342,
      "rel": 1343,
      "Ġsurprised": 1344,
      "Ġdro": 1345,
      "Ġ-": 1346,
      "Ġspot": 1347,
      "ĠBenny": 1348,
      "Ġworked": 1349,
      "ĠDo": 1350,
      "Ġice": 1351,
      "ren": 1352,
      "Ġdoing": 1353,
      "Ġparents": 1354,
      "Ġtrees": 1355,
      "Ġfrog": 1356,
      "Wow": 1357,
      "Ġswing": 1358,
      "inally": 1359,
      "Don": 1360,
      "ĠThat": 1361,
      "Ġsat": 1362,
      "Ġpretend": 1363,
      "ĠIn": 1364,
      "oney": 1365,
      "Ġcarefully": 1366,
      "Ġread": 1367,
      "Ġwood": 1368,
      "Ġtight": 1369,
      "Ġslow": 1370,
      "Ġneeded": 1371,
      "Ġdelicious": 1372,
      "Ġhole": 1373,
      "Ġmouse": 1374,
      "Ġpus": 1375,
      "hy": 1376,
      "Ġset": 1377,
      "Ġblocks": 1378,
      "Ġswim": 1379,
      "Ġheld": 1380,
      "ards": 1381,
      "Ġremembered": 1382,
      "Ġcold": 1383,
      "Ġdri": 1384,
      "Ġlost": 1385,
      "Ġbehind": 1386,
      "ely": 1387,
      "cess": 1388,
      "Ġlooks": 1389,
      "Ġrunning": 1390,
      "Ġherself": 1391,
      "Ġsmell": 1392,
      "sw": 1393,
      "Ġbutterfly": 1394,
      "Ġgi": 1395,
      "Ġcried": 1396,
      "ike": 1397,
      "ask": 1398,
      "Ġperf": 1399,
      "Ġhappily": 1400,
      "Ġname": 1401,
      "Ġenjoyed": 1402,
      "Ġsleep": 1403,
      "Ġbag": 1404,
      "Ġyears": 1405,
      "Ġwished": 1406,
      "Ġfloor": 1407,
      "Ġanother": 1408,
      "Ġarri": 1409,
      "Ġbuy": 1410,
      "Ġwindow": 1411,
      "Ġmove": 1412,
      "ul": 1413,
      "Ġair": 1414,
      "Ġtall": 1415,
      "Ġlesson": 1416,
      "ued": 1417,
      "Ġcars": 1418,
      "Ġhill": 1419,
      "ner": 1420,
      "Ġsho": 1421,
      "sp": 1422,
      "Ġfinished": 1423,
      "Ġchildren": 1424,
      "Ġlikes": 1425,
      "Ġbow": 1426,
      "Ġpaper": 1427,
      "ens": 1428,
      "andy": 1429,
      "ĠAfter": 1430,
      "Ġhold": 1431,
      "Ġwrong": 1432,
      "reed": 1433,
      "Sam": 1434,
      "From": 1435,
      "rew": 1436,
      "Ġarrived": 1437,
      "Ġleft": 1438,
      "uit": 1439,
      "ĠDaisy": 1440,
      "Ġunderstand": 1441,
      "Ġclose": 1442,
      "Ġhear": 1443,
      "Ġanything": 1444,
      "Ġcontin": 1445,
      "Ġhun": 1446,
      "Ġgent": 1447,
      "atter": 1448,
      "lf": 1449,
      "Ġable": 1450,
      "Ġwall": 1451,
      "ross": 1452,
      "Ġfriendly": 1453,
      "asure": 1454,
      "av": 1455,
      "ĠSally": 1456,
      "Ġforgot": 1457,
      "Hell": 1458,
      "Hello": 1459,
      "Ġdream": 1460,
      "Ġel": 1461,
      "Ġdir": 1462,
      "Ġgone": 1463,
      "Ġwet": 1464,
      "bo": 1465,
      "ons": 1466,
      "Ġfilled": 1467,
      "Ġcreat": 1468,
      "Ġcookies": 1469,
      "Ġdinner": 1470,
      "Ġlaugh": 1471,
      ".âĢĿ": 1472,
      "ield": 1473,
      "Ġhot": 1474,
      "Ġtable": 1475,
      "Ġbroken": 1476,
      "ama": 1477,
      "umb": 1478,
      "Ġelse": 1479,
      "Ġhid": 1480,
      "ced": 1481,
      "rot": 1482,
      "Ġcolors": 1483,
      "Ġarm": 1484,
      "Ġfollowed": 1485,
      "Ġpink": 1486,
      "Ġbuild": 1487,
      "Ġmoment": 1488,
      "ey": 1489,
      "Ġwonderful": 1490,
      "Ġpuppy": 1491,
      "oup": 1492,
      "Ġmar": 1493,
      "Ġyes": 1494,
      "Ġcontinued": 1495,
      "Ġmight": 1496,
      "ĠEm": 1497,
      "Ġfinally": 1498,
      "!âĢĿ": 1499,
      "Ġenough": 1500,
      "app": 1501,
      "ined": 1502,
      "irrel": 1503,
      "Ġperfect": 1504,
      "Jack": 1505,
      "ĠBilly": 1506,
      "Ġstayed": 1507,
      "ĠNow": 1508,
      "Ġbooks": 1509,
      "Ġmorning": 1510,
      "Ġcream": 1511,
      "Ġcast": 1512,
      "Ġju": 1513,
      "Ġfair": 1514,
      "Ġdaddy": 1515,
      "Ġsomeone": 1516,
      "ĠThere": 1517,
      "Ġothers": 1518,
      "Ġagreed": 1519,
      "Ġtrying": 1520,
      "ĠLila": 1521,
      "room": 1522,
      "'ll": 1523,
      "Ġfall": 1524,
      "icy": 1525,
      "Ġgetting": 1526,
      "Ġcount": 1527,
      "Ġmus": 1528,
      "Ġgrandma": 1529,
      "Ġbaby": 1530,
      "Ġsnow": 1531,
      "Then": 1532,
      "Ġsquirrel": 1533,
      "Ġmother": 1534,
      "ol": 1535
    },
    "merges": [
      [
        "h",
        "e"
      ],
      [
        "Ġ",
        "t"
      ],
      [
        "Ġ",
        "a"
      ],
      [
        "Ġ",
        "s"
      ],
      [
        "Ġ",
        "w"
      ],
      [
        "n",
        "d"
      ],
      [
        "Ġt",
        "he"
      ],
      [
        "e",
        "d"
      ],
      [
        "Ġa",
        "nd"
      ],
      [
        "Ġt",
        "o"
      ],
      [
        "Ġ",
        "b"
      ],
      [
        "i",
        "n"
      ],
      [
        "Ġ",
        "h"
      ],
      [
        "Ġw",
        "a"
      ],
      [
        "r",
        "e"
      ],
      [
        "Ġ",
        "f"
      ],
      [
        "i",
        "t"
      ],
      [
        "o",
        "u"
      ],
      [
        "Ġ",
        "c"
      ],
      [
        "Ġ",
        "l"
      ],
      [
        "Ġ",
        "he"
      ],
      [
        "Ġ",
        "d"
      ],
      [
        "e",
        "r"
      ],
      [
        "Ġwa",
        "s"
      ],
      [
        "Ġ",
        "m"
      ],
      [
        "Ġ",
        "p"
      ],
      [
        "o",
        "m"
      ],
      [
        "Ġ",
        "T"
      ],
      [
        "Ġ",
        "o"
      ],
      [
        "a",
        "y"
      ],
      [
        "a",
        "r"
      ],
      [
        "i",
        "s"
      ],
      [
        "in",
        "g"
      ],
      [
        "Ġ",
        "g"
      ],
      [
        "i",
        "l"
      ],
      [
        "i",
        "d"
      ],
      [
        "a",
        "t"
      ],
      [
        "e",
        "n"
      ],
      [
        "Ġ",
        "n"
      ],
      [
        "Ġs",
        "a"
      ],
      [
        "Ġh",
        "a"
      ],
      [
        "Ġ",
        "S"
      ],
      [
        "i",
        "m"
      ],
      [
        "ĠT",
        "he"
      ],
      [
        "a",
        "n"
      ],
      [
        "o",
        "r"
      ],
      [
        "o",
        "n"
      ],
      [
        "Ġ",
        "it"
      ],
      [
        "Ġt",
        "h"
      ],
      [
        "l",
        "l"
      ],
      [
        "l",
        "e"
      ],
      [
        "Ġ",
        "H"
      ],
      [
        "Ġhe",
        "r"
      ],
      [
        "e",
        "t"
      ],
      [
        "o",
        "t"
      ],
      [
        "i",
        "r"
      ],
      [
        "ĠS",
        "he"
      ],
      [
        "ĠH",
        "e"
      ],
      [
        "v",
        "er"
      ],
      [
        "e",
        "s"
      ],
      [
        "Ġ",
        "in"
      ],
      [
        "u",
        "t"
      ],
      [
        "o",
        "w"
      ],
      [
        "c",
        "k"
      ],
      [
        "Ġ",
        "e"
      ],
      [
        "Ġ",
        "u"
      ],
      [
        "l",
        "d"
      ],
      [
        "ĠThe",
        "y"
      ],
      [
        "o",
        "o"
      ],
      [
        "i",
        "g"
      ],
      [
        "Ġ",
        "y"
      ],
      [
        "Ġ",
        "r"
      ],
      [
        "Ġsa",
        "id"
      ],
      [
        "a",
        "m"
      ],
      [
        "il",
        "y"
      ],
      [
        "Ġb",
        "e"
      ],
      [
        "Ġs",
        "t"
      ],
      [
        "c",
        "e"
      ],
      [
        "Ġs",
        "he"
      ],
      [
        "it",
        "h"
      ],
      [
        "Ġ",
        "\""
      ],
      [
        "p",
        "p"
      ],
      [
        "k",
        "e"
      ],
      [
        "Ġw",
        "ith"
      ],
      [
        "O",
        "n"
      ],
      [
        "Ġ",
        "I"
      ],
      [
        "v",
        "e"
      ],
      [
        "L",
        "ily"
      ],
      [
        "Ġo",
        "n"
      ],
      [
        "Ġo",
        "f"
      ],
      [
        "Ġs",
        "o"
      ],
      [
        "Ġh",
        "is"
      ],
      [
        "k",
        "ed"
      ],
      [
        "r",
        "i"
      ],
      [
        "n",
        "t"
      ],
      [
        "ver",
        "y"
      ],
      [
        "Ġp",
        "l"
      ],
      [
        "Ġd",
        "ay"
      ],
      [
        "a",
        "d"
      ],
      [
        "Ġy",
        "ou"
      ],
      [
        "Ġth",
        "at"
      ],
      [
        "Ġu",
        "p"
      ],
      [
        "Ġha",
        "d"
      ],
      [
        "s",
        "t"
      ],
      [
        "Ġpl",
        "ay"
      ],
      [
        "Ġthe",
        "y"
      ],
      [
        "Ġ",
        "Lily"
      ],
      [
        "Ġw",
        "e"
      ],
      [
        "Ġm",
        "om"
      ],
      [
        "m",
        "y"
      ],
      [
        "Ġf",
        "or"
      ],
      [
        "e",
        "l"
      ],
      [
        "ou",
        "ld"
      ],
      [
        "u",
        "n"
      ],
      [
        "Ġ",
        "B"
      ],
      [
        "'",
        "s"
      ],
      [
        "it",
        "t"
      ],
      [
        "en",
        "t"
      ],
      [
        "T",
        "he"
      ],
      [
        "Ġha",
        "pp"
      ],
      [
        "c",
        "h"
      ],
      [
        "Ġl",
        "i"
      ],
      [
        "Ġwa",
        "nt"
      ],
      [
        "ou",
        "t"
      ],
      [
        "Ġs",
        "h"
      ],
      [
        "he",
        "r"
      ],
      [
        "l",
        "y"
      ],
      [
        "im",
        "e"
      ],
      [
        "itt",
        "le"
      ],
      [
        "Ġ",
        "very"
      ],
      [
        "ou",
        "nd"
      ],
      [
        "Ġt",
        "ime"
      ],
      [
        "om",
        "e"
      ],
      [
        "Ġd",
        "o"
      ],
      [
        "Ġl",
        "ittle"
      ],
      [
        "Ġthe",
        "re"
      ],
      [
        "a",
        "ll"
      ],
      [
        "s",
        "e"
      ],
      [
        "Ġ",
        "k"
      ],
      [
        "Ġw",
        "h"
      ],
      [
        "e",
        "nd"
      ],
      [
        "a",
        "l"
      ],
      [
        "h",
        "t"
      ],
      [
        "Ġn",
        "e"
      ],
      [
        "Ġ",
        "re"
      ],
      [
        "Ġn",
        "ot"
      ],
      [
        "Ġhapp",
        "y"
      ],
      [
        "Ġ",
        "M"
      ],
      [
        "Ġb",
        "ig"
      ],
      [
        "Ġb",
        "ut"
      ],
      [
        "a",
        "ck"
      ],
      [
        "Ġs",
        "m"
      ],
      [
        "Ġsa",
        "w"
      ],
      [
        "ĠI",
        "t"
      ],
      [
        "Ġa",
        "s"
      ],
      [
        "Ġa",
        "n"
      ],
      [
        "ri",
        "end"
      ],
      [
        "Ġf",
        "riend"
      ],
      [
        "r",
        "a"
      ],
      [
        "r",
        "y"
      ],
      [
        "id",
        "e"
      ],
      [
        "Ġ",
        "is"
      ],
      [
        "On",
        "e"
      ],
      [
        "v",
        "ed"
      ],
      [
        "'",
        "t"
      ],
      [
        "On",
        "ce"
      ],
      [
        "a",
        "ke"
      ],
      [
        ".",
        "\""
      ],
      [
        "Ġwe",
        "re"
      ],
      [
        "t",
        "er"
      ],
      [
        "u",
        "g"
      ],
      [
        "Ġl",
        "oo"
      ],
      [
        "Ġl",
        "o"
      ],
      [
        "e",
        "c"
      ],
      [
        "o",
        "re"
      ],
      [
        "Ġb",
        "o"
      ],
      [
        "ĠT",
        "im"
      ],
      [
        "Ġh",
        "im"
      ],
      [
        "!",
        "\""
      ],
      [
        "Ġg",
        "o"
      ],
      [
        "Ġto",
        "o"
      ],
      [
        "Ġup",
        "on"
      ],
      [
        "ir",
        "l"
      ],
      [
        "Ġ",
        "j"
      ],
      [
        "Ġwant",
        "ed"
      ],
      [
        "Ġs",
        "e"
      ],
      [
        "Ġg",
        "irl"
      ],
      [
        "Ġ",
        "out"
      ],
      [
        "ar",
        "d"
      ],
      [
        "w",
        "ay"
      ],
      [
        "Ġs",
        "p"
      ],
      [
        "il",
        "l"
      ],
      [
        "Ġthe",
        "m"
      ],
      [
        "i",
        "nd"
      ],
      [
        "f",
        "u"
      ],
      [
        "Ġa",
        "t"
      ],
      [
        "Ġc",
        "ould"
      ],
      [
        "he",
        "n"
      ],
      [
        "u",
        "r"
      ],
      [
        "Ġd",
        "id"
      ],
      [
        "Ġ",
        "A"
      ],
      [
        "Ġthe",
        "ir"
      ],
      [
        "Ġa",
        "re"
      ],
      [
        "Ġsm",
        "il"
      ],
      [
        "Ġe",
        "x"
      ],
      [
        "a",
        "in"
      ],
      [
        "Ġw",
        "ent"
      ],
      [
        "he",
        "d"
      ],
      [
        "i",
        "c"
      ],
      [
        "ar",
        "t"
      ],
      [
        "r",
        "om"
      ],
      [
        "r",
        "ound"
      ],
      [
        "Ġha",
        "ve"
      ],
      [
        "l",
        "p"
      ],
      [
        "Ġn",
        "am"
      ],
      [
        "Ġ",
        "J"
      ],
      [
        "Ġa",
        "ll"
      ],
      [
        "fu",
        "l"
      ],
      [
        "Ġk",
        "n"
      ],
      [
        "h",
        "ing"
      ],
      [
        "oo",
        "d"
      ],
      [
        "Ġhe",
        "lp"
      ],
      [
        "ig",
        "ht"
      ],
      [
        "Ġfriend",
        "s"
      ],
      [
        "ar",
        "k"
      ],
      [
        "on",
        "e"
      ],
      [
        "u",
        "m"
      ],
      [
        "Ġb",
        "ack"
      ],
      [
        "Ġc",
        "an"
      ],
      [
        "Ġnam",
        "ed"
      ],
      [
        "Ġc",
        "l"
      ],
      [
        "?",
        "\""
      ],
      [
        "Ġf",
        "un"
      ],
      [
        "ĠB",
        "en"
      ],
      [
        "a",
        "re"
      ],
      [
        "Ġlo",
        "ved"
      ],
      [
        "ĠTim",
        "my"
      ],
      [
        "o",
        "p"
      ],
      [
        "Ġa",
        "l"
      ],
      [
        "el",
        "t"
      ],
      [
        "Ġ",
        "One"
      ],
      [
        "s",
        "ide"
      ],
      [
        "Ġl",
        "e"
      ],
      [
        "Ġn",
        "o"
      ],
      [
        "Ġs",
        "c"
      ],
      [
        "Ġf",
        "elt"
      ],
      [
        "ou",
        "g"
      ],
      [
        "ĠT",
        "om"
      ],
      [
        "Ġsmil",
        "ed"
      ],
      [
        "i",
        "ck"
      ],
      [
        "Y",
        "ou"
      ],
      [
        "Ġas",
        "ked"
      ],
      [
        "Ġto",
        "y"
      ],
      [
        "Ġs",
        "ay"
      ],
      [
        "Ġm",
        "an"
      ],
      [
        "Ġa",
        "round"
      ],
      [
        "Ġf",
        "e"
      ],
      [
        "am",
        "e"
      ],
      [
        "Ġ",
        "W"
      ],
      [
        "Ġs",
        "ome"
      ],
      [
        "Ġbo",
        "y"
      ],
      [
        "Ġloo",
        "ked"
      ],
      [
        "u",
        "re"
      ],
      [
        "om",
        "et"
      ],
      [
        "Ġw",
        "ould"
      ],
      [
        "Ġb",
        "r"
      ],
      [
        "Ġm",
        "e"
      ],
      [
        "Ġb",
        "ir"
      ],
      [
        "Ġli",
        "ke"
      ],
      [
        "Ġr",
        "o"
      ],
      [
        "a",
        "s"
      ],
      [
        "Ġst",
        "art"
      ],
      [
        "g",
        "et"
      ],
      [
        "Ġse",
        "e"
      ],
      [
        "i",
        "ce"
      ],
      [
        "on",
        "g"
      ],
      [
        "Ġbir",
        "d"
      ],
      [
        "Ġs",
        "omet"
      ],
      [
        "d",
        "d"
      ],
      [
        "i",
        "e"
      ],
      [
        "Ġw",
        "or"
      ],
      [
        "ad",
        "e"
      ],
      [
        "Ġa",
        "g"
      ],
      [
        "ow",
        "n"
      ],
      [
        "k",
        "ing"
      ],
      [
        "Ġf",
        "a"
      ],
      [
        "Ġa",
        "way"
      ],
      [
        "ing",
        "s"
      ],
      [
        "Ġwh",
        "at"
      ],
      [
        "Ġt",
        "re"
      ],
      [
        "â",
        "Ģ"
      ],
      [
        "Ġr",
        "an"
      ],
      [
        "Ġstart",
        "ed"
      ],
      [
        "get",
        "her"
      ],
      [
        "ar",
        "ed"
      ],
      [
        "Ġm",
        "ake"
      ],
      [
        "ĠB",
        "ut"
      ],
      [
        "it",
        "ed"
      ],
      [
        "i",
        "f"
      ],
      [
        "ou",
        "d"
      ],
      [
        "Ġm",
        "ade"
      ],
      [
        "Ġto",
        "gether"
      ],
      [
        "Ġsomet",
        "hing"
      ],
      [
        "a",
        "g"
      ],
      [
        "Ġex",
        "c"
      ],
      [
        "Ġc",
        "o"
      ],
      [
        "Ġp",
        "ark"
      ],
      [
        "Ġne",
        "w"
      ],
      [
        "Ġsa",
        "d"
      ],
      [
        ",",
        "\""
      ],
      [
        "e",
        "ll"
      ],
      [
        "Ġc",
        "ar"
      ],
      [
        "Ġp",
        "ut"
      ],
      [
        "Ġf",
        "rom"
      ],
      [
        "b",
        "le"
      ],
      [
        "Ġp",
        "r"
      ],
      [
        "t",
        "her"
      ],
      [
        "Ġm",
        "u"
      ],
      [
        "Ġ",
        "You"
      ],
      [
        "Ġthe",
        "n"
      ],
      [
        "Ġh",
        "ome"
      ],
      [
        "Ġw",
        "hen"
      ],
      [
        "Ġag",
        "ain"
      ],
      [
        "Ġo",
        "ther"
      ],
      [
        "Ġf",
        "ound"
      ],
      [
        "Ġd",
        "ec"
      ],
      [
        "Ġwh",
        "o"
      ],
      [
        "Ġl",
        "a"
      ],
      [
        "s",
        "s"
      ],
      [
        "Ġc",
        "h"
      ],
      [
        "ri",
        "ed"
      ],
      [
        "oo",
        "k"
      ],
      [
        "Ġh",
        "ug"
      ],
      [
        "Ġ",
        "L"
      ],
      [
        "Ġg",
        "ood"
      ],
      [
        "pp",
        "ed"
      ],
      [
        "Ġsay",
        "s"
      ],
      [
        "Ġwa",
        "l"
      ],
      [
        "all",
        "y"
      ],
      [
        "es",
        "t"
      ],
      [
        "e",
        "p"
      ],
      [
        "Ġf",
        "l"
      ],
      [
        "Ġ",
        "E"
      ],
      [
        "p",
        "l"
      ],
      [
        "q",
        "u"
      ],
      [
        "Ġg",
        "et"
      ],
      [
        "a",
        "ch"
      ],
      [
        "Ġexc",
        "ited"
      ],
      [
        "oug",
        "ht"
      ],
      [
        "Ġplay",
        "ing"
      ],
      [
        "Ġg",
        "ot"
      ],
      [
        "ou",
        "s"
      ],
      [
        "Ġs",
        "w"
      ],
      [
        "id",
        "ed"
      ],
      [
        "Ġth",
        "ings"
      ],
      [
        "u",
        "ck"
      ],
      [
        "h",
        "at"
      ],
      [
        "n",
        "y"
      ],
      [
        "Ġdec",
        "ided"
      ],
      [
        "Ġe",
        "very"
      ],
      [
        "Ġc",
        "ame"
      ],
      [
        "Ġbe",
        "c"
      ],
      [
        "Ġb",
        "l"
      ],
      [
        "a",
        "ve"
      ],
      [
        "a",
        "x"
      ],
      [
        "r",
        "o"
      ],
      [
        "Ġli",
        "ked"
      ],
      [
        "Ġd",
        "own"
      ],
      [
        "Ġdo",
        "g"
      ],
      [
        "Ġsc",
        "ared"
      ],
      [
        "Ġ",
        "v"
      ],
      [
        "u",
        "e"
      ],
      [
        "u",
        "dd"
      ],
      [
        "u",
        "st"
      ],
      [
        "Ġon",
        "e"
      ],
      [
        "Ġf",
        "ind"
      ],
      [
        "a",
        "p"
      ],
      [
        "Ġdid",
        "n"
      ],
      [
        "Ġth",
        "an"
      ],
      [
        "Ġkn",
        "e"
      ],
      [
        "way",
        "s"
      ],
      [
        "Ġ",
        "D"
      ],
      [
        "ou",
        "se"
      ],
      [
        "Ġc",
        "are"
      ],
      [
        "Ġmom",
        "my"
      ],
      [
        "Ġd",
        "ad"
      ],
      [
        "Ġal",
        "ways"
      ],
      [
        "Ġa",
        "b"
      ],
      [
        "b",
        "b"
      ],
      [
        "Ġfe",
        "el"
      ],
      [
        "ar",
        "a"
      ],
      [
        "ar",
        "n"
      ],
      [
        "is",
        "t"
      ],
      [
        "f",
        "e"
      ],
      [
        "Ġyou",
        "r"
      ],
      [
        "Ġg",
        "ra"
      ],
      [
        "Ġout",
        "side"
      ],
      [
        "an",
        "t"
      ],
      [
        "ĠM",
        "om"
      ],
      [
        "Ġ",
        "ke"
      ],
      [
        "Ġl",
        "ot"
      ],
      [
        "u",
        "s"
      ],
      [
        "Ġtoo",
        "k"
      ],
      [
        "n",
        "n"
      ],
      [
        "it",
        "e"
      ],
      [
        "es",
        "s"
      ],
      [
        "Ġab",
        "out"
      ],
      [
        "Ġ",
        "F"
      ],
      [
        "nd",
        "er"
      ],
      [
        "Ġtre",
        "e"
      ],
      [
        "Ġloo",
        "k"
      ],
      [
        "ec",
        "i"
      ],
      [
        "Ġm",
        "y"
      ],
      [
        "ou",
        "r"
      ],
      [
        "Ġtoy",
        "s"
      ],
      [
        "Ġp",
        "o"
      ],
      [
        "c",
        "hed"
      ],
      [
        "Ġth",
        "ought"
      ],
      [
        "en",
        "ed"
      ],
      [
        "Ġkne",
        "w"
      ],
      [
        "Ġb",
        "all"
      ],
      [
        "Ġle",
        "arn"
      ],
      [
        "Ġin",
        "t"
      ],
      [
        "Ġm",
        "ore"
      ],
      [
        "is",
        "e"
      ],
      [
        "Ġo",
        "ld"
      ],
      [
        "g",
        "ed"
      ],
      [
        "nn",
        "a"
      ],
      [
        "ĠM",
        "ax"
      ],
      [
        "The",
        "y"
      ],
      [
        "Ġt",
        "a"
      ],
      [
        "udd",
        "en"
      ],
      [
        "Ġw",
        "ill"
      ],
      [
        "er",
        "s"
      ],
      [
        "eci",
        "al"
      ],
      [
        "Ġsp",
        "ecial"
      ],
      [
        "Ġh",
        "o"
      ],
      [
        "ĠS",
        "am"
      ],
      [
        "Ġp",
        "e"
      ],
      [
        "re",
        "t"
      ],
      [
        "Ġt",
        "ake"
      ],
      [
        "Ġkn",
        "ow"
      ],
      [
        "Ġla",
        "ug"
      ],
      [
        "f",
        "ter"
      ],
      [
        "udden",
        "ly"
      ],
      [
        "a",
        "u"
      ],
      [
        "Ġc",
        "at"
      ],
      [
        "Ġt",
        "r"
      ],
      [
        "Ġh",
        "ow"
      ],
      [
        "i",
        "ve"
      ],
      [
        "Ġmu",
        "ch"
      ],
      [
        "Ġan",
        "y"
      ],
      [
        "Ġs",
        "or"
      ],
      [
        "Ġs",
        "l"
      ],
      [
        "m",
        "a"
      ],
      [
        "v",
        "en"
      ],
      [
        "is",
        "h"
      ],
      [
        "Ġm",
        "o"
      ],
      [
        "Ġsh",
        "ow"
      ],
      [
        "in",
        "k"
      ],
      [
        "au",
        "se"
      ],
      [
        "Ġcould",
        "n"
      ],
      [
        "B",
        "ut"
      ],
      [
        "um",
        "p"
      ],
      [
        "i",
        "a"
      ],
      [
        "Ġh",
        "ouse"
      ],
      [
        "Ġt",
        "ried"
      ],
      [
        "Ġint",
        "o"
      ],
      [
        "Ġo",
        "ver"
      ],
      [
        "Ġcl",
        "o"
      ],
      [
        "Ġs",
        "un"
      ],
      [
        "Ġs",
        "k"
      ],
      [
        "a",
        "nd"
      ],
      [
        "Ġe",
        "at"
      ],
      [
        "Ġt",
        "w"
      ],
      [
        "Ġin",
        "side"
      ],
      [
        "ĠE",
        "very"
      ],
      [
        "d",
        "y"
      ],
      [
        "Ġr",
        "un"
      ],
      [
        "Ġha",
        "nd"
      ],
      [
        "Ġ",
        "en"
      ],
      [
        "Ġ",
        "if"
      ],
      [
        "Ġ",
        "qu"
      ],
      [
        "Ġto",
        "ld"
      ],
      [
        "Ġg",
        "re"
      ],
      [
        "Ġpr",
        "oud"
      ],
      [
        "Ġne",
        "ver"
      ],
      [
        "i",
        "on"
      ],
      [
        "Ġbec",
        "ause"
      ],
      [
        "Ġsor",
        "ry"
      ],
      [
        "b",
        "y"
      ],
      [
        "Ġo",
        "p"
      ],
      [
        "Ġg",
        "ave"
      ],
      [
        "Ġbo",
        "x"
      ],
      [
        "Ġo",
        "r"
      ],
      [
        "Ġplay",
        "ed"
      ],
      [
        "at",
        "e"
      ],
      [
        "Ġth",
        "is"
      ],
      [
        "Ġex",
        "pl"
      ],
      [
        "Ġhe",
        "ard"
      ],
      [
        "an",
        "k"
      ],
      [
        "t",
        "y"
      ],
      [
        "Ġro",
        "om"
      ],
      [
        "g",
        "e"
      ],
      [
        "Ġwa",
        "ter"
      ],
      [
        "ot",
        "her"
      ],
      [
        "Ġr",
        "a"
      ],
      [
        "Ġp",
        "ick"
      ],
      [
        "et",
        "ter"
      ],
      [
        "Ġj",
        "ust"
      ],
      [
        "Ġhug",
        "ged"
      ],
      [
        "a",
        "k"
      ],
      [
        "he",
        "re"
      ],
      [
        "Ġof",
        "f"
      ],
      [
        "Ġp",
        "ret"
      ],
      [
        "Ġe",
        "ach"
      ],
      [
        "ĠS",
        "ara"
      ],
      [
        "s",
        "ed"
      ],
      [
        "Ġb",
        "u"
      ],
      [
        "Ġl",
        "ong"
      ],
      [
        "Ġc",
        "om"
      ],
      [
        "il",
        "e"
      ],
      [
        "or",
        "t"
      ],
      [
        "Ġbe",
        "ar"
      ],
      [
        "Ġu",
        "nt"
      ],
      [
        "ĠW",
        "e"
      ],
      [
        "Ġst",
        "r"
      ],
      [
        "in",
        "e"
      ],
      [
        "Ġne",
        "ed"
      ],
      [
        "i",
        "z"
      ],
      [
        "Ġwa",
        "t"
      ],
      [
        "ot",
        "h"
      ],
      [
        "T",
        "om"
      ],
      [
        "Ġj",
        "o"
      ],
      [
        "Ġunt",
        "il"
      ],
      [
        "M",
        "om"
      ],
      [
        "Ġsm",
        "all"
      ],
      [
        "Ġn",
        "ice"
      ],
      [
        "Ġt",
        "ry"
      ],
      [
        "u",
        "c"
      ],
      [
        "v",
        "ing"
      ],
      [
        "s",
        "el"
      ],
      [
        "oug",
        "h"
      ],
      [
        "Ġlearn",
        "ed"
      ],
      [
        "il",
        "d"
      ],
      [
        "ĠA",
        "nna"
      ],
      [
        "Ġk",
        "ind"
      ],
      [
        "Ġman",
        "y"
      ],
      [
        "Ġb",
        "etter"
      ],
      [
        "'",
        "m"
      ],
      [
        "Ġf",
        "o"
      ],
      [
        "g",
        "ry"
      ],
      [
        "Ġ",
        "im"
      ],
      [
        "ĠJ",
        "ack"
      ],
      [
        "f",
        "t"
      ],
      [
        "Ġe",
        "nd"
      ],
      [
        "ur",
        "t"
      ],
      [
        "Ġs",
        "n"
      ],
      [
        "im",
        "al"
      ],
      [
        "Ġan",
        "imal"
      ],
      [
        "u",
        "ll"
      ],
      [
        "a",
        "ut"
      ],
      [
        "Ġc",
        "le"
      ],
      [
        "Ġt",
        "e"
      ],
      [
        "ĠJ",
        "o"
      ],
      [
        "v",
        "ent"
      ],
      [
        "ur",
        "p"
      ],
      [
        "Ġg",
        "r"
      ],
      [
        "re",
        "am"
      ],
      [
        "Ġc",
        "he"
      ],
      [
        "Ġbe",
        "aut"
      ],
      [
        "m",
        "b"
      ],
      [
        "Ġj",
        "ump"
      ],
      [
        "Ġa",
        "d"
      ],
      [
        "ĠH",
        "er"
      ],
      [
        "i",
        "es"
      ],
      [
        "p",
        "t"
      ],
      [
        "Ġb",
        "ra"
      ],
      [
        "Ġe",
        "ven"
      ],
      [
        "Ġb",
        "est"
      ],
      [
        "ĠS",
        "o"
      ],
      [
        "Ġfl",
        "ow"
      ],
      [
        "Ġthan",
        "ked"
      ],
      [
        "Ġc",
        "all"
      ],
      [
        "Ġlot",
        "s"
      ],
      [
        "ad",
        "y"
      ],
      [
        "H",
        "e"
      ],
      [
        "Ġlaug",
        "hed"
      ],
      [
        "a",
        "ce"
      ],
      [
        "ur",
        "n"
      ],
      [
        "sel",
        "f"
      ],
      [
        "Ġb",
        "y"
      ],
      [
        "ll",
        "y"
      ],
      [
        "ar",
        "s"
      ],
      [
        "Ġwa",
        "y"
      ],
      [
        "Ġfa",
        "st"
      ],
      [
        "Ġf",
        "am"
      ],
      [
        "Ġ",
        "C"
      ],
      [
        "v",
        "es"
      ],
      [
        "ard",
        "en"
      ],
      [
        "Ġg",
        "arden"
      ],
      [
        "Ġbeaut",
        "i"
      ],
      [
        "w",
        "n"
      ],
      [
        "Ġbeauti",
        "ful"
      ],
      [
        "T",
        "h"
      ],
      [
        "Ġl",
        "oud"
      ],
      [
        "Ġsk",
        "y"
      ],
      [
        "h",
        "n"
      ],
      [
        "Ġd",
        "on"
      ],
      [
        "le",
        "w"
      ],
      [
        "er",
        "ed"
      ],
      [
        "Ġcare",
        "ful"
      ],
      [
        "Ġlo",
        "ve"
      ],
      [
        "âĢ",
        "Ŀ"
      ],
      [
        "Ġf",
        "i"
      ],
      [
        "Ġsa",
        "fe"
      ],
      [
        "âĢ",
        "ľ"
      ],
      [
        "in",
        "y"
      ],
      [
        "ĠThe",
        "n"
      ],
      [
        "ec",
        "t"
      ],
      [
        "a",
        "se"
      ],
      [
        "Ġc",
        "ome"
      ],
      [
        "ĠM",
        "ia"
      ],
      [
        "ĠA",
        "nd"
      ],
      [
        "Y",
        "es"
      ],
      [
        "ĠF",
        "rom"
      ],
      [
        "Ġh",
        "ard"
      ],
      [
        "Ġw",
        "o"
      ],
      [
        "Ġu",
        "nder"
      ],
      [
        "m",
        "e"
      ],
      [
        "an",
        "e"
      ],
      [
        "I",
        "t"
      ],
      [
        "Ġst",
        "ay"
      ],
      [
        "op",
        "le"
      ],
      [
        "Ġl",
        "ist"
      ],
      [
        "Ġg",
        "l"
      ],
      [
        "oo",
        "l"
      ],
      [
        "Ġst",
        "ill"
      ],
      [
        "n",
        "ing"
      ],
      [
        "Ġh",
        "urt"
      ],
      [
        "re",
        "e"
      ],
      [
        "Ġha",
        "s"
      ],
      [
        "ĠH",
        "is"
      ],
      [
        "Ġim",
        "p"
      ],
      [
        "Ġb",
        "oth"
      ],
      [
        "Ġfam",
        "ily"
      ],
      [
        "r",
        "m"
      ],
      [
        "he",
        "s"
      ],
      [
        "Ġpe",
        "ople"
      ],
      [
        "Ġanimal",
        "s"
      ],
      [
        "Ġco",
        "l"
      ],
      [
        "Ġr",
        "ed"
      ],
      [
        "W",
        "hen"
      ],
      [
        "Ġc",
        "u"
      ],
      [
        "ig",
        "h"
      ],
      [
        "Ġbra",
        "ve"
      ],
      [
        "Ġli",
        "ved"
      ],
      [
        "Ġwal",
        "ked"
      ],
      [
        "c",
        "t"
      ],
      [
        "T",
        "im"
      ],
      [
        "urp",
        "r"
      ],
      [
        "o",
        "b"
      ],
      [
        "Ġs",
        "urpr"
      ],
      [
        "ĠW",
        "hen"
      ],
      [
        "Ġtw",
        "o"
      ],
      [
        "Ġb",
        "ad"
      ],
      [
        "Ġl",
        "et"
      ],
      [
        "re",
        "ss"
      ],
      [
        "is",
        "hed"
      ],
      [
        "Ġsh",
        "ould"
      ],
      [
        "Ġ",
        "âĢľ"
      ],
      [
        "Ġf",
        "ore"
      ],
      [
        "i",
        "p"
      ],
      [
        "Ġke",
        "pt"
      ],
      [
        "Ġb",
        "ook"
      ],
      [
        "Ġst",
        "or"
      ],
      [
        "Ġf",
        "in"
      ],
      [
        "a",
        "st"
      ],
      [
        "Ġf",
        "lew"
      ],
      [
        "is",
        "ed"
      ],
      [
        "Ġf",
        "ly"
      ],
      [
        "Ġit",
        "s"
      ],
      [
        "l",
        "ed"
      ],
      [
        "o",
        "ck"
      ],
      [
        "Ġd",
        "an"
      ],
      [
        "Ġcle",
        "an"
      ],
      [
        "Ġp",
        "ic"
      ],
      [
        "uc",
        "y"
      ],
      [
        "f",
        "ore"
      ],
      [
        "Ġgo",
        "ing"
      ],
      [
        "k",
        "ay"
      ],
      [
        "Ġcall",
        "ed"
      ],
      [
        "Ġan",
        "gry"
      ],
      [
        "Ġsh",
        "are"
      ],
      [
        "Ġ",
        "ide"
      ],
      [
        "Ġso",
        "on"
      ],
      [
        "N",
        "o"
      ],
      [
        "Ġc",
        "on"
      ],
      [
        "Ġpret",
        "ty"
      ],
      [
        "Ġro",
        "ck"
      ],
      [
        "i",
        "ed"
      ],
      [
        "il",
        "ly"
      ],
      [
        "x",
        "t"
      ],
      [
        "Ġg",
        "round"
      ],
      [
        "Ġexpl",
        "ore"
      ],
      [
        "s",
        "o"
      ],
      [
        "Ġw",
        "ind"
      ],
      [
        "b",
        "e"
      ],
      [
        "Ġre",
        "al"
      ],
      [
        "L",
        "et"
      ],
      [
        "Ġst",
        "o"
      ],
      [
        "Ġc",
        "ry"
      ],
      [
        "Ġad",
        "vent"
      ],
      [
        "Ġdo",
        "ll"
      ],
      [
        "Ġal",
        "so"
      ],
      [
        "Ġide",
        "a"
      ],
      [
        "Ġop",
        "ened"
      ],
      [
        "Ġsh",
        "iny"
      ],
      [
        "o",
        "y"
      ],
      [
        "Ġbe",
        "fore"
      ],
      [
        "Ġe",
        "y"
      ],
      [
        "dd",
        "ed"
      ],
      [
        "um",
        "my"
      ],
      [
        "Ġfeel",
        "ing"
      ],
      [
        "Ġwh",
        "ile"
      ],
      [
        "Ġn",
        "ow"
      ],
      [
        "Ġdo",
        "or"
      ],
      [
        "Ġke",
        "ep"
      ],
      [
        "le",
        "s"
      ],
      [
        "o",
        "on"
      ],
      [
        "Ġwal",
        "king"
      ],
      [
        "Ġno",
        "ise"
      ],
      [
        "Ġf",
        "r"
      ],
      [
        "Ġt",
        "urn"
      ],
      [
        "ag",
        "e"
      ],
      [
        "Ġcol",
        "or"
      ],
      [
        "i",
        "ous"
      ],
      [
        "Ġb",
        "ed"
      ],
      [
        "t",
        "hing"
      ],
      [
        "u",
        "ch"
      ],
      [
        "f",
        "f"
      ],
      [
        "t",
        "h"
      ],
      [
        "Ġd",
        "ra"
      ],
      [
        "Ġf",
        "ar"
      ],
      [
        "Ġpick",
        "ed"
      ],
      [
        "ar",
        "y"
      ],
      [
        "im",
        "b"
      ],
      [
        "t",
        "ure"
      ],
      [
        "Ġd",
        "el"
      ],
      [
        "Ġbe",
        "ing"
      ],
      [
        "a",
        "c"
      ],
      [
        "Ġcl",
        "imb"
      ],
      [
        "W",
        "hat"
      ],
      [
        "âĢ",
        "Ļ"
      ],
      [
        "e",
        "et"
      ],
      [
        "Ġu",
        "n"
      ],
      [
        "Ġf",
        "ood"
      ],
      [
        "Ġw",
        "r"
      ],
      [
        "Ġd",
        "if"
      ],
      [
        "Ġadvent",
        "ure"
      ],
      [
        "Ġth",
        "r"
      ],
      [
        "ug",
        "ht"
      ],
      [
        "Ġsmil",
        "e"
      ],
      [
        "Ġbl",
        "ue"
      ],
      [
        "me",
        "mb"
      ],
      [
        "Ġne",
        "xt"
      ],
      [
        "ic",
        "ed"
      ],
      [
        "j",
        "oy"
      ],
      [
        "Ġloo",
        "king"
      ],
      [
        "Ġd",
        "is"
      ],
      [
        "Ġqu",
        "ick"
      ],
      [
        "ĠL",
        "ucy"
      ],
      [
        "bb",
        "it"
      ],
      [
        "Ġ",
        "P"
      ],
      [
        "Ġclo",
        "s"
      ],
      [
        "Ġre",
        "pl"
      ],
      [
        "Ġno",
        "dded"
      ],
      [
        "Ġfore",
        "st"
      ],
      [
        "Ġey",
        "es"
      ],
      [
        "Ġy",
        "ell"
      ],
      [
        "Ġpic",
        "ture"
      ],
      [
        "g",
        "er"
      ],
      [
        "Ġo",
        "wn"
      ],
      [
        "iz",
        "ed"
      ],
      [
        "ĠD",
        "ad"
      ],
      [
        "t",
        "ed"
      ],
      [
        "ĠS",
        "uddenly"
      ],
      [
        "Ġwa",
        "it"
      ],
      [
        "T",
        "hat"
      ],
      [
        "Ġre",
        "memb"
      ],
      [
        "Ġgre",
        "at"
      ],
      [
        "Ġimp",
        "ort"
      ],
      [
        "Ġt",
        "ra"
      ],
      [
        "Ġsto",
        "pped"
      ],
      [
        "S",
        "uddenly"
      ],
      [
        "Th",
        "ank"
      ],
      [
        "Ġv",
        "o"
      ],
      [
        "Ġr",
        "ain"
      ],
      [
        "Ġg",
        "ive"
      ],
      [
        "B",
        "en"
      ],
      [
        "Ġ",
        "G"
      ],
      [
        "Ġen",
        "joy"
      ],
      [
        "Ġa",
        "pp"
      ],
      [
        "Ġne",
        "ar"
      ],
      [
        "Ġimport",
        "ant"
      ],
      [
        "g",
        "an"
      ],
      [
        "Ġquick",
        "ly"
      ],
      [
        "Ġra",
        "bbit"
      ],
      [
        "Ġe",
        "ver"
      ],
      [
        "Ġwor",
        "k"
      ],
      [
        "t",
        "ing"
      ],
      [
        "Ġf",
        "ish"
      ],
      [
        "Ġa",
        "fter"
      ],
      [
        "Ġtr",
        "uck"
      ],
      [
        "bb",
        "ed"
      ],
      [
        "Ġlist",
        "en"
      ],
      [
        "Ġb",
        "re"
      ],
      [
        "Ġth",
        "ink"
      ],
      [
        "Ġbr",
        "o"
      ],
      [
        "Ġrepl",
        "ied"
      ],
      [
        "Ġnot",
        "iced"
      ],
      [
        "Ġm",
        "a"
      ],
      [
        "Ġhand",
        "s"
      ],
      [
        "p",
        "ot"
      ],
      [
        "Ġwal",
        "k"
      ],
      [
        "Ġsl",
        "ide"
      ],
      [
        "k",
        "es"
      ],
      [
        "S",
        "he"
      ],
      [
        "Ġa",
        "c"
      ],
      [
        "Ġshow",
        "ed"
      ],
      [
        "Ġevery",
        "one"
      ],
      [
        "ir",
        "st"
      ],
      [
        "Ġwo",
        "nder"
      ],
      [
        "fe",
        "re"
      ],
      [
        "Ġdif",
        "fere"
      ],
      [
        "S",
        "o"
      ],
      [
        "Ġ",
        "R"
      ],
      [
        "Ġd",
        "e"
      ],
      [
        "Ġto",
        "w"
      ],
      [
        "Ġs",
        "ound"
      ],
      [
        "Ġs",
        "ure"
      ],
      [
        "by",
        "e"
      ],
      [
        "Ġr",
        "ight"
      ],
      [
        "ma",
        "z"
      ],
      [
        "Ġstr",
        "ong"
      ],
      [
        "Ġsh",
        "out"
      ],
      [
        "Ġa",
        "maz"
      ],
      [
        "Ġt",
        "al"
      ],
      [
        "Ġhe",
        "ad"
      ],
      [
        "Ġbe",
        "en"
      ],
      [
        "Ġbec",
        "ame"
      ],
      [
        "Ġme",
        "an"
      ],
      [
        "Ġm",
        "or"
      ],
      [
        "Ġbr",
        "ight"
      ],
      [
        "Ġch",
        "ild"
      ],
      [
        "ay",
        "be"
      ],
      [
        "Ġy",
        "e"
      ],
      [
        "Ġfa",
        "ce"
      ],
      [
        "Ġwat",
        "ched"
      ],
      [
        "Ġw",
        "here"
      ],
      [
        "ĠS",
        "ue"
      ],
      [
        "Ġd",
        "ress"
      ],
      [
        "Ġwat",
        "ch"
      ],
      [
        "ll",
        "ow"
      ],
      [
        "a",
        "ble"
      ],
      [
        "a",
        "ught"
      ],
      [
        "Ġc",
        "ook"
      ],
      [
        "Ġdiffere",
        "nt"
      ],
      [
        "d",
        "ay"
      ],
      [
        "Ġh",
        "igh"
      ],
      [
        "Ġ",
        "N"
      ],
      [
        "n",
        "g"
      ],
      [
        "Ġbo",
        "at"
      ],
      [
        "Ġo",
        "kay"
      ],
      [
        "Ġgood",
        "bye"
      ],
      [
        "an",
        "ge"
      ],
      [
        "ĠB",
        "ob"
      ],
      [
        "Ġs",
        "qu"
      ],
      [
        "Ġu",
        "s"
      ],
      [
        "Ġst",
        "ore"
      ],
      [
        "Ġvo",
        "ice"
      ],
      [
        "Ġn",
        "ight"
      ],
      [
        "Ġclos",
        "er"
      ],
      [
        "J",
        "o"
      ],
      [
        "at",
        "h"
      ],
      [
        "le",
        "ase"
      ],
      [
        "Ġa",
        "r"
      ],
      [
        "Ġpl",
        "ace"
      ],
      [
        "ĠMom",
        "my"
      ],
      [
        "Ġfo",
        "llow"
      ],
      [
        "Ġu",
        "se"
      ],
      [
        "Ġp",
        "u"
      ],
      [
        "le",
        "ep"
      ],
      [
        "Ġfa",
        "v"
      ],
      [
        "Ġflow",
        "ers"
      ],
      [
        "Ġb",
        "us"
      ],
      [
        "ir",
        "ed"
      ],
      [
        "is",
        "y"
      ],
      [
        "un",
        "ny"
      ],
      [
        "Ġcu",
        "ri"
      ],
      [
        "Ġgra",
        "bbed"
      ],
      [
        "Ġst",
        "ick"
      ],
      [
        "Ġc",
        "r"
      ],
      [
        "ĠJo",
        "hn"
      ],
      [
        "Ġfor",
        "g"
      ],
      [
        "ĠS",
        "pot"
      ],
      [
        "Ġm",
        "ag"
      ],
      [
        "W",
        "e"
      ],
      [
        "Ġc",
        "ake"
      ],
      [
        "Ġwa",
        "rm"
      ],
      [
        "Ġjump",
        "ed"
      ],
      [
        "m",
        "ore"
      ],
      [
        "Ġany",
        "more"
      ],
      [
        "Ġbut",
        "ter"
      ],
      [
        "ĠSara",
        "h"
      ],
      [
        "A",
        "fter"
      ],
      [
        "Ġas",
        "k"
      ],
      [
        "Ġt",
        "ell"
      ],
      [
        "Ġcuri",
        "ous"
      ],
      [
        "ou",
        "nt"
      ],
      [
        "Ġfe",
        "ll"
      ],
      [
        "Ġth",
        "ree"
      ],
      [
        "l",
        "ie"
      ],
      [
        "Ġ",
        "our"
      ],
      [
        "a",
        "ched"
      ],
      [
        "c",
        "o"
      ],
      [
        "or",
        "n"
      ],
      [
        "nd",
        "ma"
      ],
      [
        "as",
        "s"
      ],
      [
        "ĠT",
        "h"
      ],
      [
        "Ġbird",
        "s"
      ],
      [
        "Ġcon",
        "t"
      ],
      [
        "H",
        "er"
      ],
      [
        "ĠJ",
        "ane"
      ],
      [
        "Ġbl",
        "ock"
      ],
      [
        "Ġf",
        "irst"
      ],
      [
        "Ġhelp",
        "ed"
      ],
      [
        "is",
        "s"
      ],
      [
        "Ġp",
        "ull"
      ],
      [
        "Ġh",
        "at"
      ],
      [
        "Ġyell",
        "ow"
      ],
      [
        "Ġh",
        "op"
      ],
      [
        "il",
        "a"
      ],
      [
        "Ġr",
        "u"
      ],
      [
        "Ġb",
        "it"
      ],
      [
        "it",
        "c"
      ],
      [
        "Ġm",
        "on"
      ],
      [
        "S",
        "ara"
      ],
      [
        "ĠEvery",
        "one"
      ],
      [
        "Ġk",
        "id"
      ],
      [
        "L",
        "ook"
      ],
      [
        "Ġreal",
        "ized"
      ],
      [
        "Ġd",
        "r"
      ],
      [
        "Ġ",
        "z"
      ],
      [
        "pp",
        "y"
      ],
      [
        "A",
        "nna"
      ],
      [
        "Ġbr",
        "other"
      ],
      [
        "Ġst",
        "op"
      ],
      [
        "z",
        "y"
      ],
      [
        "Ġdo",
        "es"
      ],
      [
        "Ġp",
        "er"
      ],
      [
        "Ġat",
        "e"
      ],
      [
        "Ġhapp",
        "ened"
      ],
      [
        "Ġgre",
        "en"
      ],
      [
        "im",
        "es"
      ],
      [
        "Ġsw",
        "eet"
      ],
      [
        "Ġfav",
        "or"
      ],
      [
        "Ġk",
        "itc"
      ],
      [
        "Ġkitc",
        "hen"
      ],
      [
        "Ġre",
        "ally"
      ],
      [
        "Ġgra",
        "ss"
      ],
      [
        "Ġfavor",
        "ite"
      ],
      [
        "Ġy",
        "ummy"
      ],
      [
        "ĠA",
        "s"
      ],
      [
        "Ġbe",
        "gan"
      ],
      [
        "Ġre",
        "st"
      ],
      [
        "Ġp",
        "ain"
      ],
      [
        "Ġle",
        "a"
      ],
      [
        "Ġre",
        "ached"
      ],
      [
        "a",
        "ir"
      ],
      [
        "Ġre",
        "ady"
      ],
      [
        "Ġunder",
        "st"
      ],
      [
        "Ġfl",
        "o"
      ],
      [
        "'",
        "re"
      ],
      [
        "Ġs",
        "ing"
      ],
      [
        "Ġhe",
        "re"
      ],
      [
        "Ġsa",
        "nd"
      ],
      [
        "Ġstor",
        "y"
      ],
      [
        "Ġa",
        "m"
      ],
      [
        "Ġwor",
        "ld"
      ],
      [
        "st",
        "er"
      ],
      [
        "Ġt",
        "ri"
      ],
      [
        "Ġon",
        "ly"
      ],
      [
        "Ġbe",
        "h"
      ],
      [
        "Ġpr",
        "in"
      ],
      [
        "Ġop",
        "en"
      ],
      [
        "Ġgl",
        "ad"
      ],
      [
        "Ġst",
        "e"
      ],
      [
        "Ġb",
        "a"
      ],
      [
        "are",
        "nt"
      ],
      [
        "a",
        "isy"
      ],
      [
        "Ġthr",
        "ough"
      ],
      [
        "w",
        "here"
      ],
      [
        "Ġb",
        "unny"
      ],
      [
        "Ġc",
        "re"
      ],
      [
        "Ġflow",
        "er"
      ],
      [
        "Ġhim",
        "self"
      ],
      [
        "Ġfi",
        "re"
      ],
      [
        "Ġdel",
        "ic"
      ],
      [
        "Ġt",
        "ired"
      ],
      [
        "Ġha",
        "ving"
      ],
      [
        "Ġso",
        "ft"
      ],
      [
        "fu",
        "lly"
      ],
      [
        "Ġm",
        "ess"
      ],
      [
        "Ġp",
        "arent"
      ],
      [
        "Ġbutter",
        "f"
      ],
      [
        "Ġf",
        "ro"
      ],
      [
        "Ġd",
        "one"
      ],
      [
        "Ġth",
        "ing"
      ],
      [
        "ĠL",
        "et"
      ],
      [
        "C",
        "an"
      ],
      [
        "Tim",
        "my"
      ],
      [
        "Ġwh",
        "y"
      ],
      [
        "Mom",
        "my"
      ],
      [
        "Ġc",
        "ut"
      ],
      [
        "o",
        "lly"
      ],
      [
        "k",
        "en"
      ],
      [
        "Ġta",
        "st"
      ],
      [
        "i",
        "ver"
      ],
      [
        "Ġp",
        "art"
      ],
      [
        "Ġd",
        "in"
      ],
      [
        "Ġmag",
        "ic"
      ],
      [
        "Ġwa",
        "ved"
      ],
      [
        "Ġshout",
        "ed"
      ],
      [
        "Ġwor",
        "ry"
      ],
      [
        "Ġd",
        "uck"
      ],
      [
        "u",
        "ff"
      ],
      [
        "Ġg",
        "ame"
      ],
      [
        "Ġkid",
        "s"
      ],
      [
        "Ġse",
        "es"
      ],
      [
        "at",
        "her"
      ],
      [
        "ill",
        "ed"
      ],
      [
        "ed",
        "dy"
      ],
      [
        "at",
        "er"
      ],
      [
        "i",
        "ent"
      ],
      [
        "s",
        "h"
      ],
      [
        "Jo",
        "hn"
      ],
      [
        "Ġpo",
        "nd"
      ],
      [
        "Ġcat",
        "ch"
      ],
      [
        "Ġma",
        "king"
      ],
      [
        "at",
        "ion"
      ],
      [
        "Ġcom",
        "ing"
      ],
      [
        "ak",
        "es"
      ],
      [
        "A",
        "s"
      ],
      [
        "Ġl",
        "ess"
      ],
      [
        "Ġc",
        "ool"
      ],
      [
        "Ġfi",
        "x"
      ],
      [
        "Ġu",
        "sed"
      ],
      [
        "Ġl",
        "ady"
      ],
      [
        "Ġse",
        "en"
      ],
      [
        "Ġho",
        "pped"
      ],
      [
        "Ġd",
        "ark"
      ],
      [
        "Ġthan",
        "k"
      ],
      [
        "\"",
        "."
      ],
      [
        "ĠJo",
        "e"
      ],
      [
        "Ġto",
        "p"
      ],
      [
        "m",
        "er"
      ],
      [
        "Ġsurpr",
        "ise"
      ],
      [
        "Ġha",
        "ir"
      ],
      [
        "ĠC",
        "an"
      ],
      [
        "ar",
        "ing"
      ],
      [
        "Ġdra",
        "w"
      ],
      [
        "Ġl",
        "ight"
      ],
      [
        "Ġf",
        "ull"
      ],
      [
        "Ġp",
        "rom"
      ],
      [
        "Ġc",
        "ra"
      ],
      [
        "Ġm",
        "um"
      ],
      [
        "ig",
        "n"
      ],
      [
        "ap",
        "er"
      ],
      [
        "Ġfun",
        "ny"
      ],
      [
        "Ġto",
        "uch"
      ],
      [
        "in",
        "s"
      ],
      [
        "re",
        "l"
      ],
      [
        "Ġsurpr",
        "ised"
      ],
      [
        "Ġd",
        "ro"
      ],
      [
        "Ġ",
        "-"
      ],
      [
        "Ġsp",
        "ot"
      ],
      [
        "ĠBen",
        "ny"
      ],
      [
        "Ġwor",
        "ked"
      ],
      [
        "ĠD",
        "o"
      ],
      [
        "Ġ",
        "ice"
      ],
      [
        "re",
        "n"
      ],
      [
        "Ġdo",
        "ing"
      ],
      [
        "Ġparent",
        "s"
      ],
      [
        "Ġtre",
        "es"
      ],
      [
        "Ġfro",
        "g"
      ],
      [
        "W",
        "ow"
      ],
      [
        "Ġsw",
        "ing"
      ],
      [
        "in",
        "ally"
      ],
      [
        "D",
        "on"
      ],
      [
        "ĠT",
        "hat"
      ],
      [
        "Ġs",
        "at"
      ],
      [
        "Ġpret",
        "end"
      ],
      [
        "ĠI",
        "n"
      ],
      [
        "one",
        "y"
      ],
      [
        "Ġcare",
        "fully"
      ],
      [
        "Ġre",
        "ad"
      ],
      [
        "Ġw",
        "ood"
      ],
      [
        "Ġt",
        "ight"
      ],
      [
        "Ġsl",
        "ow"
      ],
      [
        "Ġneed",
        "ed"
      ],
      [
        "Ġdelic",
        "ious"
      ],
      [
        "Ġho",
        "le"
      ],
      [
        "Ġm",
        "ouse"
      ],
      [
        "Ġp",
        "us"
      ],
      [
        "h",
        "y"
      ],
      [
        "Ġs",
        "et"
      ],
      [
        "Ġblock",
        "s"
      ],
      [
        "Ġsw",
        "im"
      ],
      [
        "Ġhe",
        "ld"
      ],
      [
        "ard",
        "s"
      ],
      [
        "Ġrememb",
        "ered"
      ],
      [
        "Ġco",
        "ld"
      ],
      [
        "Ġd",
        "ri"
      ],
      [
        "Ġlo",
        "st"
      ],
      [
        "Ġbeh",
        "ind"
      ],
      [
        "el",
        "y"
      ],
      [
        "c",
        "ess"
      ],
      [
        "Ġlook",
        "s"
      ],
      [
        "Ġrun",
        "ning"
      ],
      [
        "Ġher",
        "self"
      ],
      [
        "Ġsm",
        "ell"
      ],
      [
        "s",
        "w"
      ],
      [
        "Ġbutterf",
        "ly"
      ],
      [
        "Ġg",
        "i"
      ],
      [
        "Ġc",
        "ried"
      ],
      [
        "i",
        "ke"
      ],
      [
        "as",
        "k"
      ],
      [
        "Ġper",
        "f"
      ],
      [
        "Ġhapp",
        "ily"
      ],
      [
        "Ġnam",
        "e"
      ],
      [
        "Ġenjoy",
        "ed"
      ],
      [
        "Ġs",
        "leep"
      ],
      [
        "Ġb",
        "ag"
      ],
      [
        "Ġye",
        "ars"
      ],
      [
        "Ġw",
        "ished"
      ],
      [
        "Ġflo",
        "or"
      ],
      [
        "Ġan",
        "other"
      ],
      [
        "Ġar",
        "ri"
      ],
      [
        "Ġbu",
        "y"
      ],
      [
        "Ġwind",
        "ow"
      ],
      [
        "Ġmo",
        "ve"
      ],
      [
        "u",
        "l"
      ],
      [
        "Ġa",
        "ir"
      ],
      [
        "Ġt",
        "all"
      ],
      [
        "Ġless",
        "on"
      ],
      [
        "u",
        "ed"
      ],
      [
        "Ġcar",
        "s"
      ],
      [
        "Ġh",
        "ill"
      ],
      [
        "n",
        "er"
      ],
      [
        "Ġsh",
        "o"
      ],
      [
        "s",
        "p"
      ],
      [
        "Ġfin",
        "ished"
      ],
      [
        "Ġchild",
        "ren"
      ],
      [
        "Ġli",
        "kes"
      ],
      [
        "Ġb",
        "ow"
      ],
      [
        "Ġp",
        "aper"
      ],
      [
        "en",
        "s"
      ],
      [
        "and",
        "y"
      ],
      [
        "ĠA",
        "fter"
      ],
      [
        "Ġho",
        "ld"
      ],
      [
        "Ġwr",
        "ong"
      ],
      [
        "re",
        "ed"
      ],
      [
        "S",
        "am"
      ],
      [
        "F",
        "rom"
      ],
      [
        "re",
        "w"
      ],
      [
        "Ġarri",
        "ved"
      ],
      [
        "Ġle",
        "ft"
      ],
      [
        "u",
        "it"
      ],
      [
        "ĠD",
        "aisy"
      ],
      [
        "Ġunderst",
        "and"
      ],
      [
        "Ġclo",
        "se"
      ],
      [
        "Ġhe",
        "ar"
      ],
      [
        "Ġany",
        "thing"
      ],
      [
        "Ġcont",
        "in"
      ],
      [
        "Ġh",
        "un"
      ],
      [
        "Ġg",
        "ent"
      ],
      [
        "at",
        "ter"
      ],
      [
        "l",
        "f"
      ],
      [
        "Ġa",
        "ble"
      ],
      [
        "Ġwa",
        "ll"
      ],
      [
        "ro",
        "ss"
      ],
      [
        "Ġfriend",
        "ly"
      ],
      [
        "as",
        "ure"
      ],
      [
        "a",
        "v"
      ],
      [
        "ĠS",
        "ally"
      ],
      [
        "Ġforg",
        "ot"
      ],
      [
        "H",
        "ell"
      ],
      [
        "Hell",
        "o"
      ],
      [
        "Ġd",
        "ream"
      ],
      [
        "Ġe",
        "l"
      ],
      [
        "Ġd",
        "ir"
      ],
      [
        "Ġg",
        "one"
      ],
      [
        "Ġw",
        "et"
      ],
      [
        "b",
        "o"
      ],
      [
        "on",
        "s"
      ],
      [
        "Ġf",
        "illed"
      ],
      [
        "Ġcre",
        "at"
      ],
      [
        "Ġcook",
        "ies"
      ],
      [
        "Ġdin",
        "ner"
      ],
      [
        "Ġlaug",
        "h"
      ],
      [
        ".",
        "âĢĿ"
      ],
      [
        "ie",
        "ld"
      ],
      [
        "Ġh",
        "ot"
      ],
      [
        "Ġta",
        "ble"
      ],
      [
        "Ġbro",
        "ken"
      ],
      [
        "am",
        "a"
      ],
      [
        "um",
        "b"
      ],
      [
        "Ġel",
        "se"
      ],
      [
        "Ġh",
        "id"
      ],
      [
        "c",
        "ed"
      ],
      [
        "r",
        "ot"
      ],
      [
        "Ġcolor",
        "s"
      ],
      [
        "Ġa",
        "rm"
      ],
      [
        "Ġfollow",
        "ed"
      ],
      [
        "Ġp",
        "ink"
      ],
      [
        "Ġbu",
        "ild"
      ],
      [
        "Ġmom",
        "ent"
      ],
      [
        "e",
        "y"
      ],
      [
        "Ġwonder",
        "ful"
      ],
      [
        "Ġpu",
        "ppy"
      ],
      [
        "ou",
        "p"
      ],
      [
        "Ġm",
        "ar"
      ],
      [
        "Ġy",
        "es"
      ],
      [
        "Ġcontin",
        "ued"
      ],
      [
        "Ġm",
        "ight"
      ],
      [
        "ĠE",
        "m"
      ],
      [
        "Ġfin",
        "ally"
      ],
      [
        "!",
        "âĢĿ"
      ],
      [
        "Ġen",
        "ough"
      ],
      [
        "a",
        "pp"
      ],
      [
        "in",
        "ed"
      ],
      [
        "ir",
        "rel"
      ],
      [
        "Ġperf",
        "ect"
      ],
      [
        "J",
        "ack"
      ],
      [
        "ĠB",
        "illy"
      ],
      [
        "Ġstay",
        "ed"
      ],
      [
        "ĠN",
        "ow"
      ],
      [
        "Ġbook",
        "s"
      ],
      [
        "Ġmor",
        "ning"
      ],
      [
        "Ġc",
        "ream"
      ],
      [
        "Ġc",
        "ast"
      ],
      [
        "Ġj",
        "u"
      ],
      [
        "Ġfa",
        "ir"
      ],
      [
        "Ġdad",
        "dy"
      ],
      [
        "Ġsome",
        "one"
      ],
      [
        "ĠThe",
        "re"
      ],
      [
        "Ġother",
        "s"
      ],
      [
        "Ġag",
        "reed"
      ],
      [
        "Ġtry",
        "ing"
      ],
      [
        "ĠL",
        "ila"
      ],
      [
        "ro",
        "om"
      ],
      [
        "'",
        "ll"
      ],
      [
        "Ġf",
        "all"
      ],
      [
        "ic",
        "y"
      ],
      [
        "Ġget",
        "ting"
      ],
      [
        "Ġc",
        "ount"
      ],
      [
        "Ġmu",
        "s"
      ],
      [
        "Ġgra",
        "ndma"
      ],
      [
        "Ġba",
        "by"
      ],
      [
        "Ġsn",
        "ow"
      ],
      [
        "The",
        "n"
      ],
      [
        "Ġsqu",
        "irrel"
      ],
      [
        "Ġm",
        "other"
      ],
      [
        "o",
        "l"
      ]
    ]
  }
}