{
  "version": "1.0",
  "truncation": null,
  "padding": null,
  "added_tokens": [
    {
      "id": 0,
      "content": "<pad>",
      "single_word": false,
      "lstrip": false,
      "rstrip": false,
      "normalized": false,
      "special": true
    },
    {
      "id": 1,
      "content": "<unk>",
      "single_word": false,
      "lstrip": false,
      "rstrip": false,
      "normalized": false,
      "special": true
    },
    {
      "id": 2,
      "content": "<bos>",
      "single_word": false,
      "lstrip": false,
      "rstrip": false,
      "normalized": false,
      "special": true
    },
    {
      "id": 3,
      "content": "<eos>",
      "single_word": false,
      "lstrip": false,
      "rstrip": false,
      "normalized": false,
      "special": true
    },
    {
      "id": 4,
      "content": "<doc>",
      "single_word": false,
      "lstrip": false,
      "rstrip": false,
      "normalized": false,
      "special": true
    }
  ],
  "normalizer": null,
  "pre_tokenizer": {
    "type": "ByteLevel",
    "add_prefix_space": false,
    "trim_offsets": true,
    "use_regex": true
  },
  "post_processor": null,
  "decoder": {
    "type": "ByteLevel",
    "add_prefix_space": true,
    "trim_offsets": true,
    "use_regex": true
  },
  "model": {
    "type": "BPE",
    "dropout": null,
    "unk_token": "<unk>",
    "continuing_subword_prefix": null,
    "end_of_word_suffix": null,
    "fuse_unk": false,
    "byte_fallback": false,
    "ignore_merges": false,
    "vocab": {
      "<pad>": 0,
      "<unk>": 1,
      "<bos>": 2,
      "<eos>": 3,
      "<doc>": 4,
      "!": 5,
      "\"": 6,
      "#": 7,
      "$": 8,
      "%": 9,
      "&": 10,
      "'": 11,
      "(": 12,
      ")": 13,
      "*": 14,
      "+": 15,
      ",": 16,
      "-": 17,
      ".": 18,
      "/": 19,
      "0": 20,
      "1": 21,
      "2": 22,
      "3": 23,
      "4": 24,
      "5": 25,
      "6": 26,
      "7": 27,
      "8": 28,
      "9": 29,
      ":": 30,
      ";": 31,
      "<": 32,
      "=": 33,
      ">": 34,
      "?": 35,
      "@": 36,
      "A": 37,
      "B": 38,
      "C": 39,
      "D": 40,
      "E": 41,
      "F": 42,
      "G": 43,
      "H": 44,
      "I": 45,
      "J": 46,
      "K": 47,
      "L": 48,
      "M": 49,
      "N": 50,
      "O": 51,
      "P": 52,
      "Q": 53,
      "R": 54,
      "S": 55,
      "T": 56,
      "U": 57,
      "V": 58,
      "W": 59,
      "X": 60,
      "Y": 61,
      "Z": 62,
      "[": 63,
      "\\": 64,
      "]": 65,
      "^": 66,
      "_": 67,
      "`": 68,
      "a": 69,
      "b": 70,
      "c": 71,
      "d": 72,
      "e": 73,
      "f": 74,
      "g": 75,
      "h": 76,
      "i": 77,
      "j": 78,
      "k": 79,
      "l": 80,
      "m": 81,
      "n": 82,
      "o": 83,
      "p": 84,
      "q": 85,
      "r": 86,
      "s": 87,
      "t": 88,
      "u": 89,
      "v": 90,
      "w": 91,
      "x": 92,
      "y": 93,
      "z": 94,
      "{": 95,
      "|": 96,
      "}": 97,
      "~": 98,
      "¡": 99,
      "¢": 100,
      "£": 101,
      "¤": 102,
      "¥": 103,
      "¦": 104,
      "§": 105,
      "¨": 106,
      "©": 107,
      "ª": 108,
      "«": 109,
      "¬": 110,
      "®": 111,
      "¯": 112,
      "°": 113,
      "±": 114,
      "²": 115,
      "³": 116,
      "´": 117,
      "µ": 118,
      "¶": 119,
      "·": 120,
      "¸": 121,
      "¹": 122,
      "º": 123,
      "»": 124,
      "¼": 125,
      "½": 126,
      "¾": 127,
      "¿": 128,
      "À": 129,
      "Á": 130,
      "Â": 131,
      "Ã": 132,
      "Ä": 133,
      "Å": 134,
      "Æ": 135,
      "Ç": 136,
      "È": 137,
      "É": 138,
      "Ê": 139,
      "Ë": 140,
      "Ì": 141,
      "Í": 142,
      "Î": 143,
      "Ï": 144,
      "Ð": 145,
      "Ñ": 146,
      "Ò": 147,
      "Ó": 148,
      "Ô": 149,
      "Õ": 150,
      "Ö": 151,
      "×": 152,
      "Ø": 153,
      "Ù": 154,
      "Ú": 155,
      "Û": 156,
      "Ü": 157,
      "Ý": 158,
      "Þ": 159,
      "ß": 160,
      "à": 161,
      "á": 162,
      "â": 163,
      "ã": 164,
      "ä": 165,
      "å": 166,
      "æ": 167,
      "ç": 168,
      "è": 169,
      "é": 170,
      "ê": 171,
      "ë": 172,
      "ì": 173,
      "í": 174,
      "î": 175,
      "ï": 176,
      "ð": 177,
      "ñ": 178,
      "ò": 179,
      "ó": 180,
      "ô": 181,
      "õ": 182,
      "ö": 183,
      "÷": 184,
      "ø": 185,
      "ù": 186,
      "ú": 187,
      "û": 188,
      "ü": 189,
      "ý": 190,
      "þ": 191,
      "ÿ": 192,
      "Ā": 193,
      "ā": 194,
      "Ă": 195,
      "ă": 196,
      "Ą": 197,
      "ą": 198,
      "Ć": 199,
      "ć": 200,
      "Ĉ": 201,
      "ĉ": 202,
      "Ċ": 203,
      "ċ": 204,
      "Č": 205,
      "č": 206,
      "Ď": 207,
      "ď": 208,
      "Đ": 209,
      "đ": 210,
      "Ē": 211,
      "ē": 212,
      "Ĕ": 213,
      "ĕ": 214,
      "Ė": 215,
      "ė": 216,
      "Ę": 217,
      "ę": 218,
      "Ě": 219,
      "ě": 220,
      "Ĝ": 221,
      "ĝ": 222,
      "Ğ": 223,
      "ğ": 224,
      "Ġ": 225,
      "ġ": 226,
      "Ģ": 227,
      "ģ": 228,
      "Ĥ": 229,
      "ĥ": 230,
      "Ħ": 231,
      "ħ": 232,
      "Ĩ": 233,
      "ĩ": 234,
      "Ī": 235,
      "ī": 236,
      "Ĭ": 237,
      "ĭ": 238,
      "Į": 239,
      "į": 240,
      "İ": 241,
      "ı": 242,
      "Ĳ": 243,
      "ĳ": 244,
      "Ĵ": 245,
      "ĵ": 246,
      "Ķ": 247,
      "ķ": 248,
      "ĸ": 249,
      "Ĺ": 250,
      "ĺ": 251,
      "Ļ": 252,
      "ļ": 253,
      "Ľ": 254,
      "ľ": 255,
      "Ŀ": 256,
      "ŀ": 257,
      "Ł": 258,
      "ł": 259,
      "Ń": 260,
      "he": 261,
      "Ġt": 262,
      "Ġa": 263,
      "Ġs": 264,
      "Ġw": 265,
      "nd": 266,
      "Ġthe": 267,
      "ed": 268,
      "Ġand": 269,
      "Ġto": 270,
      "Ġb": 271,
      "in": 272,
      "Ġh": 273,
      "Ġwa": 274,
      "re": 275,
      "Ġf": 276,
      "it": 277,
      "ou": 278,
      "Ġc": 279,
      "Ġl": 280,
      "Ġhe": 281,
      "Ġd": 282,
      "er": 283,
      "Ġwas": 284,
      "Ġm": 285,
      "Ġp": 286,
      "om": 287,
      "ĠT": 288,
      "Ġo": 289,
      "ay": 290,
      "ar": 291,
      "is": 292,
      "ing": 293,
      "Ġg": 294,
      "il": 295,
      "id": 296,
      "at": 297,
      "en": 298,
      "Ġn": 299,
      "Ġsa": 300,
      "Ġha": 301,
      "ĠS": 302,
      "im": 303,
      "ĠThe": 304,
      "an": 305,
      "or": 306,
      "on": 307,
      "Ġit": 308,
      "Ġth": 309,
      "ll": 310,
      "le": 311,
      "ĠH": 312,
      "Ġher": 313,
      "et": 314,
      "ot": 315,
      "ir": 316,
      "ĠShe": 317,
      "ĠHe": 318,
      "ver": 319,
      "es": 320,
      "Ġin": 321,
      "ut": 322,
      "ow": 323,
      "ck": 324,
      "Ġe": 325,
      "Ġu": 326,
      "ld": 327,
      "ĠThey": 328,
      "oo": 329,
      "ig": 330,
      "Ġy": 331,
      "Ġr": 332,
      "Ġsaid": 333,
      "am": 334,
      "ily": 335,
      "Ġbe": 336,
      "Ġst": 337,
      "ce": 338,
      "Ġshe": 339,
      "ith": 340,
      "Ġ\"": 341,
      "pp": 342,
      "ke": 343,
      "Ġwith": 344,
      "On": 345,
      "ĠI": 346,
      "ve": 347,
      "Lily": 348,
      "Ġon": 349,
      "Ġof": 350,
      "Ġso": 351,
      "Ġhis": 352,
      "ked": 353,
      "ri": 354,
      "nt": 355,
      "very": 356,
      "Ġpl": 357,
      "Ġday": 358,
      "ad": 359,
      "Ġyou": 360,
      "Ġthat": 361,
      "Ġup": 362,
      "Ġhad": 363,
      "st": 364,
      "Ġplay": 365,
      "Ġthey": 366,
      "ĠLily": 367,
      "Ġwe": 368,
      "Ġmom": 369,
      "my": 370,
      "Ġfor": 371,
      "el": 372,
      "ould": 373,
      "un": 374,
      "ĠB": 375,
      "'s": 376,
      "itt": 377,
      "ent": 378,
      "The": 379,
      "Ġhapp": 380,
      "ch": 381,
      "Ġli": 382,
      "Ġwant": 383,
      "out": 384,
      "Ġsh": 385,
      "her": 386,
      "ly": 387,
      "ime": 388,
      "ittle": 389,
      "Ġvery": 390,
      "ound": 391,
      "Ġtime": 392,
      "ome": 393,
      "Ġdo": 394,
      "Ġlittle": 395,
      "Ġthere": 396,
      "all": 397,
      "se": 398,
      "Ġk": 399,
      "Ġwh": 400,
      "end": 401,
      "al": 402,
      "ht": 403,
      "Ġne": 404,
      "Ġre": 405,
      "Ġnot": 406,
      "Ġhappy": 407,
      "ĠM": 408,
      "Ġbig": 409,
      "Ġbut": 410,
      "ack": 411,
      "Ġsm": 412,
      "Ġsaw": 413,
      "ĠIt": 414,
      "Ġas": 415,
      "Ġan": 416,
      "riend": 417,
      "Ġfriend": 418,
      "ra": 419,
      "ry": 420,
      "ide": 421,
      "Ġis": 422,
      "One": 423,
      "ved": 424,
      "'t": 425,
      "Once": 426,
      "ake": 427,
      ".\"": 428,
      "Ġwere": 429,
      "ter": 430,
      "ug": 431,
      "Ġloo": 432,
      "Ġlo": 433,
      "ec": 434,
      "ore": 435,
      "Ġbo": 436,
      "ĠTim": 437,
      "Ġhim": 438,
      "!\"": 439,
      "Ġgo": 440,
      "Ġtoo": 441,
      "Ġupon": 442,
      "irl": 443,
      "Ġj": 444,
      "Ġwanted": 445,
      "Ġse": 446,
      "Ġgirl": 447,
      "Ġout": 448,
      "ard": 449,
      "way": 450,
      "Ġsp": 451,
      "ill": 452,
      "Ġthem": 453,
      "ind": 454,
      "fu": 455,
      "Ġat": 456,
      "Ġcould": 457,
      "hen": 458,
      "ur": 459,
      "Ġdid": 460,
      "ĠA": 461,
      "Ġtheir": 462,
      "Ġare": 463,
      "Ġsmil": 464,
      "Ġex": 465,
      "ain": 466,
      "Ġwent": 467,
      "hed": 468,
      "ic": 469,
      "art": 470,
      "rom": 471,
      "round": 472,
      "Ġhave": 473,
      "lp": 474,
      "Ġnam": 475,
      "ĠJ": 476,
      "Ġall": 477,
      "ful": 478,
      "Ġkn": 479,
      "hing": 480,
      "ood": 481,
      "Ġhelp": 482,
      "ight": 483,
      "Ġfriends": 484,
      "ark": 485,
      "one": 486,
      "um": 487,
      "Ġback": 488,
      "Ġcan": 489,
      "Ġnamed": 490,
      "Ġcl": 491,
      "?\"": 492,
      "Ġfun": 493,
      "ĠBen": 494,
      "are": 495,
      "Ġloved": 496,
      "ĠTimmy": 497,
      "op": 498,
      "Ġal": 499,
      "elt": 500,
      "ĠOne": 501,
      "side": 502,
      "Ġle": 503,
      "Ġno": 504,
      "Ġsc": 505,
      "Ġfelt": 506,
      "oug": 507,
      "ĠTom": 508,
      "Ġsmiled": 509,
      "ick": 510,
      "You": 511,
      "Ġasked": 512,
      "Ġtoy": 513,
      "Ġsay": 514,
      "Ġman": 515,
      "Ġaround": 516,
      "Ġfe": 517,
      "ame": 518,
      "ĠW": 519,
      "Ġsome": 520,
      "Ġboy": 521,
      "Ġlooked": 522,
      "ure": 523,
      "omet": 524,
      "Ġwould": 525,
      "Ġbr": 526,
      "Ġme": 527,
      "Ġbir": 528,
      "Ġlike": 529,
      "Ġro": 530,
      "as": 531,
      "Ġstart": 532,
      "get": 533,
      "Ġsee": 534,
      "ice": 535,
      "ong": 536,
      "Ġbird": 537,
      "Ġsomet": 538,
      "dd": 539,
      "ie": 540,
      "Ġwor": 541,
      "ade": 542,
      "Ġag": 543,
      "own": 544,
      "king": 545,
      "Ġfa": 546,
      "Ġaway": 547,
      "ings": 548,
      "Ġwhat": 549,
      "Ġtre": 550,
      "âĢ": 551,
      "Ġran": 552,
      "Ġstarted": 553,
      "gether": 554,
      "ared": 555,
      "Ġmake": 556,
      "ĠBut": 557,
      "ited": 558,
      "if": 559,
      "oud": 560,
      "Ġmade": 561,
      "Ġtogether": 562,
      "Ġsomething": 563,
      "ag": 564,
      "Ġexc": 565,
      "Ġco": 566,
      "Ġpark": 567,
      "Ġnew": 568,
      "Ġsad": 569,
      ",\"": 570,
      "ell": 571,
      "Ġcar": 572,
      "Ġput": 573,
      "Ġfrom": 574,
      "ble": 575,
      "Ġpr": 576,
      "ther": 577,
      "Ġmu": 578,
      "ĠYou": 579,
      "Ġthen": 580,
      "Ġhome": 581,
      "Ġwhen": 582,
      "Ġagain": 583,
      "Ġother": 584,
      "Ġfound": 585,
      "Ġdec": 586,
      "Ġwho": 587,
      "Ġla": 588,
      "ss": 589,
      "Ġch": 590,
      "ried": 591,
      "ook": 592,
      "Ġhug": 593,
      "ĠL": 594,
      "Ġgood": 595,
      "pped": 596,
      "Ġsays": 597,
      "Ġwal": 598,
      "ally": 599,
      "est": 600,
      "ep": 601,
      "Ġfl": 602,
      "ĠE": 603,
      "pl": 604,
      "qu": 605,
      "Ġget": 606,
      "ach": 607,
      "Ġexcited": 608,
      "ought": 609,
      "Ġplaying": 610,
      "Ġgot": 611,
      "ous": 612,
      "Ġsw": 613,
      "ided": 614,
      "Ġthings": 615,
      "uck": 616,
      "hat": 617,
      "ny": 618,
      "Ġdecided": 619,
      "Ġevery": 620,
      "Ġcame": 621,
      "Ġbec": 622,
      "Ġbl": 623,
      "ave": 624,
      "ax": 625,
      "ro": 626,
      "Ġliked": 627,
      "Ġdown": 628,
      "Ġdog": 629,
      "Ġscared": 630,
      "Ġv": 631,
      "ue": 632,
      "udd": 633,
      "ust": 634,
      "Ġone": 635,
      "Ġfind": 636,
      "ap": 637,
      "Ġdidn": 638,
      "Ġthan": 639,
      "Ġkne": 640,
      "ways": 641,
      "ĠD": 642,
      "ouse": 643,
      "Ġcare": 644,
      "Ġmommy": 645,
      "Ġdad": 646,
      "Ġalways": 647,
      "Ġab": 648,
      "bb": 649,
      "Ġfeel": 650,
      "ara": 651,
      "arn": 652,
      "ist": 653,
      "fe": 654,
      "Ġyour": 655,
      "Ġgra": 656,
      "Ġoutside": 657,
      "ant": 658,
      "ĠMom": 659,
      "Ġke": 660,
      "Ġlot": 661,
      "us": 662,
      "Ġtook": 663,
      "nn": 664,
      "ite": 665,
      "ess": 666,
      "Ġabout": 667,
      "ĠF": 668,
      "nder": 669,
      "Ġtree": 670,
      "Ġlook": 671,
      "eci": 672,
      "Ġmy": 673,
      "our": 674,
      "Ġtoys": 675,
      "Ġpo": 676,
      "ched": 677,
      "Ġthought": 678,
      "ened": 679,
      "Ġknew": 680,
      "Ġball": 681,
      "Ġlearn": 682,
      "Ġint": 683,
      "Ġmore": 684,
      "ise": 685,
      "Ġold": 686,
      "ged": 687,
      "nna": 688,
      "ĠMax": 689,
      "They": 690,
      "Ġta": 691,
      "udden": 692,
      "Ġwill": 693,
      "ers": 694,
      "ecial": 695,
      "Ġspecial": 696,
      "Ġho": 697,
      "ĠSam": 698,
      "Ġpe": 699,
      "ret": 700,
      "Ġtake": 701,
      "Ġknow": 702,
      "Ġlaug": 703,
      "fter": 704,
      "uddenly": 705,
      "au": 706,
      "Ġcat": 707,
      "Ġtr": 708,
      "Ġhow": 709,
      "ive": 710,
      "Ġmuch": 711,
      "Ġany": 712,
      "Ġsor": 713,
      "Ġsl": 714,
      "ma": 715,
      "ven": 716,
      "ish": 717,
      "Ġmo": 718,
      "Ġshow": 719,
      "ink": 720,
      "ause": 721,
      "Ġcouldn": 722,
      "But": 723,
      "ump": 724,
      "ia": 725,
      "Ġhouse": 726,
      "Ġtried": 727,
      "Ġinto": 728,
      "Ġover": 729,
      "Ġclo": 730,
      "Ġsun": 731,
      "Ġsk": 732,
      "and": 733,
      "Ġeat": 734,
      "Ġtw": 735,
      "Ġinside": 736,
      "ĠEvery": 737,
      "dy": 738,
      "Ġrun": 739,
      "Ġhand": 740,
      "Ġen": 741,
      "Ġif": 742,
      "Ġqu": 743,
      "Ġtold": 744,
      "Ġgre": 745,
      "Ġproud": 746,
      "Ġnever": 747,
      "ion": 748,
      "Ġbecause": 749,
      "Ġsorry": 750,
      "by": 751,
      "Ġop": 752,
      "Ġgave": 753,
      "Ġbox": 754,
      "Ġor": 755,
      "Ġplayed": 756,
      "ate": 757,
      "Ġthis": 758,
      "Ġexpl": 759,
      "Ġheard": 760,
      "ank": 761,
      "ty": 762,
      "Ġroom": 763,
      "ge": 764,
      "Ġwater": 765,
      "other": 766,
      "Ġra": 767,
      "Ġpick": 768,
      "etter": 769,
      "Ġjust": 770,
      "Ġhugged": 771,
      "ak": 772,
      "here": 773,
      "Ġoff": 774,
      "Ġpret": 775,
      "Ġeach": 776,
      "ĠSara": 777,
      "sed": 778,
      "Ġbu": 779,
      "Ġlong": 780,
      "Ġcom": 781,
      "ile": 782,
      "ort": 783,
      "Ġbear": 784,
      "Ġunt": 785,
      "ĠWe": 786,
      "Ġstr": 787,
      "ine": 788,
      "Ġneed": 789,
      "iz": 790,
      "Ġwat": 791,
      "oth": 792,
      "Tom": 793,
      "Ġjo": 794,
      "Ġuntil": 795,
      "Mom": 796,
      "Ġsmall": 797,
      "Ġnice": 798,
      "Ġtry": 799,
      "uc": 800,
      "ving": 801,
      "sel": 802,
      "ough": 803,
      "Ġlearned": 804,
      "ild": 805,
      "ĠAnna": 806,
      "Ġkind": 807,
      "Ġmany": 808,
      "Ġbetter": 809,
      "'m": 810,
      "Ġfo": 811,
      "gry": 812,
      "Ġim": 813,
      "ĠJack": 814,
      "ft": 815,
      "Ġend": 816,
      "urt": 817,
      "Ġsn": 818,
      "imal": 819,
      "Ġanimal": 820,
      "ull": 821,
      "aut": 822,
      "Ġcle": 823,
      "Ġte": 824,
      "ĠJo": 825,
      "vent": 826,
      "urp": 827,
      "Ġgr": 828,
      "ream": 829,
      "Ġche": 830,
      "Ġbeaut": 831,
      "mb": 832,
      "Ġjump": 833,
      "Ġad": 834,
      "ĠHer": 835,
      "ies": 836,
      "pt": 837,
      "Ġbra": 838,
      "Ġeven": 839,
      "Ġbest": 840,
      "ĠSo": 841,
      "Ġflow": 842,
      "Ġthanked": 843,
      "Ġcall": 844,
      "Ġlots": 845,
      "ady": 846,
      "He": 847,
      "Ġlaughed": 848,
      "ace": 849,
      "urn": 850,
      "self": 851,
      "Ġby": 852,
      "lly": 853,
      "ars": 854,
      "Ġway": 855,
      "Ġfast": 856,
      "Ġfam": 857,
      "ĠC": 858,
      "ves": 859,
      "arden": 860,
      "Ġgarden": 861,
      "Ġbeauti": 862,
      "wn": 863,
      "Ġbeautiful": 864,
      "Th": 865,
      "Ġloud": 866,
      "Ġsky": 867,
      "hn": 868,
      "Ġdon": 869,
      "lew": 870,
      "ered": 871,
      "Ġcareful": 872,
      "Ġlove": 873,
      "âĢĿ": 874,
      "Ġfi": 875,
      "Ġsafe": 876,
      "âĢľ": 877,
      "iny": 878,
      "ĠThen": 879,
      "ect": 880,
      "ase": 881,
      "Ġcome": 882,
      "ĠMia": 883,
      "ĠAnd": 884,
      "Yes": 885,
      "ĠFrom": 886,
      "Ġhard": 887,
      "Ġwo": 888,
      "Ġunder": 889,
      "me": 890,
      "ane": 891,
      "It": 892,
      "Ġstay": 893,
      "ople": 894,
      "Ġlist": 895,
      "Ġgl": 896,
      "ool": 897,
      "Ġstill": 898,
      "ning": 899,
      "Ġhurt": 900,
      "ree": 901,
      "Ġhas": 902,
      "ĠHis": 903,
      "Ġimp": 904,
      "Ġboth": 905,
      "Ġfamily": 906,
      "rm": 907,
      "hes": 908,
      "Ġpeople": 909,
      "Ġanimals": 910,
      "Ġcol": 911,
      "Ġred": 912,
      "When": 913,
      "Ġcu": 914,
      "igh": 915,
      "Ġbrave": 916,
      "Ġlived": 917,
      "Ġwalked": 918,
      "ct": 919,
      "Tim": 920,
      "urpr": 921,
      "ob": 922,
      "Ġsurpr": 923,
      "ĠWhen": 924,
      "Ġtwo": 925,
      "Ġbad": 926,
      "Ġlet": 927,
      "ress": 928,
      "ished": 929,
      "Ġshould": 930,
      "ĠâĢľ": 931,
      "Ġfore": 932,
      "ip": 933,
      "Ġkept": 934,
      "Ġbook": 935,
      "Ġstor": 936,
      "Ġfin": 937,
      "ast": 938,
      "Ġflew": 939,
      "ised": 940,
      "Ġfly": 941,
      "Ġits": 942,
      "led": 943,
      "ock": 944,
      "Ġdan": 945,
      "Ġclean": 946,
      "Ġpic": 947,
      "ucy": 948,
      "fore": 949,
      "Ġgoing": 950,
      "kay": 951,
      "Ġcalled": 952,
      "Ġangry": 953,
      "Ġshare": 954,
      "Ġide": 955,
      "Ġsoon": 956,
      "No": 957,
      "Ġcon": 958,
      "Ġpretty": 959,
      "Ġrock": 960,
      "ied": 961,
      "illy": 962,
      "xt": 963,
      "Ġground": 964,
      "Ġexplore": 965,
      "so": 966,
      "Ġwind": 967,
      "be": 968,
      "Ġreal": 969,
      "Let": 970,
      "Ġsto": 971,
      "Ġcry": 972,
      "Ġadvent": 973,
      "Ġdoll": 974,
      "Ġalso": 975,
      "Ġidea": 976,
      "Ġopened": 977,
      "Ġshiny": 978,
      "oy": 979,
      "Ġbefore": 980,
      "Ġey": 981,
      "dded": 982,
      "ummy": 983,
      "Ġfeeling": 984,
      "Ġwhile": 985,
      "Ġnow": 986,
      "Ġdoor": 987,
      "Ġkeep": 988,
      "les": 989,
      "oon": 990,
      "Ġwalking": 991,
      "Ġnoise": 992,
      "Ġfr": 993,
      "Ġturn": 994,
      "age": 995,
      "Ġcolor": 996,
      "ious": 997,
      "Ġbed": 998,
      "thing": 999,
      "uch": 1000,
      "ff": 1001,
      "th": 1002,
      "Ġdra": 1003,
      "Ġfar": 1004,
      "Ġpicked": 1005,
      "ary": 1006,
      "imb": 1007,
      "ture": 1008,
      "Ġdel": 1009,
      "Ġbeing": 1010,
      "ac": 1011,
      "Ġclimb": 1012,
      "What": 1013,
      "âĢĻ": 1014,
      "eet": 1015,
      "Ġun": 1016,
      "Ġfood": 1017,
      "Ġwr": 1018,
      "Ġdif": 1019,
      "Ġadventure": 1020,
      "Ġthr": 1021,
      "ught": 1022,
      "Ġsmile": 1023,
      "Ġblue": 1024,
      "memb": 1025,
      "Ġnext": 1026,
      "iced": 1027,
      "joy": 1028,
      "Ġlooking": 1029,
      "Ġdis": 1030,
      "Ġquick": 1031,
      "ĠLucy": 1032,
      "bbit": 1033,
      "ĠP": 1034,
      "Ġclos": 1035,
      "Ġrepl": 1036,
      "Ġnodded": 1037,
      "Ġforest": 1038,
      "Ġeyes": 1039,
      "Ġyell": 1040,
      "Ġpicture": 1041,
      "ger": 1042,
      "Ġown": 1043,
      "ized": 1044,
      "ĠDad": 1045,
      "ted": 1046,
      "ĠSuddenly": 1047,
      "Ġwait": 1048,
      "That": 1049,
      "Ġrememb": 1050,
      "Ġgreat": 1051,
      "Ġimport": 1052,
      "Ġtra": 1053,
      "Ġstopped": 1054,
      "Suddenly": 1055,
      "Thank": 1056,
      "Ġvo": 1057,
      "Ġrain": 1058,
      "Ġgive": 1059,
      "Ben": 1060,
      "ĠG": 1061,
      "Ġenjoy": 1062,
      "Ġapp": 1063,
      "Ġnear": 1064,
      "Ġimportant": 1065,
      "gan": 1066,
      "Ġquickly": 1067,
      "Ġrabbit": 1068,
      "Ġever": 1069,
      "Ġwork": 1070,
      "ting": 1071,
      "Ġfish": 1072,
      "Ġafter": 1073,
      "Ġtruck": 1074,
      "bbed": 1075,
      "Ġlisten": 1076,
      "Ġbre": 1077,
      "Ġthink": 1078,
      "Ġbro": 1079,
      "Ġreplied": 1080,
      "Ġnoticed": 1081,
      "Ġma": 1082,
      "Ġhands": 1083,
      "pot": 1084,
      "Ġwalk": 1085,
      "Ġslide": 1086,
      "kes": 1087,
      "She": 1088,
      "Ġac": 1089,
      "Ġshowed": 1090,
      "Ġeveryone": 1091,
      "irst": 1092,
      "Ġwonder": 1093,
      "fere": 1094,
      "Ġdiffere": 1095,
      "So": 1096,
      "ĠR": 1097,
      "Ġde": 1098,
      "Ġtow": 1099,
      "Ġsound": 1100,
      "Ġsure": 1101,
      "bye": 1102,
      "Ġright": 1103,
      "maz": 1104,
      "Ġstrong": 1105,
      "Ġshout": 1106,
      "Ġamaz": 1107,
      "Ġtal": 1108,
      "Ġhead": 1109,
      "Ġbeen": 1110,
      "Ġbecame": 1111,
      "Ġmean": 1112,
      "Ġmor": 1113,
      "Ġbright": 1114,
      "Ġchild": 1115,
      "aybe": 1116,
      "Ġye": 1117,
      "Ġface": 1118,
      "Ġwatched": 1119,
      "Ġwhere": 1120,
      "ĠSue": 1121,
      "Ġdress": 1122,
      "Ġwatch": 1123,
      "llow": 1124,
      "able": 1125,
      "aught": 1126,
      "Ġcook": 1127,
      "Ġdifferent": 1128,
      "day": 1129,
      "Ġhigh": 1130,
      "ĠN": 1131,
      "ng": 1132,
      "Ġboat": 1133,
      "Ġokay": 1134,
      "Ġgoodbye": 1135,
      "ange": 1136,
      "ĠBob": 1137,
      "Ġsqu": 1138,
      "Ġus": 1139,
      "Ġstore": 1140,
      "Ġvoice": 1141,
      "Ġnight": 1142,
      "Ġcloser": 1143,
      "Jo": 1144,
      "ath": 1145,
      "lease": 1146,
      "Ġar": 1147,
      "Ġplace": 1148,
      "ĠMommy": 1149,
      "Ġfollow": 1150,
      "Ġuse": 1151,
      "Ġpu": 1152,
      "leep": 1153,
      "Ġfav": 1154,
      "Ġflowers": 1155,
      "Ġbus": 1156,
      "ired": 1157,
      "isy": 1158,
      "unny": 1159,
      "Ġcuri": 1160,
      "Ġgrabbed": 1161,
      "Ġstick": 1162,
      "Ġcr": 1163,
      "ĠJohn": 1164,
      "Ġforg": 1165,
      "ĠSpot": 1166,
      "Ġmag": 1167,
      "We": 1168,
      "Ġcake": 1169,
      "Ġwarm": 1170,
      "Ġjumped": 1171,
      "more": 1172,
      "Ġanymore": 1173,
      "Ġbutter": 1174,
      "ĠSarah": 1175,
      "After": 1176,
      "Ġask": 1177,
      "Ġtell": 1178,
      "Ġcurious": 1179,
      "ount": 1180,
      "Ġfell": 1181,
      "Ġthree": 1182,
      "lie": 1183,
      "Ġour": 1184,
      "ached": 1185,
      "co": 1186,
      "orn": 1187,
      "ndma": 1188,
      "ass": 1189,
      "ĠTh": 1190,
      "Ġbirds": 1191,
      "Ġcont": 1192,
      "Her": 1193,
      "ĠJane": 1194,
      "Ġblock": 1195,
      "Ġfirst": 1196,
      "Ġhelped": 1197,
      "iss": 1198,
      "Ġpull": 1199,
      "Ġhat": 1200,
      "Ġyellow": 1201,
      "Ġhop": 1202,
      "ila": 1203,
      "Ġru": 1204,
      "Ġbit": 1205,
      "itc": 1206,
      "Ġmon": 1207,
      "Sara": 1208,
      "ĠEveryone": 1209,
      "Ġkid": 1210,
      "Look": 1211,
      "Ġrealized": 1212,
      "Ġdr": 1213,
      "Ġz": 1214,
      "ppy": 1215,
      "Anna": 1216,
      "Ġbrother": 1217,
      "Ġstop": 1218,
      "zy": 1219,
      "Ġdoes": 1220,
      "Ġper": 1221,
      "Ġate": 1222,
      "Ġhappened": 1223,
      "Ġgreen": 1224,
      "imes": 1225,
      "Ġsweet": 1226,
      "Ġfavor": 1227,
      "Ġkitc": 1228,
      "Ġkitchen": 1229,
      "Ġreally": 1230,
      "Ġgrass": 1231,
      "Ġfavorite": 1232,
      "Ġyummy": 1233,
      "ĠAs": 1234,
      "Ġbegan": 1235,
      "Ġrest": 1236,
      "Ġpain": 1237,
      "Ġlea": 1238,
      "Ġreached": 1239,
      "air": 1240,
      "Ġready": 1241,
      "Ġunderst": 1242,
      "Ġflo": 1243,
      "'re": 1244,
      "Ġsing": 1245,
      "Ġhere": 1246,
      "Ġsand": 1247,
      "Ġstory": 1248,
      "Ġam": 1249,
      "Ġworld": 1250,
      "ster": 1251,
      "Ġtri": 1252,
      "Ġonly": 1253,
      "Ġbeh": 1254,
      "Ġprin": 1255,
      "Ġopen": 1256,
      "Ġglad": 1257,
      "Ġste": 1258,
      "Ġba": 1259,
      "arent": 1260,
      "aisy": 1261,
      "Ġthrough": 1262,
      "where": 1263,
      "Ġbunny": 1264,
      "Ġcre": 1265,
      "Ġflower": 1266,
      "Ġhimself": 1267,
      "Ġfire": 1268,
      "Ġdelic": 1269,
      "Ġtired": 1270,
      "Ġhaving": 1271,
      "Ġsoft": 1272,
      "fully": 1273,
      "Ġmess": 1274,
      "Ġparent": 1275,
      "Ġbutterf": 1276,
      "Ġfro": 1277,
      "Ġdone": 1278,
      "Ġthing": 1279,
      "ĠLet": 1280,
      "Can": 1281,
      "Timmy": 1282,
      "Ġwhy": 1283,
      "Mommy": 1284,
      "Ġcut": 1285,
      "olly": 1286,
      "ken": 1287,
      "Ġtast": 1288,
      "iver": 1289,
      "Ġpart": 1290,
      "Ġdin": 1291,
      "Ġmagic": 1292,
      "Ġwaved": 1293,
      "Ġshouted": 1294,
      "Ġworry": 1295,
      "Ġduck": 1296,
      "uff": 1297,
      "Ġgame": 1298,
      "Ġkids": 1299,
      "Ġsees": 1300,
      "ather": 1301,
      "illed": 1302,
      "eddy": 1303,
      "ater": 1304,
      "ient": 1305,
      "sh": 1306,
      "John": 1307,
      "Ġpond": 1308,
      "Ġcatch": 1309,
      "Ġmaking": 1310,
      "ation": 1311,
      "Ġcoming": 1312,
      "akes": 1313,
      "As": 1314,
      "Ġless": 1315,
      "Ġcool": 1316,
      "Ġfix": 1317,
      "Ġused": 1318,
      "Ġlady": 1319,
      "Ġseen": 1320,
      "Ġhopped": 1321,
      "Ġdark": 1322,
      "Ġthank": 1323,
      "\".": 1324,
      "ĠJoe": 1325,
      "Ġtop": 1326,
      "mer": 1327,
      "Ġsurprise": 1328,
      "Ġhair": 1329,
      "ĠCan": 1330,
      "aring": 1331,
      "Ġdraw": 1332,
      "Ġlight": 1333,
      "Ġfull": 1334,
      "Ġprom": 1335,
      "Ġcra": 1336,
      "Ġmum": 1337,
      "ign": 1338,
      "aper": 1339,
      "Ġfunny": 1340,
      "Ġtouch": 1341,
      "ins": 1342,
      "rel": 1343,
      "Ġsurprised": 1344,
      "Ġdro": 1345,
      "Ġ-": 1346,
      "Ġspot": 1347,
      "ĠBenny": 1348,
      "Ġworked": 1349,
      "ĠDo": 1350,
      "Ġice": 1351,
      "ren": 1352,
      "Ġdoing": 1353,
      "Ġparents": 1354,
      "Ġtrees": 1355,
      "Ġfrog": 1356,
      "Wow": 1357,
      "Ġswing": 1358,
      "inally": 1359,
      "Don": 1360,
      "ĠThat": 1361,
      "Ġsat": 1362,
      "Ġpretend": 1363,
      "ĠIn": 1364,
      "oney": 1365,
      "Ġcarefully": 1366,
      "Ġread": 1367,
      "Ġwood": 1368,
      "Ġtight": 1369,
      "Ġslow": 1370,
      "Ġneeded": 1371,
      "Ġdelicious": 1372,
      "Ġhole": 1373,
      "Ġmouse": 1374,
      "Ġpus": 1375,
      "hy": 1376,
      "Ġset": 1377,
      "Ġblocks": 1378,
      "Ġswim": 1379,
      "Ġheld": 1380,
      "ards": 1381,
      "Ġremembered": 1382,
      "Ġcold": 1383,
      "Ġdri": 1384,
      "Ġlost": 1385,
      "Ġbehind": 1386,
      "ely": 1387,
      "cess": 1388,
      "Ġlooks": 1389,
      "Ġrunning": 1390,
      "Ġherself": 1391,
      "Ġsmell": 1392,
      "sw": 1393,
      "Ġbutterfly": 1394,
      "Ġgi": 1395,
      "Ġcried": 1396,
      "ike": 1397,
      "ask": 1398,
      "Ġperf": 1399,
      "Ġhappily": 1400,
      "Ġname": 1401,
      "Ġenjoyed": 1402,
      "Ġsleep": 1403,
      "Ġbag": 1404,
      "Ġyears": 1405,
      "Ġwished": 1406,
      "Ġfloor": 1407,
      "Ġanother": 1408,
      "Ġarri": 1409,
      "Ġbuy": 1410,
      "Ġwindow": 1411,
      "Ġmove": 1412,
      "ul": 1413,
      "Ġair": 1414,
      "Ġtall": 1415,
      "Ġlesson": 1416,
      "ued": 1417,
      "Ġcars": 1418,
      "Ġhill": 1419,
      "ner": 1420,
      "Ġsho": 1421,
      "sp": 1422,
      "Ġfinished": 1423,
      "Ġchildren": 1424,
      "Ġlikes": 1425,
      "Ġbow": 1426,
      "Ġpaper": 1427,
      "ens": 1428,
      "andy": 1429,
      "ĠAfter": 1430,
      "Ġhold": 1431,
      "Ġwrong": 1432,
      "reed": 1433,
      "Sam": 1434,
      "From": 1435,
      "rew": 1436,
      "Ġarrived": 1437,
      "Ġleft": 1438,
      "uit": 1439,
      "ĠDaisy": 1440,
      "Ġunderstand": 1441,
      "Ġclose": 1442,
      "Ġhear": 1443,
      "Ġanything": 1444,
      "Ġcontin": 1445,
      "Ġhun": 1446,
      "Ġgent": 1447,
      "atter": 1448,
      "lf": 1449,
      "Ġable": 1450,
      "Ġwall": 1451,
      "ross": 1452,
      "Ġfriendly": 1453,
      "asure": 1454,
      "av": 1455,
      "ĠSally": 1456,
      "Ġforgot": 1457,
      "Hell": 1458,
      "Hello": 1459,
      "Ġdream": 1460,
      "Ġel": 1461,
      "Ġdir": 1462,
      "Ġgone": 1463,
      "Ġwet": 1464,
      "bo": 1465,
      "ons": 1466,
      "Ġfilled": 1467,
      "Ġcreat": 1468,
      "Ġcookies": 1469,
      "Ġdinner": 1470,
      "Ġlaugh": 1471,
      ".âĢĿ": 1472,
      "ield": 1473,
      "Ġhot": 1474,
      "Ġtable": 1475,
      "Ġbroken": 1476,
      "ama": 1477,
      "umb": 1478,
      "Ġelse": 1479,
      "Ġhid": 1480,
      "ced": 1481,
      "rot": 1482,
      "Ġcolors": 1483,
      "Ġarm": 1484,
      "Ġfollowed": 1485,
      "Ġpink": 1486,
      "Ġbuild": 1487,
      "Ġmoment": 1488,
      "ey": 1489,
      "Ġwonderful": 1490,
      "Ġpuppy": 1491,
      "oup": 1492,
      "Ġmar": 1493,
      "Ġyes": 1494,
      "Ġcontinued": 1495,
      "Ġmight": 1496,
      "ĠEm": 1497,
      "Ġfinally": 1498,
      "!âĢĿ": 1499,
      "Ġenough": 1500,
      "app": 1501,
      "ined": 1502,
      "irrel": 1503,
      "Ġperfect": 1504,
      "Jack": 1505,
      "ĠBilly": 1506,
      "Ġstayed": 1507,
      "ĠNow": 1508,
      "Ġbooks": 1509,
      "Ġmorning": 1510,
      "Ġcream": 1511,
      "Ġcast": 1512,
      "Ġju": 1513,
      "Ġfair": 1514,
      "Ġdaddy": 1515,
      "Ġsomeone": 1516,
      "ĠThere": 1517,
      "Ġothers": 1518,
      "Ġagreed": 1519,
      "Ġtrying": 1520,
      "ĠLila": 1521,
      "room": 1522,
      "'ll": 1523,
      "Ġfall": 1524,
      "icy": 1525,
      "Ġgetting": 1526,
      "Ġcount": 1527,
      "Ġmus": 1528,
      "Ġgrandma": 1529,
      "Ġbaby": 1530,
      "Ġsnow": 1531,
      "Then": 1532,
      "Ġsquirrel": 1533,
      "Ġmother": 1534,
      "ol": 1535,
      "Ġleaves": 1536,
      "Ġfew": 1537,
      "At": 1538,
      "ash": 1539,
      "ho": 1540,
      "ries": 1541,
      "Ġbreak": 1542,
      "ĠThis": 1543,
      "Ġvis": 1544,
      "Ġbug": 1545,
      "Ġclimbed": 1546,
      "ance": 1547,
      "ated": 1548,
      "Ġbrought": 1549,
      "Ġbeach": 1550,
      "Ġplease": 1551,
      "Ġmet": 1552,
      "Ġdeep": 1553,
      "ĠTommy": 1554,
      "ling": 1555,
      "ich": 1556,
      "Ġsometimes": 1557,
      "oom": 1558,
      "key": 1559,
      "Ġeverything": 1560,
      "This": 1561,
      "lc": 1562,
      "Ġfight": 1563,
      "Ġmusic": 1564,
      "Ġtrain": 1565,
      "os": 1566,
      "Ġlion": 1567,
      "Ġturned": 1568,
      "Ġhungry": 1569,
      "Ġwasn": 1570,
      "ds": 1571,
      "Ġsong": 1572,
      "Ġpictures": 1573,
      "oring": 1574,
      "Ġride": 1575,
      "gon": 1576,
      "Ġmakes": 1577,
      "Ġjoy": 1578,
      "zz": 1579,
      "Ġclot": 1580,
      "Ġpol": 1581,
      "ee": 1582,
      "Ġlistened": 1583,
      "Ġsear": 1584,
      "Ġclothes": 1585,
      "His": 1586,
      "Ġspark": 1587,
      "ĠWhat": 1588,
      "Ġsail": 1589,
      "ucky": 1590,
      "bble": 1591,
      "Ġpoin": 1592,
      "Ġgrow": 1593,
      "apped": 1594,
      "enny": 1595,
      "Ġcomp": 1596,
      "Ġteddy": 1597,
      "Ġwants": 1598,
      "Ġflying": 1599,
      "man": 1600,
      "Ġplan": 1601,
      "Ġstrange": 1602,
      "Ġscary": 1603,
      "row": 1604,
      "swer": 1605,
      "ope": 1606,
      "Ġamazed": 1607,
      "Ġwaited": 1608,
      "Ġele": 1609,
      "Ġamazing": 1610,
      "Ġpat": 1611,
      "Ġtreat": 1612,
      "OK": 1613,
      "ĠK": 1614,
      "Ġfur": 1615,
      "Ġballoon": 1616,
      "med": 1617,
      "Ġleave": 1618,
      "ister": 1619,
      "Ġdanger": 1620,
      "Ġpi": 1621,
      "Ġsuch": 1622,
      "Ġpie": 1623,
      "Ġowner": 1624,
      "Ġcastle": 1625,
      "hone": 1626,
      "Ġspl": 1627,
      "Ġwhite": 1628,
      "Oh": 1629,
      "Ġtalk": 1630,
      "red": 1631,
      "uffy": 1632,
      "Ġpromised": 1633,
      "cle": 1634,
      "ever": 1635,
      "Ġshared": 1636,
      "Ġwoods": 1637,
      "ĠMaybe": 1638,
      "ĠTo": 1639,
      "Ġnap": 1640,
      "Ġpulled": 1641,
      "Ġpre": 1642,
      "Ġvisit": 1643,
      "Ġsit": 1644,
      "ugg": 1645,
      "ang": 1646,
      "Ġcolorful": 1647,
      "thy": 1648,
      "Ġmagical": 1649,
      "ott": 1650,
      "ctor": 1651,
      "igg": 1652,
      "ĠAmy": 1653,
      "Ġriver": 1654,
      "Ġbelie": 1655,
      "Ġalone": 1656,
      "Ġtowards": 1657,
      "ually": 1658,
      "ence": 1659,
      "Ġgu": 1660,
      "Ġgrate": 1661,
      "Ġsmiles": 1662,
      "Ġtail": 1663,
      "amp": 1664,
      "ased": 1665,
      "ower": 1666,
      "Ġhide": 1667,
      "Ġside": 1668,
      "Ġhig": 1669,
      "Ġpaint": 1670,
      "Ġsilly": 1671,
      "Ġpro": 1672,
      "Ġgrateful": 1673,
      "up": 1674,
      "ained": 1675,
      "Ġland": 1676,
      "Ġmoral": 1677,
      "Max": 1678,
      "eter": 1679,
      "Ġpa": 1680,
      "Ġroll": 1681,
      "Ġslowly": 1682,
      "ĠJim": 1683,
      "set": 1684,
      "Ġshap": 1685,
      "avy": 1686,
      "Ġsec": 1687,
      "Ġfield": 1688,
      "Ġkite": 1689,
      "Ġsnack": 1690,
      "Ġmonster": 1691,
      "Ġsister": 1692,
      "Ġpet": 1693,
      "Ġmin": 1694,
      "Ġtreasure": 1695,
      "Ġjob": 1696,
      "Ġfaster": 1697,
      "Ġhelping": 1698,
      "Ġworried": 1699,
      "Ġqui": 1700,
      "ear": 1701,
      "Ġmust": 1702,
      "Ġparty": 1703,
      "orm": 1704,
      "Ġremember": 1705,
      "Ġmoney": 1706,
      "wl": 1707,
      "Ġmost": 1708,
      "Ġliving": 1709,
      "less": 1710,
      "Ġwear": 1711,
      "Ġacc": 1712,
      "em": 1713,
      "ĠGra": 1714,
      "der": 1715,
      "ze": 1716,
      "ire": 1717,
      "Ġpot": 1718,
      "Ġfox": 1719,
      "ipped": 1720,
      "Ġsign": 1721,
      "Ġcandy": 1722,
      "Ġprincess": 1723,
      "Ġquiet": 1724,
      "ident": 1725,
      "unch": 1726,
      "outh": 1727,
      "Ġlake": 1728,
      "Ġcarrot": 1729,
      "Ġcup": 1730,
      "Ġbel": 1731,
      "Ġeverywhere": 1732,
      "Ġhigher": 1733,
      "Ġcloud": 1734,
      "Ġblank": 1735,
      "asket": 1736,
      "Ġruns": 1737,
      "Ġstepped": 1738,
      "Ġmouth": 1739,
      "ames": 1740,
      "Ġbigger": 1741,
      "ĠAll": 1742,
      "Ġblanket": 1743,
      "Ġtown": 1744,
      "Ġbasket": 1745,
      "anc": 1746,
      "ĠMolly": 1747,
      "Ġjoin": 1748,
      "Ġclosed": 1749,
      "Ġbuck": 1750,
      "Ġscream": 1751,
      "Ġcoll": 1752,
      "ises": 1753,
      "Ġbroke": 1754,
      "ose": 1755,
      "Ġdangerous": 1756,
      "Ġdolls": 1757,
      "ord": 1758,
      "Ġplant": 1759,
      "Ġwelc": 1760,
      "eared": 1761,
      "Ġreach": 1762,
      "Ġdance": 1763,
      "ĠDaddy": 1764,
      "Ġwon": 1765,
      "Ġteac": 1766,
      "Ġheavy": 1767,
      "Ġwouldn": 1768,
      "Ġbott": 1769,
      "Ġchair": 1770,
      "Ġasks": 1771,
      "ph": 1772,
      "ĠMr": 1773,
      "Okay": 1774,
      "br": 1775,
      "Ġce": 1776,
      "Ġstre": 1777,
      "gs": 1778,
      "cket": 1779,
      "Ġthinks": 1780,
      "fort": 1781,
      "eces": 1782,
      "Ġpieces": 1783,
      "Ġeating": 1784,
      "Ġpack": 1785,
      "Ġrace": 1786,
      "de": 1787,
      "Ġdisapp": 1788,
      "Ġacross": 1789,
      "Ġbike": 1790,
      "Hi": 1791,
      "Ġfruit": 1792,
      "Ġbelieve": 1793,
      "ming": 1794,
      "iting": 1795,
      "Ġve": 1796,
      "Ġfarmer": 1797,
      "Ġstuck": 1798,
      "Ġneigh": 1799,
      "Ġcrying": 1800,
      "Ġsuddenly": 1801,
      "phant": 1802,
      "Ġsoup": 1803,
      "Ġbar": 1804,
      "Ġthrew": 1805,
      "Ġneighb": 1806,
      "Sure": 1807,
      "Ġgif": 1808,
      "Ġdirty": 1809,
      "ored": 1810,
      "Ġaccident": 1811,
      "ventually": 1812,
      "Ġmonkey": 1813,
      "Ġelephant": 1814,
      "ier": 1815,
      "ead": 1816,
      "Ġheal": 1817,
      "pping": 1818,
      "Ġwin": 1819,
      "Ġsame": 1820,
      "Ġrem": 1821,
      "Ġteacher": 1822,
      "Ġpers": 1823,
      "Ġinst": 1824,
      "Ġdragon": 1825,
      "Ġben": 1826,
      "Ġspr": 1827,
      "Maybe": 1828,
      "ible": 1829,
      "Ġbrown": 1830,
      "Ġgentle": 1831,
      "Ġfree": 1832,
      "Ġwords": 1833,
      "Ġupset": 1834,
      "Ġbucket": 1835,
      "chool": 1836,
      "Ġcheered": 1837,
      "Ġlonger": 1838,
      "Finally": 1839,
      "cked": 1840,
      "Ġbee": 1841,
      "Ġblack": 1842,
      "ĠFl": 1843,
      "Ġbite": 1844,
      "Ġhit": 1845,
      "Ġmark": 1846,
      "Ġdoctor": 1847,
      "Ġpiece": 1848,
      "ment": 1849,
      "Ġwell": 1850,
      "Ġclapped": 1851,
      "Ġalong": 1852,
      "Mia": 1853,
      "Why": 1854,
      "Ġcaught": 1855,
      "ix": 1856,
      "Ġsang": 1857,
      "Ġyoung": 1858,
      "Ġbowl": 1859,
      "Ġbutt": 1860,
      "Ġplac": 1861,
      "Ġschool": 1862,
      "Ġyard": 1863,
      "Ġsea": 1864,
      "Ġexplained": 1865,
      "Ġcour": 1866,
      "ese": 1867,
      "ĠJill": 1868,
      "Ġdropped": 1869,
      "bby": 1870,
      "sy": 1871,
      "Ġstories": 1872,
      "Ġbring": 1873,
      "Ġbath": 1874,
      "Ġswings": 1875,
      "ourn": 1876,
      "weet": 1877,
      "Ġheart": 1878,
      "?âĢĿ": 1879,
      "Ġwings": 1880,
      "Ġstu": 1881,
      "Ġsmart": 1882,
      "Ġdrink": 1883,
      "Ġjuice": 1884,
      "Ġdry": 1885,
      "Ġpen": 1886,
      "ber": 1887,
      "Ġmine": 1888,
      "Ġforget": 1889,
      "Ġjourn": 1890,
      "Ġdrove": 1891,
      "Ġnearby": 1892,
      "Ġcourse": 1893,
      "aughter": 1894,
      "Ġsecret": 1895,
      "Ġwelcome": 1896,
      "ung": 1897,
      "Ġyear": 1898,
      "Ġes": 1899,
      "Ġtoday": 1900,
      "Ġwithout": 1901,
      "ĠEmma": 1902,
      "Ġstreet": 1903,
      "Ġhappen": 1904,
      "Ġcray": 1905,
      "Ġpushed": 1906,
      "Ġjar": 1907,
      "Ġexp": 1908,
      "Ġcheese": 1909,
      "Ġturns": 1910,
      "Ġsinging": 1911,
      "Ġgames": 1912,
      "ract": 1913,
      "Ġtiny": 1914,
      "Ġant": 1915,
      "vel": 1916,
      "Ġsmo": 1917,
      "Ġpocket": 1918,
      "to": 1919,
      "Ġatt": 1920,
      "Ġfairy": 1921,
      "Ġhoped": 1922,
      "orrow": 1923,
      "Ġresp": 1924,
      "Ġspoon": 1925,
      "ĠFinally": 1926,
      "Ġwoke": 1927,
      "ail": 1928,
      "Ġcow": 1929,
      "Ġlon": 1930,
      "itting": 1931,
      "Ġhugs": 1932,
      "Ġtwins": 1933,
      "issed": 1934,
      "Ġtrou": 1935,
      "Ġsuc": 1936,
      "Ġinv": 1937,
      "yard": 1938,
      "Ġfit": 1939,
      "Ġstand": 1940,
      "Ġnoises": 1941,
      "Ġexploring": 1942,
      "Ġdisco": 1943,
      "Ġrocks": 1944,
      "ountain": 1945,
      "ek": 1946,
      "Ġlunch": 1947,
      "Ġdaughter": 1948,
      "vered": 1949,
      "Ġseemed": 1950,
      "Ġlonely": 1951,
      "Ġje": 1952,
      "Ġapple": 1953,
      "llo": 1954,
      "Ġtower": 1955,
      "Ġbackyard": 1956,
      "Ġshook": 1957,
      "bow": 1958,
      "read": 1959,
      "Ġmiss": 1960,
      "oun": 1961,
      "Ġcir": 1962,
      "Ġsu": 1963,
      "fused": 1964,
      "Ġswam": 1965,
      "Ġwish": 1966,
      "Ġkey": 1967,
      "Ġ3": 1968,
      "Ġstars": 1969,
      "Ġbush": 1970,
      "Ġthough": 1971,
      "Ġshapes": 1972,
      "Ġpar": 1973,
      "Ġmoved": 1974,
      "Ġthrow": 1975,
      "Ġshoes": 1976,
      "bs": 1977,
      "ape": 1978,
      "ts": 1979,
      "Ġrelie": 1980,
      "ĠMama": 1981,
      "Ġbench": 1982,
      "Ġtaking": 1983,
      "And": 1984,
      "ity": 1985,
      "ittens": 1986,
      "Ġadventures": 1987,
      "Ġwise": 1988,
      "ocked": 1989,
      "Ġowl": 1990,
      "ĠSammy": 1991,
      "shine": 1992,
      "Ġshell": 1993,
      "Ġbubble": 1994,
      "Ġwhe": 1995,
      "Ġneck": 1996,
      "Ġlate": 1997,
      "Ġwhist": 1998,
      "ours": 1999,
      "Ġfence": 2000,
      "ush": 2001,
      "Ġorange": 2002,
      "pper": 2003,
      "Ġcute": 2004,
      "unt": 2005,
      "ining": 2006,
      "Ġspin": 2007,
      "Ġcreature": 2008,
      "Ġaccidentally": 2009,
      "Ġcorn": 2010,
      "ĠFluffy": 2011,
      "ward": 2012,
      "ten": 2013,
      "urple": 2014,
      "Ġmat": 2015,
      "ilk": 2016,
      "Ġlift": 2017,
      "Ġrainbow": 2018,
      "Ġphone": 2019,
      "Ġstar": 2020,
      "ions": 2021,
      "ĠWho": 2022,
      "Lila": 2023,
      "Ġsitting": 2024,
      "Ġdist": 2025,
      "Ġonto": 2026,
      "Ġarms": 2027,
      "Ġaf": 2028,
      "idge": 2029,
      "Ġsunshine": 2030,
      "Ġhello": 2031,
      "Ġdriver": 2032,
      "fish": 2033,
      "gged": 2034,
      "Ġnest": 2035,
      "Ġnaught": 2036,
      "Ġnaughty": 2037,
      "lla": 2038,
      "ĠAn": 2039,
      "Ġinstead": 2040,
      "Ġbought": 2041,
      "Ġcomes": 2042,
      "Ġpop": 2043,
      "Ġwondered": 2044,
      "Ġeas": 2045,
      "Ġlaughing": 2046,
      "Ġmix": 2047,
      "Later": 2048,
      "ale": 2049,
      "Ġboun": 2050,
      "Ġmilk": 2051,
      "Ġcozy": 2052,
      "Ġsearched": 2053,
      "eth": 2054,
      "Ġcho": 2055,
      "Ġcave": 2056,
      "ors": 2057,
      "Ġcarry": 2058,
      "uched": 2059,
      "Ġtouched": 2060,
      "Ġpurple": 2061,
      "Ġinc": 2062,
      "adow": 2063,
      "Ġtalked": 2064,
      "Ġpig": 2065,
      "ĠTweet": 2066,
      "Ġsunny": 2067,
      "Ġsounds": 2068,
      "ĠInside": 2069,
      "Ġapples": 2070,
      "og": 2071,
      "Ġpast": 2072,
      "Ġnumb": 2073,
      "itty": 2074,
      "Ġshop": 2075,
      "Ġfeels": 2076,
      "Ġbusy": 2077,
      "ness": 2078,
      "Ġfarm": 2079,
      "Ġact": 2080,
      "Ġtom": 2081,
      "let": 2082,
      "Ġnose": 2083,
      "Ġjourney": 2084,
      "Ġcou": 2085,
      "Ġlucky": 2086,
      "Ġcoat": 2087,
      "Ġpatient": 2088,
      "Ġrelieved": 2089,
      "Ġsick": 2090,
      "Ġnothing": 2091,
      "raid": 2092,
      "Ġrope": 2093,
      "ĠGrandma": 2094,
      "Ġbelong": 2095,
      "Ġafraid": 2096,
      "Ġswimming": 2097,
      "Ġzoom": 2098,
      "Ġwom": 2099,
      "ator": 2100,
      "Ġret": 2101,
      "Ġwoman": 2102,
      "ball": 2103,
      "Ġmad": 2104,
      "Ġpeace": 2105,
      "Ġdanced": 2106,
      "Ġwar": 2107,
      "ider": 2108,
      "blem": 2109,
      "Ġhuge": 2110,
      "Ġwatching": 2111,
      "ĠThank": 2112,
      "Ġproblem": 2113,
      "Bob": 2114,
      "ĠO": 2115,
      "Ġpudd": 2116,
      "Ġband": 2117,
      "Ġknee": 2118,
      "ĠSoon": 2119,
      "Do": 2120,
      "Ġexciting": 2121,
      "Ġforever": 2122,
      "Ġminut": 2123,
      "Ġdays": 2124,
      "thday": 2125,
      "ped": 2126,
      "Ġgigg": 2127,
      "Ġrel": 2128,
      "Ġasleep": 2129,
      "Ġvill": 2130,
      "cer": 2131,
      "Ġfing": 2132,
      "Ġlife": 2133,
      "Ġcollect": 2134,
      "Ġreturn": 2135,
      "Ġclever": 2136,
      "Ġking": 2137,
      "ĠJen": 2138,
      "ces": 2139,
      "Ġpower": 2140,
      "amed": 2141,
      "Ġorgan": 2142,
      "Ġhealthy": 2143,
      "Ġwra": 2144,
      "irt": 2145,
      "Ġround": 2146,
      "ĠMary": 2147,
      "Ġmeet": 2148,
      "Ġholding": 2149,
      "Of": 2150,
      "Ġgather": 2151,
      "mp": 2152,
      "arp": 2153,
      "alm": 2154,
      "Ġprot": 2155,
      "Ġsharp": 2156,
      "ere": 2157,
      "Ġsaf": 2158,
      "ĠMittens": 2159,
      "Ġspotted": 2160,
      "Ġprotect": 2161,
      "Ġrep": 2162,
      "Ġbirthday": 2163,
      "Ġpres": 2164,
      "ĠAnswer": 2165,
      "Ġpill": 2166,
      "itch": 2167,
      "Ġstorm": 2168,
      "Ġear": 2169,
      "Ġtakes": 2170,
      "Ġbottle": 2171,
      "Every": 2172,
      "ĠWith": 2173,
      "anch": 2174,
      "itten": 2175,
      "Ġmail": 2176,
      "cing": 2177,
      "Ġbranch": 2178,
      "ular": 2179,
      "Ġcheer": 2180,
      "Ġneighbor": 2181,
      "Hey": 2182,
      "Ġgently": 2183,
      "Ġpointed": 2184,
      "Ġgift": 2185,
      "Ġperson": 2186,
      "Ġplaces": 2187,
      "Ġpass": 2188,
      "sting": 2189,
      "Ġcomfort": 2190,
      "Ġhope": 2191,
      "ĠJimmy": 2192,
      "owed": 2193,
      "Ġtasty": 2194,
      "hin": 2195,
      "sc": 2196,
      "Ġsmiling": 2197,
      "col": 2198,
      "Ġrespect": 2199,
      "Ġshining": 2200,
      "Ġappeared": 2201,
      "Ġblew": 2202,
      "Ġash": 2203,
      "Ġadm": 2204,
      "Ġtasted": 2205,
      "Ġsmelled": 2206,
      "nic": 2207,
      "Ġent": 2208,
      "Ġwearing": 2209,
      "Ġkick": 2210,
      "board": 2211,
      "Ġspo": 2212,
      "Ġletter": 2213,
      "ert": 2214,
      "Ġpicnic": 2215,
      "Ġrec": 2216,
      "Ġspider": 2217,
      "epend": 2218,
      "ĠCome": 2219,
      "Ġtrouble": 2220,
      "Ġmatter": 2221,
      "Molly": 2222,
      "Ġmist": 2223,
      "Ġtightly": 2224,
      "Ġpresent": 2225,
      "ove": 2226,
      "Ġwide": 2227,
      "Ġeag": 2228,
      "Ġintere": 2229,
      "ize": 2230,
      "Ġpract": 2231,
      "Ġsupp": 2232,
      "Ġsur": 2233,
      "Ġplane": 2234,
      "Ġspread": 2235,
      "Ġfeather": 2236,
      "Tommy": 2237,
      "la": 2238,
      "ones": 2239,
      "Ġanyone": 2240,
      "Ġtrip": 2241,
      "arge": 2242,
      "Ġkiss": 2243,
      "aur": 2244,
      "gg": 2245,
      "Ġquest": 2246,
      "Ġbread": 2247,
      "Ġpuzz": 2248,
      "ond": 2249,
      "ont": 2250,
      "Ġseat": 2251,
      "Ġwhole": 2252,
      "Ġroad": 2253,
      "Ġgiant": 2254,
      "Ġdes": 2255,
      "Ġpath": 2256,
      "lex": 2257,
      "Ġhoney": 2258,
      "Ġlater": 2259,
      "Ġloves": 2260,
      "Ġconfused": 2261,
      "Ġcookie": 2262,
      "In": 2263,
      "Ġlay": 2264,
      "ella": 2265,
      "Ġsnake": 2266,
      "ĠGo": 2267,
      "Ġscreamed": 2268,
      "Ġfront": 2269,
      "Ġsplas": 2270,
      "Ġimpress": 2271,
      "ork": 2272,
      "Ġteach": 2273,
      "Ġbark": 2274,
      "Ġbutton": 2275,
      "ndp": 2276,
      "erly": 2277,
      "ĠCh": 2278,
      "Ġclouds": 2279,
      "Ġca": 2280,
      "Ġoce": 2281,
      "Ġocean": 2282,
      "eb": 2283,
      "Ġap": 2284,
      "Ġanswer": 2285,
      "Ġhor": 2286,
      "ungle": 2287,
      "Ġdi": 2288,
      "ssed": 2289,
      "Ġser": 2290,
      "Ġwhich": 2291,
      "Ġjungle": 2292,
      "Ġlarge": 2293,
      "oose": 2294,
      "els": 2295,
      "Ġlive": 2296,
      "Ġmyster": 2297,
      "ub": 2298,
      "Ġban": 2299,
      "Ġeventually": 2300,
      "Ġchased": 2301,
      "hile": 2302,
      "Come": 2303,
      "Good": 2304,
      "Ġshelf": 2305,
      "unk": 2306,
      "Ġimag": 2307,
      "ĠEmily": 2308,
      "Ġcrayons": 2309,
      "Ġvillage": 2310,
      "ĠJenny": 2311,
      "Ġdecor": 2312,
      "Ġwrite": 2313,
      "Ġdirt": 2314,
      "ĠJake": 2315,
      "Ġpromise": 2316,
      "Ġgives": 2317,
      "Just": 2318,
      "Lucy": 2319,
      "Ġber": 2320,
      "Ġtool": 2321,
      "Ġlast": 2322,
      "Ġtid": 2323,
      "Ġwild": 2324,
      "lebr": 2325,
      "Ġtalking": 2326,
      "Ġspent": 2327,
      "Ġputs": 2328,
      "Ġslid": 2329,
      "ĠEverywhere": 2330,
      "Ġsandw": 2331,
      "Ġcelebr": 2332,
      "Ġwave": 2333,
      "Ġsol": 2334,
      "Ġshy": 2335,
      "Ġfoot": 2336,
      "Ġthin": 2337,
      "Jim": 2338,
      "Mum": 2339,
      "ndpa": 2340,
      "Ġoven": 2341,
      "Ġgoes": 2342,
      "Ġval": 2343,
      "ina": 2344,
      "Ġfeet": 2345,
      "Ġtaste": 2346,
      "Ġbuilding": 2347,
      "Ġsnowman": 2348,
      "Ġinteresting": 2349,
      "Ġcart": 2350,
      "Ġhelpful": 2351,
      "Ġrude": 2352,
      "Ġsearch": 2353,
      "Ġashamed": 2354,
      "een": 2355,
      "ipe": 2356,
      "cks": 2357,
      "Ġspe": 2358,
      "Ġdelight": 2359,
      "Ġwaiting": 2360,
      "Ġhiding": 2361,
      "Ġwhistle": 2362,
      "Ġhon": 2363,
      "ife": 2364,
      "Ġtreats": 2365,
      "Ġmot": 2366,
      "Ġnet": 2367,
      "Ġstood": 2368,
      "Ġjumping": 2369,
      "Ġlovely": 2370,
      "Ġpretended": 2371,
      "Ġbanan": 2372,
      "ony": 2373,
      "Ġemb": 2374,
      "Ġshr": 2375,
      "Ġworm": 2376,
      "Ġob": 2377,
      "ĠSt": 2378,
      "Ġstep": 2379,
      "Ġprince": 2380,
      "Ġbugs": 2381,
      "Ġtidy": 2382,
      "old": 2383,
      "Ġwash": 2384,
      "Ġpile": 2385,
      "Ġcross": 2386,
      "Ġcalm": 2387,
      "umpy": 2388,
      "Soon": 2389,
      "not": 2390,
      "Ġmach": 2391,
      "Ġblow": 2392,
      "Ġforgive": 2393,
      "Ġzoo": 2394,
      "Ġbell": 2395,
      "Ġteeth": 2396,
      "Ġfurry": 2397,
      "Ġsuccess": 2398,
      "lice": 2399,
      "Ġsel": 2400,
      "Ġbat": 2401,
      "Ġmind": 2402,
      "Ġducks": 2403,
      "Ġcorner": 2404,
      "Ġremind": 2405,
      "Ġpuddle": 2406,
      "Ġcannot": 2407,
      "Ġrolled": 2408,
      "Ġign": 2409,
      "iger": 2410,
      "Ġshirt": 2411,
      "Ġembar": 2412,
      "Mama": 2413,
      "Ġmed": 2414,
      "Ġstret": 2415,
      "Ġship": 2416,
      "Ġsug": 2417,
      "ener": 2418,
      "Ġgrab": 2419,
      "Ġembarra": 2420,
      "Ġlad": 2421,
      "Ġstra": 2422,
      "Ġsharing": 2423,
      "Ġfold": 2424,
      "Ġmountain": 2425,
      "isa": 2426,
      "ighed": 2427,
      "Ġmessy": 2428,
      "Ġsparkly": 2429,
      "Ġpillow": 2430,
      "cy": 2431,
      "Ġcoo": 2432,
      "Ġspray": 2433,
      "ĠSome": 2434,
      "Ġpeaceful": 2435,
      "St": 2436,
      "vous": 2437,
      "Ġhel": 2438,
      "Ġdolp": 2439,
      "als": 2440,
      "ometimes": 2441,
      "Ġfaces": 2442,
      "Ġtries": 2443,
      "Ġstir": 2444,
      "Ġselfish": 2445,
      "Ġsugar": 2446,
      "Ġhum": 2447,
      "Ġple": 2448,
      "Ġpour": 2449,
      "Ġpool": 2450,
      "Ġhar": 2451,
      "Now": 2452,
      "ned": 2453,
      "Ġhours": 2454,
      "Ġvan": 2455,
      "Ġpush": 2456,
      "Ġcreative": 2457,
      "Ġfighting": 2458,
      "Ġtomorrow": 2459,
      "Ġminutes": 2460,
      "aking": 2461,
      "Ġwore": 2462,
      "llie": 2463,
      "Ġgold": 2464,
      "Ġwhenever": 2465,
      "Ġchick": 2466,
      "Ġladder": 2467,
      "oin": 2468,
      "Ġtun": 2469,
      "Ġspicy": 2470,
      "Ġfixed": 2471,
      "ult": 2472,
      "Ġhorse": 2473,
      "Ġfig": 2474,
      "Ġgener": 2475,
      "Ġrob": 2476,
      "Ġbreath": 2477,
      "Ġpan": 2478,
      "Ġchew": 2479,
      "Ġ'": 2480,
      "ĠHow": 2481,
      "Ġclass": 2482,
      "Sarah": 2483,
      "Ġchocol": 2484,
      "ital": 2485,
      "Ġmissed": 2486,
      "ĠPlease": 2487,
      "Ġdrive": 2488,
      "Please": 2489,
      "ĠJust": 2490,
      "Ġembarrassed": 2491,
      "My": 2492,
      "Ġhosp": 2493,
      "Ġbarked": 2494,
      "Ġhospital": 2495,
      "gly": 2496,
      "Ġner": 2497,
      "Ġugly": 2498,
      "ĠLe": 2499,
      "Ġtea": 2500,
      "ĠRe": 2501,
      "ian": 2502,
      "Ġeasy": 2503,
      "Ġcouch": 2504,
      "Ġmeant": 2505,
      "Ġmeadow": 2506,
      "Ġcolour": 2507,
      "Ġbedroom": 2508,
      "Ġdisappoin": 2509,
      "Ġsal": 2510,
      "Ġknowing": 2511,
      "Ġmud": 2512,
      "Ġmov": 2513,
      "Ġunderstood": 2514,
      "Ġmachine": 2515,
      "Ġnervous": 2516,
      "Ġbal": 2517,
      "work": 2518,
      "Ġtaught": 2519,
      "Ġcarrots": 2520,
      "Ġhur": 2521,
      "Ġcard": 2522,
      "Ġpas": 2523,
      "ano": 2524,
      "Ġreg": 2525,
      "Ġgrew": 2526,
      "Ġlanded": 2527,
      "Ġrobot": 2528,
      "Ġpassed": 2529,
      "mo": 2530,
      "Ġoften": 2531,
      "Ġknocked": 2532,
      "Ġtrust": 2533,
      "Ġfear": 2534,
      "elly": 2535,
      "Ġthankful": 2536,
      "Ġdeter": 2537,
      "isp": 2538,
      "Ġleaf": 2539,
      "Ġreturned": 2540,
      "Ġdeterm": 2541,
      "Dad": 2542,
      "Ġcoin": 2543,
      "Ġmoon": 2544,
      "To": 2545,
      "ĠOn": 2546,
      "ato": 2547,
      "Ġstuff": 2548,
      "ĠAnn": 2549,
      "obby": 2550,
      "Ġnut": 2551,
      "ĠBr": 2552,
      "Ġdisappointed": 2553,
      "ground": 2554,
      "Ġfanc": 2555,
      "Ġhears": 2556,
      "Ġwolf": 2557,
      "Be": 2558,
      "Ġmic": 2559,
      "Ġpir": 2560,
      "Ġring": 2561,
      "Ġfinish": 2562,
      "Ġcirc": 2563,
      "Ġbubbles": 2564,
      "ory": 2565,
      "ird": 2566,
      "Ġansw": 2567,
      "ustr": 2568,
      "izz": 2569,
      "Ġgenerous": 2570,
      "ĠEven": 2571,
      "Ġglass": 2572,
      "Ġsmooth": 2573,
      "dle": 2574,
      "Ġfake": 2575,
      "Ġseed": 2576,
      "Ġchest": 2577,
      "Ġmotor": 2578,
      "Ġchocolate": 2579,
      "Ġdrum": 2580,
      "ecially": 2581,
      "Ġsongs": 2582,
      "pack": 2583,
      "urse": 2584,
      "Ġcarried": 2585,
      "osaur": 2586,
      "Ġpaw": 2587,
      "Ġsnacks": 2588,
      "Ġthese": 2589,
      "Ġforward": 2590,
      "Ġwhisp": 2591,
      "Ġclown": 2592,
      "Ġscar": 2593,
      "izzy": 2594,
      "Ġsleepy": 2595,
      "ĠTogether": 2596,
      "Ġfancy": 2597,
      "pecially": 2598,
      "Ġkitten": 2599,
      "Ġstring": 2600,
      "Ġespecially": 2601,
      "Ġav": 2602,
      "Ġgas": 2603,
      "Ġrad": 2604,
      "Ġspend": 2605,
      "Ġfrustr": 2606,
      "Ġdinosaur": 2607,
      "Ġsplash": 2608,
      "Ġneckl": 2609,
      "Ġtwirl": 2610,
      "Ġgathered": 2611,
      "Ġhonest": 2612,
      "ĠBe": 2613,
      "Ġgroup": 2614,
      "Ġcraw": 2615,
      "ying": 2616,
      "Ġwaves": 2617,
      "ĠMark": 2618,
      "Ġbridge": 2619,
      "Ġfinger": 2620,
      "Ġmysterious": 2621,
      "port": 2622,
      "Ġsour": 2623,
      "Ġmir": 2624,
      "Ġgrumpy": 2625,
      "Ġcrab": 2626,
      "ĠWhy": 2627,
      "Ġglue": 2628,
      "most": 2629,
      "Ġshore": 2630,
      "ĠKitty": 2631,
      "sist": 2632,
      "Ġcand": 2633,
      "Ġmap": 2634,
      "Ġok": 2635,
      "Ġsack": 2636,
      "ote": 2637,
      "Ġsold": 2638,
      "Ġchange": 2639,
      "Ġsmelly": 2640,
      "Ġplants": 2641,
      "Ġpuzzle": 2642,
      "Billy": 2643,
      "ror": 2644,
      "ĠTeddy": 2645,
      "Ġgate": 2646,
      "ĠTheir": 2647,
      "Ġalmost": 2648,
      "Ġgray": 2649,
      "Ġnecklace": 2650,
      "Ġaunt": 2651,
      "Ġpoor": 2652,
      "Ġberries": 2653,
      "Ġpin": 2654,
      "Ġstone": 2655,
      "Ġbody": 2656,
      "ĠBrown": 2657,
      "uce": 2658,
      "Ġline": 2659,
      "Ġmaybe": 2660,
      "orry": 2661,
      "Ġbirdie": 2662,
      "Ġvase": 2663,
      "airs": 2664,
      "Ġpolite": 2665,
      "Ġfrustrated": 2666,
      "ĠDon": 2667,
      "Ġesc": 2668,
      "Ġnumber": 2669,
      "kin": 2670,
      "Ġweak": 2671,
      "itter": 2672,
      "Ġjam": 2673,
      "Ġcloth": 2674,
      "Ġscr": 2675,
      "Ġhopping": 2676,
      "ensive": 2677,
      "Ġpolice": 2678,
      "den": 2679,
      "Ġwis": 2680,
      "Ġsheep": 2681,
      "Ġjelly": 2682,
      "aged": 2683,
      "Ġexpensive": 2684,
      "Ġjew": 2685,
      "Ġbored": 2686,
      "usie": 2687,
      "Ġcloset": 2688,
      "Ġmatch": 2689,
      "Ġmirror": 2690,
      "Ġdrew": 2691,
      "ĠAt": 2692,
      "Ġyelled": 2693,
      "Ġpacked": 2694,
      "Ġtick": 2695,
      "Ġskipped": 2696,
      "Ġfruits": 2697,
      "Ġfigure": 2698,
      "Ġplate": 2699,
      "Ġlegs": 2700,
      "Ġhidden": 2701,
      "Ġdetermined": 2702,
      "Jane": 2703,
      "There": 2704,
      "?\".": 2705,
      "Ġfis": 2706,
      "Ġcries": 2707,
      "Ġthick": 2708,
      "ots": 2709,
      "Ġemp": 2710,
      "Ġpray": 2711,
      "Ġmoving": 2712,
      "Ġsighed": 2713,
      "ates": 2714,
      "Ġones": 2715,
      "Ġexam": 2716,
      "Ġtaken": 2717,
      "Ġsticks": 2718,
      "Ġempty": 2719,
      "Ġlit": 2720,
      "ĠSometimes": 2721,
      "ested": 2722,
      "Ġdogs": 2723,
      "aul": 2724,
      "Ġcontent": 2725,
      "dge": 2726,
      "Ġsight": 2727,
      "iddle": 2728,
      "Ġsaved": 2729,
      "Ġexcite": 2730,
      "Ġflut": 2731,
      "Ġdiscovered": 2732,
      "Ġincred": 2733,
      "'d": 2734,
      "Where": 2735,
      "Ġboring": 2736,
      "era": 2737,
      "Ġsoap": 2738,
      "que": 2739,
      "Ġjog": 2740,
      "box": 2741,
      "Ġsplashed": 2742,
      "Ġdolphin": 2743,
      "Ġpleased": 2744,
      "Ġhang": 2745,
      "Ġcrane": 2746,
      "Ġsailed": 2747,
      "Ġballoons": 2748,
      "Ġparrot": 2749,
      "Ġwip": 2750,
      "Ġeld": 2751,
      "ĠBella": 2752,
      "Ġseek": 2753,
      "Ġpowerful": 2754,
      "Are": 2755,
      "light": 2756,
      "Ġtiger": 2757,
      "Ġsave": 2758,
      "Ġboard": 2759,
      "Ġorganized": 2760,
      "Ġanswered": 2761,
      "Ġexcitement": 2762,
      "Ġbake": 2763,
      "Ġcap": 2764,
      "ushed": 2765,
      "Ġscarf": 2766,
      "ches": 2767,
      "Their": 2768,
      "ĠMum": 2769,
      "Ġbranc": 2770,
      "Ġwrote": 2771,
      "Ġbranches": 2772,
      "Ġcop": 2773,
      "Ġmiddle": 2774,
      "Ġstones": 2775,
      "Ġlock": 2776,
      "Ġfeed": 2777,
      "Ġsugg": 2778,
      "iness": 2779,
      "getable": 2780,
      "iff": 2781,
      "lies": 2782,
      "Ġpay": 2783,
      "ĠBl": 2784,
      "rag": 2785,
      "Ġtells": 2786,
      "Ġstanding": 2787,
      "Ġmovie": 2788,
      "Ġincredible": 2789,
      "corn": 2790,
      "Ġtie": 2791,
      "Ġclap": 2792,
      "ola": 2793,
      "Ġwagged": 2794,
      "Ġrid": 2795,
      "ĠLisa": 2796,
      "Ġswan": 2797,
      "Ġspoil": 2798,
      "Ġrecord": 2799,
      "Ġfeathers": 2800,
      "Ġfill": 2801,
      "Ġjack": 2802,
      "Ġmeasure": 2803,
      "Ġcovered": 2804,
      "Ġtrue": 2805,
      "ĠJohnny": 2806,
      "body": 2807,
      "Stop": 2808,
      "lower": 2809,
      "Ġlose": 2810,
      "Ġworking": 2811,
      "Ġflag": 2812,
      "Ġrocket": 2813,
      "ĠLeo": 2814,
      "ĠTV": 2815,
      "Ġspun": 2816,
      "Ġeng": 2817,
      "Ġvegetable": 2818,
      "Ġpopcorn": 2819,
      "ual": 2820,
      "Ġtest": 2821,
      "Ġtears": 2822,
      "Ġmarch": 2823,
      "Ġtoast": 2824,
      "Ġfil": 2825,
      "Ġgrap": 2826,
      "Ġdisappeared": 2827,
      "Ġjacket": 2828,
      "Ġwand": 2829,
      "Ġlem": 2830,
      "Ġnoisy": 2831,
      "Ġfright": 2832,
      "Ġeager": 2833,
      "ggs": 2834,
      "Ġbone": 2835,
      "oop": 2836,
      "Ġext": 2837,
      "Ġknife": 2838,
      "asing": 2839,
      "Ġord": 2840,
      "Ġgrown": 2841,
      "Ġdrop": 2842,
      "Ġgiggled": 2843,
      "fic": 2844,
      "iv": 2845,
      "Ġeggs": 2846,
      "oof": 2847,
      "Ġstamp": 2848,
      "Ġtrack": 2849,
      "Ġcomfortable": 2850,
      "Sorry": 2851,
      "ha": 2852,
      "zed": 2853,
      "Ġlying": 2854,
      "Ġyourself": 2855,
      "ately": 2856,
      "uth": 2857,
      "Ġleg": 2858,
      "apping": 2859,
      "Ġind": 2860,
      "Ġburn": 2861,
      "Ġdizzy": 2862,
      "Ġpri": 2863,
      "Ġlicked": 2864,
      "Ġwhale": 2865,
      "emo": 2866,
      "Ġsmoke": 2867,
      "Ġquestions": 2868,
      "Jimmy": 2869,
      "Ġextra": 2870,
      "ĠZ": 2871,
      "Ġgar": 2872,
      "Ġham": 2873,
      "ĠEnd": 2874,
      "Ġlifted": 2875,
      "Ġbatter": 2876,
      "Ġplayground": 2877,
      "illi": 2878,
      "Ġmanaged": 2879,
      "Ġcleaned": 2880,
      "Ġruined": 2881,
      "ĠMar": 2882,
      "Ġoffered": 2883,
      "selves": 2884,
      "Ġdancing": 2885,
      "Ġdiffic": 2886,
      "Ġhappening": 2887,
      "Ġcircle": 2888,
      "Ġsword": 2889,
      "Ġkindness": 2890,
      "Ġadventur": 2891,
      "Ġstudy": 2892,
      "Ġtent": 2893,
      "Ġwander": 2894,
      "Ġanc": 2895,
      "Ġsell": 2896,
      "ict": 2897,
      "Ġgets": 2898,
      "Ġcalling": 2899,
      "Ġcrown": 2900,
      "Ġwrap": 2901,
      "Ġmistake": 2902,
      "Ġharm": 2903,
      "Ġoy": 2904,
      "Ġboss": 2905,
      "Ġteam": 2906,
      "ĠPeter": 2907,
      "Ġshells": 2908,
      "Sally": 2909,
      "Ġfat": 2910,
      "ating": 2911,
      "ĠElla": 2912,
      "Ġtrunk": 2913,
      "Ġsmaller": 2914,
      "Ġwalks": 2915,
      "Ġtowel": 2916,
      "Ġdrawing": 2917,
      "Ġdistance": 2918,
      "Ġstraw": 2919,
      "Ġdifficult": 2920,
      "Ġrose": 2921,
      "ages": 2922,
      "Ġeye": 2923,
      "Ġbathroom": 2924,
      "Ġcheerful": 2925,
      "Ġbalance": 2926,
      "Ġelderly": 2927,
      "Ġadventurous": 2928,
      "Ġancient": 2929,
      "Ġter": 2930,
      "Ġtoug": 2931,
      "Ġbarn": 2932,
      "Ġhorn": 2933,
      "Ġwagon": 2934,
      "Ġmask": 2935,
      "Ġrare": 2936,
      "Ġkissed": 2937,
      "alk": 2938,
      "Ġallig": 2939,
      "Ġlazy": 2940,
      "Ġfluffy": 2941,
      "Ġengine": 2942,
      "Ġdest": 2943,
      "erp": 2944,
      "ĠLittle": 2945,
      "Ġdrank": 2946,
      "Ġcircles": 2947,
      "orge": 2948,
      "ete": 2949,
      "Ġyog": 2950,
      "Ġonce": 2951,
      "ormal": 2952,
      "Ġfrightened": 2953,
      "Ġterri": 2954,
      "ipper": 2955,
      "Ġdish": 2956,
      "Ġlibr": 2957,
      "Ġlead": 2958,
      "Ġpicks": 2959,
      "Ġbags": 2960,
      "Ġjuicy": 2961,
      "Ġtough": 2962,
      "Spot": 2963,
      "oph": 2964,
      "Ġnosy": 2965,
      "Ġyours": 2966,
      "Ġfamous": 2967,
      "Ġsweetie": 2968,
      "ready": 2969,
      "Ġfool": 2970,
      "Ġdig": 2971,
      "Ġpress": 2972,
      "Ġnormal": 2973,
      "ĠBobby": 2974,
      "Ġalready": 2975,
      "Ġtwist": 2976,
      "Ġrelax": 2977,
      "Me": 2978,
      "Ġaw": 2979,
      "Ġfrag": 2980,
      "Ġpump": 2981,
      "ĠBa": 2982,
      "Ġagainst": 2983,
      "Ġcheck": 2984,
      "Ġenjoying": 2985,
      "Ġsteal": 2986,
      "Hel": 2987,
      "ination": 2988,
      "Ġfather": 2989,
      "Ġyarn": 2990,
      "Ġslipped": 2991,
      "Ġboxes": 2992,
      "Ġcrack": 2993,
      "Ġspinning": 2994,
      "Ġalligator": 2995,
      "gu": 2996,
      "cept": 2997,
      "Ġsciss": 2998,
      "Ġhose": 2999,
      "Ġlouder": 3000,
      "Ġscissors": 3001,
      "Who": 3002,
      "af": 3003,
      "ique": 3004,
      "ĠBu": 3005,
      "Ġroar": 3006,
      "Ġbecome": 3007,
      "Ġrealised": 3008,
      "Ġsandwich": 3009,
      "Ġgarage": 3010,
      "Sue": 3011,
      "Ġnod": 3012,
      "Ġcover": 3013,
      "Ġhurts": 3014,
      "Amy": 3015,
      "eorge": 3016,
      "iest": 3017,
      "Ġed": 3018,
      "amond": 3019,
      "Ġfrown": 3020,
      "Ġunique": 3021,
      "Ġtrap": 3022,
      "Ġdiamond": 3023,
      "Ġsuggested": 3024,
      "Ġlemon": 3025,
      "rop": 3026,
      "Ġadded": 3027,
      "anged": 3028,
      "Ġshake": 3029,
      "Ġcaterp": 3030,
      "Ġneeds": 3031,
      "Ġsnee": 3032,
      "Ġloudly": 3033,
      "Ġcollar": 3034,
      "Ġstubb": 3035,
      "Ġvegetables": 3036,
      "Ġfoolish": 3037,
      "Ġcaterpill": 3038,
      "gy": 3039,
      "edient": 3040,
      "Ġmelt": 3041,
      "Ġpizz": 3042,
      "Ġbrilli": 3043,
      "Ġflash": 3044,
      "Ġskin": 3045,
      "Ġtele": 3046,
      "ĠRose": 3047,
      "Joe": 3048,
      "Ġhammer": 3049,
      "Ġstubborn": 3050,
      "Ġrich": 3051,
      "Ġclear": 3052,
      "Ġgiving": 3053,
      "Ġinvited": 3054,
      "Ġfragile": 3055,
      "Ġbrilliant": 3056,
      "dom": 3057,
      "oot": 3058,
      "Ġadd": 3059,
      "Ġweek": 3060,
      "Ġsaying": 3061,
      "Ġbloom": 3062,
      "Ġlearning": 3063,
      "Ġtwig": 3064,
      "ache": 3065,
      "ĠOK": 3066,
      "Ġborrow": 3067,
      "Ġbeak": 3068,
      "illa": 3069,
      "Ġdecide": 3070,
      "Ġqueen": 3071,
      "Ġrubb": 3072,
      "Ġcolourful": 3073,
      "Ġtank": 3074,
      "Ġmummy": 3075,
      "ĠSusie": 3076,
      "Ġumb": 3077,
      "Ġfork": 3078,
      "Ġshows": 3079,
      "Ġregular": 3080,
      "Ġescape": 3081,
      "Ġwiped": 3082,
      "Ġcaterpillar": 3083,
      "Ġumbre": 3084,
      "aw": 3085,
      "Ġtur": 3086,
      "Ġtape": 3087,
      "inal": 3088,
      "Ġfountain": 3089,
      "anut": 3090,
      "ceed": 3091,
      "ured": 3092,
      "Ġrode": 3093,
      "Ġpeanut": 3094,
      "ĠNemo": 3095,
      "Ġlights": 3096,
      "Ġdreamed": 3097,
      "Ġpatch": 3098,
      "Ġmarket": 3099,
      "Ġbanana": 3100,
      "Ġref": 3101,
      "Ġasking": 3102,
      "Ġunus": 3103,
      "Ġwalls": 3104,
      "Ġguess": 3105,
      "Ġbottom": 3106,
      "Ġsuccessful": 3107,
      "ĠBlue": 3108,
      "Ġindepend": 3109,
      "Help": 3110,
      "imed": 3111,
      "iginal": 3112,
      "Ġstri": 3113,
      "Ġstream": 3114,
      "Ġknight": 3115,
      "Ġboys": 3116,
      "Ġcounted": 3117,
      "land": 3118,
      "Ġguit": 3119,
      "Ġdeer": 3120,
      "Ġbuttons": 3121,
      "Ġmedic": 3122,
      "Ġturkey": 3123,
      "Ġunusual": 3124,
      "Gra": 3125,
      "ray": 3126,
      "rage": 3127,
      "Ġoriginal": 3128,
      "olog": 3129,
      "Ġcrawled": 3130,
      "Mummy": 3131,
      "Well": 3132,
      "hip": 3133,
      "Ġwitch": 3134,
      "Ġdepend": 3135,
      "Ġweird": 3136,
      "Ġabove": 3137,
      "Ġpee": 3138,
      "Ġharder": 3139,
      "Ġapolog": 3140,
      "Ġobedient": 3141,
      "Ġpizza": 3142,
      "Ġcudd": 3143,
      "Ġph": 3144,
      "Ġgun": 3145,
      "Ġears": 3146,
      "Ġchase": 3147,
      "Ġgrandpa": 3148,
      "Ġraven": 3149,
      "Ġsucceed": 3150,
      "Ġsafely": 3151,
      "Ġimpressed": 3152,
      "Ġchicken": 3153,
      "Ġstrawber": 3154,
      "How": 3155,
      "cil": 3156,
      "ĠNo": 3157,
      "Ġnotice": 3158,
      "Ġnods": 3159,
      "Ġglow": 3160,
      "Ġboats": 3161,
      "Ġfirework": 3162,
      "uggled": 3163,
      "Ġpencil": 3164,
      "Ġtools": 3165,
      "Ġsolve": 3166,
      "Ġindependent": 3167,
      "Ġguitar": 3168,
      "azz": 3169,
      "fast": 3170,
      "Ġbitter": 3171,
      "Ġwaff": 3172,
      "Ġpatter": 3173,
      "Ġsauce": 3174,
      "Ġresc": 3175,
      "Ġbrush": 3176,
      "Ġtray": 3177,
      "Ġbald": 3178,
      "Ġbreakfast": 3179,
      "Ġcompet": 3180,
      "ĠRex": 3181,
      "Ġscrat": 3182,
      "Ġbossy": 3183,
      "Ġmedicine": 3184,
      "und": 3185,
      "arl": 3186,
      "Ġhappiness": 3187,
      "Ġshone": 3188,
      "Ġload": 3189,
      "ĠEllie": 3190,
      "Ġadmired": 3191,
      "ĠBrownie": 3192,
      "Ġpattern": 3193,
      "Ġtire": 3194,
      "Ġsy": 3195,
      "Ġlow": 3196,
      "ĠIf": 3197,
      "Ġhelps": 3198,
      "Ġraft": 3199,
      "umbled": 3200,
      "Ġedge": 3201,
      "Ġumbrella": 3202,
      "ud": 3203,
      "Ġtask": 3204,
      "imp": 3205,
      "Ġclay": 3206,
      "Ġcost": 3207,
      "Ġfier": 3208,
      "Ġaccept": 3209,
      "Ġsounded": 3210,
      "Ġsquare": 3211,
      "Ġjewel": 3212,
      "Ġterrible": 3213,
      "Re": 3214,
      "na": 3215,
      "head": 3216,
      "Ġknows": 3217,
      "Ġcleaning": 3218,
      "Ġbutterflies": 3219,
      "Ġhumble": 3220,
      "inary": 3221,
      "Ġow": 3222,
      "aser": 3223,
      "Ġchose": 3224,
      "Ġcryst": 3225,
      "Ġguard": 3226,
      "Ġparade": 3227,
      "Ġtag": 3228,
      "Ġflex": 3229,
      "Ġplayful": 3230,
      "Ġlocked": 3231,
      "Ġchir": 3232,
      "Ġtrump": 3233,
      "Ġmod": 3234,
      "Ġhanded": 3235,
      "Ġexplored": 3236,
      "Ġraced": 3237,
      "Ġnicely": 3238,
      "Here": 3239,
      "Ġfridge": 3240,
      "Ġlaughs": 3241,
      "Ġsurf": 3242,
      "ophie": 3243,
      "fa": 3244,
      "squ": 3245,
      "Ġbeet": 3246,
      "Ġmoms": 3247,
      "elon": 3248,
      "ĠFin": 3249,
      "Ġmighty": 3250,
      "Ġwheel": 3251,
      "ĠTweety": 3252,
      "Ġnumbers": 3253,
      "Ġdependable": 3254,
      "Ġcompetit": 3255,
      "Ġfierce": 3256,
      "Ġtrumpet": 3257,
      "ext": 3258,
      "ito": 3259,
      "Ġcam": 3260,
      "arry": 3261,
      "ention": 3262,
      "Ġseal": 3263,
      "uring": 3264,
      "Ġlean": 3265,
      "Ġchanged": 3266,
      "Ġmosqu": 3267,
      "Ġsquee": 3268,
      "Ġfavour": 3269,
      "Ġfalls": 3270,
      "Ġdiscover": 3271,
      "Ġphot": 3272,
      "Ġflexible": 3273,
      "Ġmosquito": 3274,
      "met": 3275,
      "Ġrough": 3276,
      "Ġstat": 3277,
      "Ġisland": 3278,
      "Ġexcla": 3279,
      "Ġchoose": 3280,
      "Ġpicking": 3281,
      "Ġstronger": 3282,
      "Ġcrayon": 3283,
      "Ġvalu": 3284,
      "Alice": 3285,
      "Jill": 3286,
      "ature": 3287,
      "ĠLola": 3288,
      "Ġproudly": 3289,
      "Ġvolc": 3290,
      "Ġuseful": 3291,
      "Ġcompass": 3292,
      "Ġhelmet": 3293,
      "Ġlibrary": 3294,
      "Ġfavourite": 3295,
      "ject": 3296,
      "yal": 3297,
      "Ġsup": 3298,
      "Ġcone": 3299,
      "ĠBear": 3300,
      "Ġcomb": 3301,
      "Ġkinds": 3302,
      "Ġcrazy": 3303,
      "Ġguil": 3304,
      "Ġpersist": 3305,
      "Ġoyster": 3306,
      "Ġexclaimed": 3307,
      "Ġvolcano": 3308,
      "Ġfine": 3309,
      "Ġpil": 3310,
      "Ġgoose": 3311,
      "Ġcoins": 3312,
      "Ġballs": 3313,
      "Ġjoke": 3314,
      "Ġbrothers": 3315,
      "Ġstretch": 3316,
      "aff": 3317,
      "ĠU": 3318,
      "Ġcage": 3319,
      "Ġgor": 3320,
      "Ġfinding": 3321,
      "Ġmole": 3322,
      "Ġbrace": 3323,
      "Ġunl": 3324,
      "Ġmeans": 3325,
      "Ġmixed": 3326,
      "Ġflashlight": 3327,
      "Ġcrystal": 3328,
      "Ġguilty": 3329,
      "Ġicy": 3330,
      "Ġdull": 3331,
      "Ġpenny": 3332,
      "Ġpipe": 3333,
      "ĠMike": 3334,
      "Ġloyal": 3335,
      "Ġenorm": 3336,
      "Ġjoined": 3337,
      "ations": 3338,
      "Ġdreams": 3339,
      "Ġrepe": 3340,
      "Ġkicked": 3341,
      "Ġserious": 3342,
      "Ġseeds": 3343,
      "Ġwhispered": 3344,
      "Ġvaluable": 3345,
      "Ġenormous": 3346,
      "ience": 3347,
      "time": 3348,
      "wards": 3349,
      "Ġturt": 3350,
      "Ġcro": 3351,
      "Ġshel": 3352,
      "arth": 3353,
      "Ġallowed": 3354,
      "Ġswe": 3355,
      "Ġtrucks": 3356,
      "Ġpointing": 3357,
      "ĠMrs": 3358,
      "Ġpirate": 3359,
      "Ġsuper": 3360,
      "Em": 3361,
      "kn": 3362,
      "Ġwake": 3363,
      "Ġrushed": 3364,
      "Ġanx": 3365,
      "iew": 3366,
      "Ġview": 3367,
      "Ġstove": 3368,
      "Ġhats": 3369,
      "Ġfireman": 3370,
      "Ġcri": 3371,
      "erry": 3372,
      "llip": 3373,
      "Ġbees": 3374,
      "Ġlollip": 3375,
      "Ġscare": 3376,
      "Ġgrace": 3377,
      "mbol": 3378,
      "Ġlollipop": 3379,
      "Ġtied": 3380,
      "ado": 3381,
      "Ġshark": 3382,
      "ĠMy": 3383,
      "Ġsadly": 3384,
      "Ġways": 3385,
      "Ġdeliver": 3386,
      "Ġbrightly": 3387,
      "Ġpainted": 3388,
      "Ġpopular": 3389,
      "Ġpractice": 3390,
      "Ġtwirled": 3391,
      "Ġsymbol": 3392,
      "Ġcamera": 3393,
      "Ġcompassion": 3394,
      "Ġgorilla": 3395,
      "Ġanxious": 3396,
      "Go": 3397,
      "Ġcurt": 3398,
      "Ġcity": 3399,
      "omed": 3400,
      "Ġgum": 3401,
      "Ġsofa": 3402,
      "Ġforth": 3403,
      "!\".": 3404,
      "Ġspace": 3405,
      "Ġshowing": 3406,
      "ĠWhenever": 3407,
      "Ġarg": 3408,
      "Ġprint": 3409,
      "Ġdelicate": 3410,
      "Ġimpressive": 3411,
      "Ġmotorcy": 3412,
      "ĠBaby": 3413,
      "Ġcurtain": 3414,
      ",âĢĿ": 3415,
      "aroo": 3416,
      "Ġang": 3417,
      "Ġgoat": 3418,
      "ĠWhile": 3419,
      "ouses": 3420,
      "uddy": 3421,
      "iable": 3422,
      "Ġmarble": 3423,
      "angaroo": 3424,
      "Ġharmless": 3425,
      "Ġsil": 3426,
      "Ġhouses": 3427,
      "Ġfour": 3428,
      "Ġkangaroo": 3429,
      "Ġlog": 3430,
      "Ġspell": 3431,
      "Ġusing": 3432,
      "Ġreliable": 3433,
      "Ġpoured": 3434,
      "Ġpersistent": 3435,
      "Ġamb": 3436,
      "Ġsudden": 3437,
      "Ġtor": 3438,
      "ilt": 3439,
      "Ġthirst": 3440,
      "ĠBill": 3441,
      "Ġenc": 3442,
      "Ġoffice": 3443,
      "aches": 3444,
      "Ġbushes": 3445,
      "Ġrubbed": 3446,
      "Ġmetal": 3447,
      "Ġshape": 3448,
      "Ġbelonged": 3449,
      "Ġwrapped": 3450,
      "known": 3451,
      "Daisy": 3452,
      "Ġing": 3453,
      "ision": 3454,
      "alous": 3455,
      "Ġreward": 3456,
      "Ġcarp": 3457,
      "Ġlaw": 3458,
      "Benny": 3459,
      "Ġdriving": 3460,
      "redient": 3461,
      "Ġjealous": 3462,
      "Ġwheat": 3463,
      "Ġbeetle": 3464,
      "Ġingredient": 3465,
      "Ġvine": 3466,
      "Ġunknown": 3467,
      "ĠPe": 3468,
      "Ġshoot": 3469,
      "Ġson": 3470,
      "ĠFr": 3471,
      "ĠBobo": 3472,
      "Ġhung": 3473,
      "icycle": 3474,
      "Ġcere": 3475,
      "Ġhay": 3476,
      "Ġfan": 3477,
      "Ġthose": 3478,
      "Ġspilled": 3479,
      "Ġtemp": 3480,
      "ĠPete": 3481,
      "Ġmissing": 3482,
      "Ġwarned": 3483,
      "Ġtunn": 3484,
      "cut": 3485,
      "cream": 3486,
      "Ġtummy": 3487,
      "Ġtimes": 3488,
      "Ġbase": 3489,
      "Ġcase": 3490,
      "Ġscale": 3491,
      "ĠDucky": 3492,
      "arsh": 3493,
      "Ġmarry": 3494,
      "Ġhurry": 3495,
      "Ġflute": 3496,
      "Ġbracelet": 3497,
      "Ġwool": 3498,
      "Ġhunt": 3499,
      "ery": 3500,
      "Ġyet": 3501,
      "keep": 3502,
      "Ġshiver": 3503,
      "Ġscoot": 3504,
      "Ġcoal": 3505,
      "Ġmoder": 3506,
      "Ġcompl": 3507,
      "Ġtravel": 3508,
      "Ġtrick": 3509,
      "upid": 3510,
      "Ġlively": 3511,
      "Ġcelebrate": 3512,
      "Ġthinking": 3513,
      "Ġdelighted": 3514,
      "Ġfilthy": 3515,
      "Ġordinary": 3516,
      "Ġthirsty": 3517,
      "Ġcarpet": 3518,
      "loo": 3519,
      "ither": 3520,
      "Ġwashed": 3521,
      "Ġmis": 3522,
      "ĠSp": 3523,
      "Ġexcitedly": 3524,
      "ĠDave": 3525,
      "Ġdisg": 3526,
      "Ġcrawl": 3527,
      "Ġgrowing": 3528,
      "ĠToby": 3529,
      "Ġcreatures": 3530,
      "Ġbounce": 3531,
      "Ġreminded": 3532,
      "ipp": 3533,
      "Ġfre": 3534,
      "Ġcur": 3535,
      "Ġstupid": 3536,
      "Ġthemselves": 3537,
      "Ġword": 3538,
      "usting": 3539,
      "Ġskull": 3540,
      "Ġhandle": 3541,
      "Ġsne": 3542,
      "Ġcheap": 3543,
      "Ġpup": 3544,
      "Ġearly": 3545,
      "Ow": 3546,
      "aid": 3547,
      "Ġhook": 3548,
      "Ġcher": 3549,
      "ric": 3550,
      "ĠBet": 3551,
      "Ġshine": 3552,
      "ĠMandy": 3553,
      "Ġfriendship": 3554,
      "Ġscatter": 3555,
      "Ġseem": 3556,
      "ief": 3557,
      "Ġnews": 3558,
      "Ġmule": 3559,
      "Ġlab": 3560,
      "Ġbadly": 3561,
      "Ġacorn": 3562,
      "cod": 3563,
      "Ġdoesn": 3564,
      "Ġtriang": 3565,
      "Ġswinging": 3566,
      "ulance": 3567,
      "Ġfalling": 3568,
      "Ġsparkled": 3569,
      "Ġdecorate": 3570,
      "Ġgasped": 3571,
      "Ġambulance": 3572,
      "Ġcereal": 3573,
      "Ġstage": 3574,
      "Ġweal": 3575,
      "Ġdove": 3576,
      "Ġgoal": 3577,
      "Ġmem": 3578,
      "used": 3579,
      "Ġprep": 3580,
      "Ġmicrop": 3581,
      "Ġturtle": 3582,
      "Ġcrocod": 3583,
      "Ġmicrophone": 3584,
      "While": 3585,
      "ibb": 3586,
      "Ġresist": 3587,
      "Ġclum": 3588,
      "Ġcareless": 3589,
      "Ġdead": 3590,
      "Ġsett": 3591,
      "Ġcomput": 3592,
      "Ġpengu": 3593,
      "Ġpracticed": 3594,
      "Ġsupport": 3595,
      "gging": 3596,
      "Ġpumpkin": 3597,
      "Ġcostum": 3598,
      "Ġmodern": 3599,
      "Ġdisgusting": 3600,
      "Ġsend": 3601,
      "Ġbump": 3602,
      "Ġbicycle": 3603,
      "Ġcush": 3604,
      "Ġhero": 3605,
      "Ġshaking": 3606,
      "ices": 3607,
      "Ġhelpless": 3608,
      "Ġplaced": 3609,
      "Ġnuts": 3610,
      "Ġstatue": 3611,
      "Ġingredients": 3612,
      "arlie": 3613,
      "Ġnail": 3614,
      "Ġsoar": 3615,
      "ugged": 3616,
      "ĠAlex": 3617,
      "ĠAlice": 3618,
      "iches": 3619,
      "Ġenv": 3620,
      "Ġtelling": 3621,
      "Ġhairy": 3622,
      "Ġpotato": 3623,
      "Ġfingers": 3624,
      "Ġspoke": 3625,
      "Ġsteps": 3626,
      "Ġfive": 3627,
      "Ġstumbled": 3628,
      "Ġbackpack": 3629,
      "Ġchasing": 3630,
      "Ġintell": 3631,
      "Ġtruth": 3632,
      "ĠEverything": 3633,
      "Ġsleeping": 3634,
      "Ġelev": 3635,
      "Ġcarrying": 3636,
      "Ġclumsy": 3637,
      "Ġcomputer": 3638,
      "gest": 3639,
      "Ġtooth": 3640,
      "Ġstairs": 3641,
      "Ġbiggest": 3642,
      "Ġjet": 3643,
      "Ġthoughtful": 3644,
      "Ġending": 3645,
      "ĠRed": 3646,
      "Ġopens": 3647,
      "Ġpale": 3648,
      "Ġbasketball": 3649,
      "Ġcompassionate": 3650,
      "Ġintellig": 3651,
      "Ġelevator": 3652,
      "ĠâĢ": 3653,
      "Ġharsh": 3654,
      "isk": 3655,
      "Ġrece": 3656,
      "Ġpebble": 3657,
      "Ġclock": 3658,
      "Ġpainting": 3659,
      "Ġshoe": 3660,
      "Ġdreaming": 3661,
      "ĠToday": 3662,
      "Ġsoldier": 3663,
      "Ġspoiled": 3664,
      "Ġpeeked": 3665,
      "Ġtorn": 3666,
      "com": 3667,
      "vice": 3668,
      "Ġmeal": 3669,
      "Ġneighbour": 3670,
      "If": 3671,
      "bled": 3672,
      "Ġmild": 3673,
      "ans": 3674,
      "Ġrice": 3675,
      "Ġstation": 3676,
      "ĠMummy": 3677,
      "Ġknock": 3678,
      "Ġchar": 3679,
      "Ġjolly": 3680,
      "Ġcube": 3681,
      "Ġperm": 3682,
      "Ġtunnel": 3683,
      "keeper": 3684,
      "noon": 3685,
      "Ġwine": 3686,
      "Ġcomet": 3687,
      "iron": 3688,
      "Ġstarts": 3689,
      "Ġmush": 3690,
      "Ġbul": 3691,
      "Ġafternoon": 3692,
      "coa": 3693,
      "Ġcourage": 3694,
      "aulif": 3695,
      "Ġriding": 3696,
      "Ġwealthy": 3697,
      "See": 3698,
      "cu": 3699,
      "ines": 3700,
      "Ġneat": 3701,
      "ĠYour": 3702,
      "Ġcupboard": 3703,
      "hino": 3704,
      "Ġquestion": 3705,
      "Ġsandwiches": 3706,
      "Ġvalue": 3707,
      "Ġmotorcycle": 3708,
      "Ġcrocodile": 3709,
      "auliflower": 3710,
      "awn": 3711,
      "gen": 3712,
      "ĠSn": 3713,
      "imi": 3714,
      "orant": 3715,
      "Ġshocked": 3716,
      "Ġpepper": 3717,
      "Ġbeauty": 3718,
      "Ġuniver": 3719,
      "ĠGeorge": 3720,
      "Ġleaving": 3721,
      "Ġhaircut": 3722,
      "Everyone": 3723,
      "Ġbarking": 3724,
      "Ġticket": 3725,
      "Ġfresh": 3726,
      "Ġintelligent": 3727,
      "az": 3728,
      "Ġsink": 3729,
      "Ġcauliflower": 3730,
      "Ġdough": 3731,
      "Ġmelon": 3732,
      "Ġnature": 3733,
      "anger": 3734,
      "Ġhappier": 3735,
      "Ġnoteb": 3736,
      "Ġalert": 3737,
      "Ġener": 3738,
      "Ġbull": 3739,
      "Ġjumps": 3740,
      "ĠGive": 3741,
      "Ġbehave": 3742,
      "Ġpackage": 3743,
      "ailable": 3744,
      "ĠTweetie": 3745,
      "Ġslides": 3746,
      "Ġbananas": 3747,
      "Ġmushroom": 3748,
      "Ġnotebook": 3749,
      "Give": 3750,
      "io": 3751,
      "Ġsle": 3752,
      "Ġsent": 3753,
      "Ġlamp": 3754,
      "Ġdug": 3755,
      "Ġol": 3756,
      "Ġnurse": 3757,
      "Ġthief": 3758,
      "Ġyawn": 3759,
      "Ġstack": 3760,
      "Ġvide": 3761,
      "Ġgrand": 3762,
      "Ġsorts": 3763,
      "Ġbrighter": 3764,
      "Ġmonkeys": 3765,
      "Ġrespectful": 3766,
      "Ġdesign": 3767,
      "Ġsearching": 3768,
      "Ġspeed": 3769,
      "Ġgraceful": 3770,
      "Ġscooter": 3771,
      "oppy": 3772,
      "under": 3773,
      "Ġten": 3774,
      "Ġsuit": 3775,
      "reen": 3776,
      "Ġped": 3777,
      "ĠTony": 3778,
      "atient": 3779,
      "orable": 3780,
      "Ġearth": 3781,
      "illie": 3782,
      "ucked": 3783,
      "Ġstops": 3784,
      "Ġperform": 3785,
      "Ġignorant": 3786,
      "Ġavailable": 3787,
      "Ġprize": 3788,
      "Ġmay": 3789,
      "Ġpun": 3790,
      "icop": 3791,
      "Ġscold": 3792,
      "Ġadorable": 3793,
      "Ġwallet": 3794,
      "Ġbounced": 3795,
      "Ġpige": 3796,
      "Ġhelicop": 3797,
      "Ġcandle": 3798,
      "Ġfisher": 3799,
      "Ġrescue": 3800,
      "Ġcushion": 3801,
      "Ġhelicopter": 3802,
      "ef": 3803,
      "ues": 3804,
      "ye": 3805,
      "Ġbent": 3806,
      "Ġcamp": 3807,
      "Ġgem": 3808,
      "ats": 3809,
      "Ġitself": 3810,
      "Ġroof": 3811,
      "Ġagree": 3812,
      "Ġmagn": 3813,
      "Ġdrawer": 3814,
      "Ġreading": 3815,
      "Ġpassport": 3816,
      "Ġdestro": 3817,
      "Ġencou": 3818,
      "hood": 3819,
      "ti": 3820,
      "tter": 3821,
      "Ġrhino": 3822,
      "Ġstared": 3823,
      "Ġfort": 3824,
      "Ġswitch": 3825,
      "Ġanywhere": 3826,
      "Ġbuilt": 3827,
      "Ġsniff": 3828,
      "Ġimpatient": 3829,
      "Ġcounting": 3830,
      "Ġpaid": 3831,
      "Ġwheels": 3832,
      "Ġstretched": 3833,
      "Ġfearful": 3834,
      "Ġtriangle": 3835,
      "Ġhoop": 3836,
      "Ġreef": 3837,
      "Ġclapping": 3838,
      "ĠEventually": 3839,
      "Ġskip": 3840,
      "Ġsnuggled": 3841,
      "ctus": 3842,
      "Ġshouting": 3843,
      "Ġtomato": 3844,
      "Ġcooked": 3845,
      "Mary": 3846,
      "ince": 3847,
      "Ġmill": 3848,
      "Ġpony": 3849,
      "Ġotter": 3850,
      "Ġchalk": 3851,
      "Ġolder": 3852,
      "ips": 3853,
      "Ġcreate": 3854,
      "Ġcab": 3855,
      "Ġcactus": 3856,
      "Ġspeak": 3857,
      "Ġcompetitive": 3858,
      "Ġtemple": 3859,
      "aked": 3860,
      "xy": 3861,
      "year": 3862,
      "het": 3863,
      "iling": 3864,
      "ĠSh": 3865,
      "ĠSophie": 3866,
      "Ġribb": 3867,
      "Ġboots": 3868,
      "ummer": 3869,
      "ĠCl": 3870,
      "Ġshouldn": 3871,
      "Ġholds": 3872,
      "Ġtreasures": 3873,
      "Ġfootball": 3874,
      "Ġblowing": 3875,
      "Ġavo": 3876,
      "Ġrubber": 3877,
      "Ġenvious": 3878,
      "ps": 3879,
      "Ġpand": 3880,
      "enry": 3881,
      "ooped": 3882,
      "Ġshield": 3883,
      "ĠMiss": 3884,
      "aghet": 3885,
      "Ġcocoa": 3886,
      "play": 3887,
      "apa": 3888,
      "uct": 3889,
      "Ġadvice": 3890,
      "Ġuncom": 3891,
      "Ġdisag": 3892,
      "ĠKim": 3893,
      "fortable": 3894,
      "Ġmeeting": 3895,
      "Ġobject": 3896,
      "Ġangel": 3897,
      "Ġpenguin": 3898,
      "Ġcabin": 3899,
      "aghetti": 3900,
      "Ġuncomfortable": 3901,
      "Yay": 3902,
      "ikes": 3903,
      "Ġpurse": 3904,
      "Ġstaff": 3905,
      "Ġspaghetti": 3906,
      "opard": 3907,
      "Ġforgave": 3908,
      "Ġgiven": 3909,
      "Ġshovel": 3910,
      "Ġmarched": 3911,
      "Ġfurther": 3912,
      "Ġexper": 3913,
      "Ġtroubled": 3914,
      "Ġbandage": 3915,
      "Ġrepair": 3916,
      "eath": 3917,
      "par": 3918,
      "Ġiron": 3919,
      "Ġsummer": 3920,
      "Ġpor": 3921,
      "Ġshut": 3922,
      "Ġleopard": 3923,
      "Ġnobody": 3924,
      "Ġenvel": 3925,
      "Ġcolours": 3926,
      "Ġdisplay": 3927,
      "Ġairport": 3928,
      "Ġprov": 3929,
      "Ġbarber": 3930,
      "Ġgifted": 3931,
      "Ġgiggle": 3932,
      "Ġcooking": 3933,
      "Ġstirred": 3934,
      "Ġyogurt": 3935,
      "Ġdestroy": 3936,
      "gl": 3937,
      "ube": 3938,
      "Ġsepar": 3939,
      "Ġnames": 3940,
      "Ġbreat": 3941,
      "Ġwindows": 3942,
      "oomy": 3943,
      "Ġmusician": 3944,
      "scope": 3945,
      "Ġgrapes": 3946,
      "ubby": 3947,
      "Ġtube": 3948,
      "Ġahead": 3949,
      "rec": 3950,
      "Ġcord": 3951,
      "Ġled": 3952,
      "Ġthunder": 3953,
      "Ġsheet": 3954,
      "Ġshadow": 3955,
      "Ġflour": 3956,
      "Ġanyway": 3957,
      "Ġquite": 3958,
      "ĠAndy": 3959,
      "Ġunpack": 3960,
      "Ġwriting": 3961,
      "Ġraining": 3962,
      "ĠInst": 3963,
      "Ġpushing": 3964,
      "Ġmint": 3965,
      "Ġattic": 3966,
      "Ġenth": 3967,
      "Ġcartoon": 3968,
      "Daddy": 3969,
      "shed": 3970,
      "Ġobs": 3971,
      "ĠBuddy": 3972,
      "Ġscrew": 3973,
      "Ġchubby": 3974,
      "Ġneedle": 3975,
      "Ġnowhere": 3976,
      "ĠPat": 3977,
      "Ġtrash": 3978,
      "host": 3979,
      "Ġfreez": 3980,
      "ceros": 3981,
      "Ġsalt": 3982,
      "Ġwaffle": 3983,
      "Ġcharming": 3984,
      "Ġfisherman": 3985,
      "ives": 3986,
      "heart": 3987,
      "Ġghost": 3988,
      "anic": 3989,
      "Ġlives": 3990,
      "Ġrefused": 3991,
      "Ġmuff": 3992,
      "Ġsticky": 3993,
      "Ġbarrel": 3994,
      "Ġjellyfish": 3995,
      "Ġrhinoceros": 3996,
      "Ġenvelope": 3997,
      "Ġobser": 3998,
      "Ġdess": 3999,
      "erable": 4000,
      "chanic": 4001,
      "Ġknob": 4002,
      "Ġrod": 4003,
      "Ġarrow": 4004,
      "asses": 4005,
      "ĠJoey": 4006,
      "Ġrolling": 4007,
      "Ġmedal": 4008,
      "ĠBetsy": 4009,
      "reci": 4010,
      "Ġenthus": 4011,
      "Ġsize": 4012,
      "Ġbet": 4013,
      "arian": 4014,
      "ĠSu": 4015,
      "Ġinf": 4016,
      "Ġrat": 4017,
      "ĠBunny": 4018,
      "htub": 4019,
      "ĠAre": 4020,
      "Ġmechanic": 4021,
      "Ġblin": 4022,
      "Ġsungl": 4023,
      "Ġbears": 4024,
      "Ġappreci": 4025,
      "Ġmessage": 4026,
      "Ġzoomed": 4027,
      "Ġorganize": 4028,
      "Ġbathtub": 4029,
      "Ġbattery": 4030,
      "Ġmiserable": 4031,
      "Ġbulb": 4032,
      "Ġsunglasses": 4033,
      "Little": 4034,
      "ĊĠ": 4035,
      "Ġcards": 4036,
      "Ġpant": 4037,
      "ĠWould": 4038,
      "apers": 4039,
      "ĠDan": 4040,
      "Ġstrugg": 4041,
      "Ġstranger": 4042,
      "Ġimpro": 4043,
      "Ġheaded": 4044,
      "Ġhoping": 4045,
      "Ġrestless": 4046,
      "Ġimagined": 4047,
      "Ġmicro": 4048,
      "Ġpilot": 4049,
      "Ġpigeon": 4050,
      "Ġer": 4051,
      "Ġscreen": 4052,
      "Ġcats": 4053,
      "Ġorder": 4054,
      "Ġceiling": 4055,
      "Ġvend": 4056,
      "Ġminute": 4057,
      "Ġgolden": 4058,
      "Ġpanda": 4059,
      "Ġmicroscope": 4060,
      "Ġbikes": 4061,
      "Ġthread": 4062,
      "Ġbeep": 4063,
      "kelet": 4064,
      "Ġmeas": 4065,
      "Ġcob": 4066,
      "Ġchance": 4067,
      "Ġcheek": 4068,
      "Ġdishes": 4069,
      "Ġdeaf": 4070,
      "Ġstickers": 4071,
      "Ġairpl": 4072,
      "Ġcomplet": 4073,
      "Ġincl": 4074,
      "Ġwishes": 4075,
      "Ġslept": 4076,
      "Ġporch": 4077,
      "aled": 4078,
      "Ġtowers": 4079,
      "Ġsandbox": 4080,
      "Ġfrogs": 4081,
      "umber": 4082,
      "Ġspring": 4083,
      "ĠInstead": 4084,
      "Ġcobw": 4085,
      "Jenny": 4086,
      "oe": 4087,
      "Ġskelet": 4088,
      "Ġwire": 4089,
      "Ġpad": 4090,
      "Ġgir": 4091,
      "inde": 4092,
      "Ġroared": 4093,
      "Ġgloomy": 4094,
      "reeze": 4095
    },
    "merges": [
      [
        "h",
        "e"
      ],
      [
        "Ġ",
        "t"
      ],
      [
        "Ġ",
        "a"
      ],
      [
        "Ġ",
        "s"
      ],
      [
        "Ġ",
        "w"
      ],
      [
        "n",
        "d"
      ],
      [
        "Ġt",
        "he"
      ],
      [
        "e",
        "d"
      ],
      [
        "Ġa",
        "nd"
      ],
      [
        "Ġt",
        "o"
      ],
      [
        "Ġ",
        "b"
      ],
      [
        "i",
        "n"
      ],
      [
        "Ġ",
        "h"
      ],
      [
        "Ġw",
        "a"
      ],
      [
        "r",
        "e"
      ],
      [
        "Ġ",
        "f"
      ],
      [
        "i",
        "t"
      ],
      [
        "o",
        "u"
      ],
      [
        "Ġ",
        "c"
      ],
      [
        "Ġ",
        "l"
      ],
      [
        "Ġ",
        "he"
      ],
      [
        "Ġ",
        "d"
      ],
      [
        "e",
        "r"
      ],
      [
        "Ġwa",
        "s"
      ],
      [
        "Ġ",
        "m"
      ],
      [
        "Ġ",
        "p"
      ],
      [
        "o",
        "m"
      ],
      [
        "Ġ",
        "T"
      ],
      [
        "Ġ",
        "o"
      ],
      [
        "a",
        "y"
      ],
      [
        "a",
        "r"
      ],
      [
        "i",
        "s"
      ],
      [
        "in",
        "g"
      ],
      [
        "Ġ",
        "g"
      ],
      [
        "i",
        "l"
      ],
      [
        "i",
        "d"
      ],
      [
        "a",
        "t"
      ],
      [
        "e",
        "n"
      ],
      [
        "Ġ",
        "n"
      ],
      [
        "Ġs",
        "a"
      ],
      [
        "Ġh",
        "a"
      ],
      [
        "Ġ",
        "S"
      ],
      [
        "i",
        "m"
      ],
      [
        "ĠT",
        "he"
      ],
      [
        "a",
        "n"
      ],
      [
        "o",
        "r"
      ],
      [
        "o",
        "n"
      ],
      [
        "Ġ",
        "it"
      ],
      [
        "Ġt",
        "h"
      ],
      [
        "l",
        "l"
      ],
      [
        "l",
        "e"
      ],
      [
        "Ġ",
        "H"
      ],
      [
        "Ġhe",
        "r"
      ],
      [
        "e",
        "t"
      ],
      [
        "o",
        "t"
      ],
      [
        "i",
        "r"
      ],
      [
        "ĠS",
        "he"
      ],
      [
        "ĠH",
        "e"
      ],
      [
        "v",
        "er"
      ],
      [
        "e",
        "s"
      ],
      [
        "Ġ",
        "in"
      ],
      [
        "u",
        "t"
      ],
      [
        "o",
        "w"
      ],
      [
        "c",
        "k"
      ],
      [
        "Ġ",
        "e"
      ],
      [
        "Ġ",
        "u"
      ],
      [
        "l",
        "d"
      ],
      [
        "ĠThe",
        "y"
      ],
      [
        "o",
        "o"
      ],
      [
        "i",
        "g"
      ],
      [
        "Ġ",
        "y"
      ],
      [
        "Ġ",
        "r"
      ],
      [
        "Ġsa",
        "id"
      ],
      [
        "a",
        "m"
      ],
      [
        "il",
        "y"
      ],
      [
        "Ġb",
        "e"
      ],
      [
        "Ġs",
        "t"
      ],
      [
        "c",
        "e"
      ],
      [
        "Ġs",
        "he"
      ],
      [
        "it",
        "h"
      ],
      [
        "Ġ",
        "\""
      ],
      [
        "p",
        "p"
      ],
      [
        "k",
        "e"
      ],
      [
        "Ġw",
        "ith"
      ],
      [
        "O",
        "n"
      ],
      [
        "Ġ",
        "I"
      ],
      [
        "v",
        "e"
      ],
      [
        "L",
        "ily"
      ],
      [
        "Ġo",
        "n"
      ],
      [
        "Ġo",
        "f"
      ],
      [
        "Ġs",
        "o"
      ],
      [
        "Ġh",
        "is"
      ],
      [
        "k",
        "ed"
      ],
      [
        "r",
        "i"
      ],
      [
        "n",
        "t"
      ],
      [
        "ver",
        "y"
      ],
      [
        "Ġp",
        "l"
      ],
      [
        "Ġd",
        "ay"
      ],
      [
        "a",
        "d"
      ],
      [
        "Ġy",
        "ou"
      ],
      [
        "Ġth",
        "at"
      ],
      [
        "Ġu",
        "p"
      ],
      [
        "Ġha",
        "d"
      ],
      [
        "s",
        "t"
      ],
      [
        "Ġpl",
        "ay"
      ],
      [
        "Ġthe",
        "y"
      ],
      [
        "Ġ",
        "Lily"
      ],
      [
        "Ġw",
        "e"
      ],
      [
        "Ġm",
        "om"
      ],
      [
        "m",
        "y"
      ],
      [
        "Ġf",
        "or"
      ],
      [
        "e",
        "l"
      ],
      [
        "ou",
        "ld"
      ],
      [
        "u",
        "n"
      ],
      [
        "Ġ",
        "B"
      ],
      [
        "'",
        "s"
      ],
      [
        "it",
        "t"
      ],
      [
        "en",
        "t"
      ],
      [
        "T",
        "he"
      ],
      [
        "Ġha",
        "pp"
      ],
      [
        "c",
        "h"
      ],
      [
        "Ġl",
        "i"
      ],
      [
        "Ġwa",
        "nt"
      ],
      [
        "ou",
        "t"
      ],
      [
        "Ġs",
        "h"
      ],
      [
        "he",
        "r"
      ],
      [
        "l",
        "y"
      ],
      [
        "im",
        "e"
      ],
      [
        "itt",
        "le"
      ],
      [
        "Ġ",
        "very"
      ],
      [
        "ou",
        "nd"
      ],
      [
        "Ġt",
        "ime"
      ],
      [
        "om",
        "e"
      ],
      [
        "Ġd",
        "o"
      ],
      [
        "Ġl",
        "ittle"
      ],
      [
        "Ġthe",
        "re"
      ],
      [
        "a",
        "ll"
      ],
      [
        "s",
        "e"
      ],
      [
        "Ġ",
        "k"
      ],
      [
        "Ġw",
        "h"
      ],
      [
        "e",
        "nd"
      ],
      [
        "a",
        "l"
      ],
      [
        "h",
        "t"
      ],
      [
        "Ġn",
        "e"
      ],
      [
        "Ġ",
        "re"
      ],
      [
        "Ġn",
        "ot"
      ],
      [
        "Ġhapp",
        "y"
      ],
      [
        "Ġ",
        "M"
      ],
      [
        "Ġb",
        "ig"
      ],
      [
        "Ġb",
        "ut"
      ],
      [
        "a",
        "ck"
      ],
      [
        "Ġs",
        "m"
      ],
      [
        "Ġsa",
        "w"
      ],
      [
        "ĠI",
        "t"
      ],
      [
        "Ġa",
        "s"
      ],
      [
        "Ġa",
        "n"
      ],
      [
        "ri",
        "end"
      ],
      [
        "Ġf",
        "riend"
      ],
      [
        "r",
        "a"
      ],
      [
        "r",
        "y"
      ],
      [
        "id",
        "e"
      ],
      [
        "Ġ",
        "is"
      ],
      [
        "On",
        "e"
      ],
      [
        "v",
        "ed"
      ],
      [
        "'",
        "t"
      ],
      [
        "On",
        "ce"
      ],
      [
        "a",
        "ke"
      ],
      [
        ".",
        "\""
      ],
      [
        "Ġwe",
        "re"
      ],
      [
        "t",
        "er"
      ],
      [
        "u",
        "g"
      ],
      [
        "Ġl",
        "oo"
      ],
      [
        "Ġl",
        "o"
      ],
      [
        "e",
        "c"
      ],
      [
        "o",
        "re"
      ],
      [
        "Ġb",
        "o"
      ],
      [
        "ĠT",
        "im"
      ],
      [
        "Ġh",
        "im"
      ],
      [
        "!",
        "\""
      ],
      [
        "Ġg",
        "o"
      ],
      [
        "Ġto",
        "o"
      ],
      [
        "Ġup",
        "on"
      ],
      [
        "ir",
        "l"
      ],
      [
        "Ġ",
        "j"
      ],
      [
        "Ġwant",
        "ed"
      ],
      [
        "Ġs",
        "e"
      ],
      [
        "Ġg",
        "irl"
      ],
      [
        "Ġ",
        "out"
      ],
      [
        "ar",
        "d"
      ],
      [
        "w",
        "ay"
      ],
      [
        "Ġs",
        "p"
      ],
      [
        "il",
        "l"
      ],
      [
        "Ġthe",
        "m"
      ],
      [
        "i",
        "nd"
      ],
      [
        "f",
        "u"
      ],
      [
        "Ġa",
        "t"
      ],
      [
        "Ġc",
        "ould"
      ],
      [
        "he",
        "n"
      ],
      [
        "u",
        "r"
      ],
      [
        "Ġd",
        "id"
      ],
      [
        "Ġ",
        "A"
      ],
      [
        "Ġthe",
        "ir"
      ],
      [
        "Ġa",
        "re"
      ],
      [
        "Ġsm",
        "il"
      ],
      [
        "Ġe",
        "x"
      ],
      [
        "a",
        "in"
      ],
      [
        "Ġw",
        "ent"
      ],
      [
        "he",
        "d"
      ],
      [
        "i",
        "c"
      ],
      [
        "ar",
        "t"
      ],
      [
        "r",
        "om"
      ],
      [
        "r",
        "ound"
      ],
      [
        "Ġha",
        "ve"
      ],
      [
        "l",
        "p"
      ],
      [
        "Ġn",
        "am"
      ],
      [
        "Ġ",
        "J"
      ],
      [
        "Ġa",
        "ll"
      ],
      [
        "fu",
        "l"
      ],
      [
        "Ġk",
        "n"
      ],
      [
        "h",
        "ing"
      ],
      [
        "oo",
        "d"
      ],
      [
        "Ġhe",
        "lp"
      ],
      [
        "ig",
        "ht"
      ],
      [
        "Ġfriend",
        "s"
      ],
      [
        "ar",
        "k"
      ],
      [
        "on",
        "e"
      ],
      [
        "u",
        "m"
      ],
      [
        "Ġb",
        "ack"
      ],
      [
        "Ġc",
        "an"
      ],
      [
        "Ġnam",
        "ed"
      ],
      [
        "Ġc",
        "l"
      ],
      [
        "?",
        "\""
      ],
      [
        "Ġf",
        "un"
      ],
      [
        "ĠB",
        "en"
      ],
      [
        "a",
        "re"
      ],
      [
        "Ġlo",
        "ved"
      ],
      [
        "ĠTim",
        "my"
      ],
      [
        "o",
        "p"
      ],
      [
        "Ġa",
        "l"
      ],
      [
        "el",
        "t"
      ],
      [
        "Ġ",
        "One"
      ],
      [
        "s",
        "ide"
      ],
      [
        "Ġl",
        "e"
      ],
      [
        "Ġn",
        "o"
      ],
      [
        "Ġs",
        "c"
      ],
      [
        "Ġf",
        "elt"
      ],
      [
        "ou",
        "g"
      ],
      [
        "ĠT",
        "om"
      ],
      [
        "Ġsmil",
        "ed"
      ],
      [
        "i",
        "ck"
      ],
      [
        "Y",
        "ou"
      ],
      [
        "Ġas",
        "ked"
      ],
      [
        "Ġto",
        "y"
      ],
      [
        "Ġs",
        "ay"
      ],
      [
        "Ġm",
        "an"
      ],
      [
        "Ġa",
        "round"
      ],
      [
        "Ġf",
        "e"
      ],
      [
        "am",
        "e"
      ],
      [
        "Ġ",
        "W"
      ],
      [
        "Ġs",
        "ome"
      ],
      [
        "Ġbo",
        "y"
      ],
      [
        "Ġloo",
        "ked"
      ],
      [
        "u",
        "re"
      ],
      [
        "om",
        "et"
      ],
      [
        "Ġw",
        "ould"
      ],
      [
        "Ġb",
        "r"
      ],
      [
        "Ġm",
        "e"
      ],
      [
        "Ġb",
        "ir"
      ],
      [
        "Ġli",
        "ke"
      ],
      [
        "Ġr",
        "o"
      ],
      [
        "a",
        "s"
      ],
      [
        "Ġst",
        "art"
      ],
      [
        "g",
        "et"
      ],
      [
        "Ġse",
        "e"
      ],
      [
        "i",
        "ce"
      ],
      [
        "on",
        "g"
      ],
      [
        "Ġbir",
        "d"
      ],
      [
        "Ġs",
        "omet"
      ],
      [
        "d",
        "d"
      ],
      [
        "i",
        "e"
      ],
      [
        "Ġw",
        "or"
      ],
      [
        "ad",
        "e"
      ],
      [
        "Ġa",
        "g"
      ],
      [
        "ow",
        "n"
      ],
      [
        "k",
        "ing"
      ],
      [
        "Ġf",
        "a"
      ],
      [
        "Ġa",
        "way"
      ],
      [
        "ing",
        "s"
      ],
      [
        "Ġwh",
        "at"
      ],
      [
        "Ġt",
        "re"
      ],
      [
        "â",
        "Ģ"
      ],
      [
        "Ġr",
        "an"
      ],
      [
        "Ġstart",
        "ed"
      ],
      [
        "get",
        "her"
      ],
      [
        "ar",
        "ed"
      ],
      [
        "Ġm",
        "ake"
      ],
      [
        "ĠB",
        "ut"
      ],
      [
        "it",
        "ed"
      ],
      [
        "i",
        "f"
      ],
      [
        "ou",
        "d"
      ],
      [
        "Ġm",
        "ade"
      ],
      [
        "Ġto",
        "gether"
      ],
      [
        "Ġsomet",
        "hing"
      ],
      [
        "a",
        "g"
      ],
      [
        "Ġex",
        "c"
      ],
      [
        "Ġc",
        "o"
      ],
      [
        "Ġp",
        "ark"
      ],
      [
        "Ġne",
        "w"
      ],
      [
        "Ġsa",
        "d"
      ],
      [
        ",",
        "\""
      ],
      [
        "e",
        "ll"
      ],
      [
        "Ġc",
        "ar"
      ],
      [
        "Ġp",
        "ut"
      ],
      [
        "Ġf",
        "rom"
      ],
      [
        "b",
        "le"
      ],
      [
        "Ġp",
        "r"
      ],
      [
        "t",
        "her"
      ],
      [
        "Ġm",
        "u"
      ],
      [
        "Ġ",
        "You"
      ],
      [
        "Ġthe",
        "n"
      ],
      [
        "Ġh",
        "ome"
      ],
      [
        "Ġw",
        "hen"
      ],
      [
        "Ġag",
        "ain"
      ],
      [
        "Ġo",
        "ther"
      ],
      [
        "Ġf",
        "ound"
      ],
      [
        "Ġd",
        "ec"
      ],
      [
        "Ġwh",
        "o"
      ],
      [
        "Ġl",
        "a"
      ],
      [
        "s",
        "s"
      ],
      [
        "Ġc",
        "h"
      ],
      [
        "ri",
        "ed"
      ],
      [
        "oo",
        "k"
      ],
      [
        "Ġh",
        "ug"
      ],
      [
        "Ġ",
        "L"
      ],
      [
        "Ġg",
        "ood"
      ],
      [
        "pp",
        "ed"
      ],
      [
        "Ġsay",
        "s"
      ],
      [
        "Ġwa",
        "l"
      ],
      [
        "all",
        "y"
      ],
      [
        "es",
        "t"
      ],
      [
        "e",
        "p"
      ],
      [
        "Ġf",
        "l"
      ],
      [
        "Ġ",
        "E"
      ],
      [
        "p",
        "l"
      ],
      [
        "q",
        "u"
      ],
      [
        "Ġg",
        "et"
      ],
      [
        "a",
        "ch"
      ],
      [
        "Ġexc",
        "ited"
      ],
      [
        "oug",
        "ht"
      ],
      [
        "Ġplay",
        "ing"
      ],
      [
        "Ġg",
        "ot"
      ],
      [
        "ou",
        "s"
      ],
      [
        "Ġs",
        "w"
      ],
      [
        "id",
        "ed"
      ],
      [
        "Ġth",
        "ings"
      ],
      [
        "u",
        "ck"
      ],
      [
        "h",
        "at"
      ],
      [
        "n",
        "y"
      ],
      [
        "Ġdec",
        "ided"
      ],
      [
        "Ġe",
        "very"
      ],
      [
        "Ġc",
        "ame"
      ],
      [
        "Ġbe",
        "c"
      ],
      [
        "Ġb",
        "l"
      ],
      [
        "a",
        "ve"
      ],
      [
        "a",
        "x"
      ],
      [
        "r",
        "o"
      ],
      [
        "Ġli",
        "ked"
      ],
      [
        "Ġd",
        "own"
      ],
      [
        "Ġdo",
        "g"
      ],
      [
        "Ġsc",
        "ared"
      ],
      [
        "Ġ",
        "v"
      ],
      [
        "u",
        "e"
      ],
      [
        "u",
        "dd"
      ],
      [
        "u",
        "st"
      ],
      [
        "Ġon",
        "e"
      ],
      [
        "Ġf",
        "ind"
      ],
      [
        "a",
        "p"
      ],
      [
        "Ġdid",
        "n"
      ],
      [
        "Ġth",
        "an"
      ],
      [
        "Ġkn",
        "e"
      ],
      [
        "way",
        "s"
      ],
      [
        "Ġ",
        "D"
      ],
      [
        "ou",
        "se"
      ],
      [
        "Ġc",
        "are"
      ],
      [
        "Ġmom",
        "my"
      ],
      [
        "Ġd",
        "ad"
      ],
      [
        "Ġal",
        "ways"
      ],
      [
        "Ġa",
        "b"
      ],
      [
        "b",
        "b"
      ],
      [
        "Ġfe",
        "el"
      ],
      [
        "ar",
        "a"
      ],
      [
        "ar",
        "n"
      ],
      [
        "is",
        "t"
      ],
      [
        "f",
        "e"
      ],
      [
        "Ġyou",
        "r"
      ],
      [
        "Ġg",
        "ra"
      ],
      [
        "Ġout",
        "side"
      ],
      [
        "an",
        "t"
      ],
      [
        "ĠM",
        "om"
      ],
      [
        "Ġ",
        "ke"
      ],
      [
        "Ġl",
        "ot"
      ],
      [
        "u",
        "s"
      ],
      [
        "Ġtoo",
        "k"
      ],
      [
        "n",
        "n"
      ],
      [
        "it",
        "e"
      ],
      [
        "es",
        "s"
      ],
      [
        "Ġab",
        "out"
      ],
      [
        "Ġ",
        "F"
      ],
      [
        "nd",
        "er"
      ],
      [
        "Ġtre",
        "e"
      ],
      [
        "Ġloo",
        "k"
      ],
      [
        "ec",
        "i"
      ],
      [
        "Ġm",
        "y"
      ],
      [
        "ou",
        "r"
      ],
      [
        "Ġtoy",
        "s"
      ],
      [
        "Ġp",
        "o"
      ],
      [
        "c",
        "hed"
      ],
      [
        "Ġth",
        "ought"
      ],
      [
        "en",
        "ed"
      ],
      [
        "Ġkne",
        "w"
      ],
      [
        "Ġb",
        "all"
      ],
      [
        "Ġle",
        "arn"
      ],
      [
        "Ġin",
        "t"
      ],
      [
        "Ġm",
        "ore"
      ],
      [
        "is",
        "e"
      ],
      [
        "Ġo",
        "ld"
      ],
      [
        "g",
        "ed"
      ],
      [
        "nn",
        "a"
      ],
      [
        "ĠM",
        "ax"
      ],
      [
        "The",
        "y"
      ],
      [
        "Ġt",
        "a"
      ],
      [
        "udd",
        "en"
      ],
      [
        "Ġw",
        "ill"
      ],
      [
        "er",
        "s"
      ],
      [
        "eci",
        "al"
      ],
      [
        "Ġsp",
        "ecial"
      ],
      [
        "Ġh",
        "o"
      ],
      [
        "ĠS",
        "am"
      ],
      [
        "Ġp",
        "e"
      ],
      [
        "re",
        "t"
      ],
      [
        "Ġt",
        "ake"
      ],
      [
        "Ġkn",
        "ow"
      ],
      [
        "Ġla",
        "ug"
      ],
      [
        "f",
        "ter"
      ],
      [
        "udden",
        "ly"
      ],
      [
        "a",
        "u"
      ],
      [
        "Ġc",
        "at"
      ],
      [
        "Ġt",
        "r"
      ],
      [
        "Ġh",
        "ow"
      ],
      [
        "i",
        "ve"
      ],
      [
        "Ġmu",
        "ch"
      ],
      [
        "Ġan",
        "y"
      ],
      [
        "Ġs",
        "or"
      ],
      [
        "Ġs",
        "l"
      ],
      [
        "m",
        "a"
      ],
      [
        "v",
        "en"
      ],
      [
        "is",
        "h"
      ],
      [
        "Ġm",
        "o"
      ],
      [
        "Ġsh",
        "ow"
      ],
      [
        "in",
        "k"
      ],
      [
        "au",
        "se"
      ],
      [
        "Ġcould",
        "n"
      ],
      [
        "B",
        "ut"
      ],
      [
        "um",
        "p"
      ],
      [
        "i",
        "a"
      ],
      [
        "Ġh",
        "ouse"
      ],
      [
        "Ġt",
        "ried"
      ],
      [
        "Ġint",
        "o"
      ],
      [
        "Ġo",
        "ver"
      ],
      [
        "Ġcl",
        "o"
      ],
      [
        "Ġs",
        "un"
      ],
      [
        "Ġs",
        "k"
      ],
      [
        "a",
        "nd"
      ],
      [
        "Ġe",
        "at"
      ],
      [
        "Ġt",
        "w"
      ],
      [
        "Ġin",
        "side"
      ],
      [
        "ĠE",
        "very"
      ],
      [
        "d",
        "y"
      ],
      [
        "Ġr",
        "un"
      ],
      [
        "Ġha",
        "nd"
      ],
      [
        "Ġ",
        "en"
      ],
      [
        "Ġ",
        "if"
      ],
      [
        "Ġ",
        "qu"
      ],
      [
        "Ġto",
        "ld"
      ],
      [
        "Ġg",
        "re"
      ],
      [
        "Ġpr",
        "oud"
      ],
      [
        "Ġne",
        "ver"
      ],
      [
        "i",
        "on"
      ],
      [
        "Ġbec",
        "ause"
      ],
      [
        "Ġsor",
        "ry"
      ],
      [
        "b",
        "y"
      ],
      [
        "Ġo",
        "p"
      ],
      [
        "Ġg",
        "ave"
      ],
      [
        "Ġbo",
        "x"
      ],
      [
        "Ġo",
        "r"
      ],
      [
        "Ġplay",
        "ed"
      ],
      [
        "at",
        "e"
      ],
      [
        "Ġth",
        "is"
      ],
      [
        "Ġex",
        "pl"
      ],
      [
        "Ġhe",
        "ard"
      ],
      [
        "an",
        "k"
      ],
      [
        "t",
        "y"
      ],
      [
        "Ġro",
        "om"
      ],
      [
        "g",
        "e"
      ],
      [
        "Ġwa",
        "ter"
      ],
      [
        "ot",
        "her"
      ],
      [
        "Ġr",
        "a"
      ],
      [
        "Ġp",
        "ick"
      ],
      [
        "et",
        "ter"
      ],
      [
        "Ġj",
        "ust"
      ],
      [
        "Ġhug",
        "ged"
      ],
      [
        "a",
        "k"
      ],
      [
        "he",
        "re"
      ],
      [
        "Ġof",
        "f"
      ],
      [
        "Ġp",
        "ret"
      ],
      [
        "Ġe",
        "ach"
      ],
      [
        "ĠS",
        "ara"
      ],
      [
        "s",
        "ed"
      ],
      [
        "Ġb",
        "u"
      ],
      [
        "Ġl",
        "ong"
      ],
      [
        "Ġc",
        "om"
      ],
      [
        "il",
        "e"
      ],
      [
        "or",
        "t"
      ],
      [
        "Ġbe",
        "ar"
      ],
      [
        "Ġu",
        "nt"
      ],
      [
        "ĠW",
        "e"
      ],
      [
        "Ġst",
        "r"
      ],
      [
        "in",
        "e"
      ],
      [
        "Ġne",
        "ed"
      ],
      [
        "i",
        "z"
      ],
      [
        "Ġwa",
        "t"
      ],
      [
        "ot",
        "h"
      ],
      [
        "T",
        "om"
      ],
      [
        "Ġj",
        "o"
      ],
      [
        "Ġunt",
        "il"
      ],
      [
        "M",
        "om"
      ],
      [
        "Ġsm",
        "all"
      ],
      [
        "Ġn",
        "ice"
      ],
      [
        "Ġt",
        "ry"
      ],
      [
        "u",
        "c"
      ],
      [
        "v",
        "ing"
      ],
      [
        "s",
        "el"
      ],
      [
        "oug",
        "h"
      ],
      [
        "Ġlearn",
        "ed"
      ],
      [
        "il",
        "d"
      ],
      [
        "ĠA",
        "nna"
      ],
      [
        "Ġk",
        "ind"
      ],
      [
        "Ġman",
        "y"
      ],
      [
        "Ġb",
        "etter"
      ],
      [
        "'",
        "m"
      ],
      [
        "Ġf",
        "o"
      ],
      [
        "g",
        "ry"
      ],
      [
        "Ġ",
        "im"
      ],
      [
        "ĠJ",
        "ack"
      ],
      [
        "f",
        "t"
      ],
      [
        "Ġe",
        "nd"
      ],
      [
        "ur",
        "t"
      ],
      [
        "Ġs",
        "n"
      ],
      [
        "im",
        "al"
      ],
      [
        "Ġan",
        "imal"
      ],
      [
        "u",
        "ll"
      ],
      [
        "a",
        "ut"
      ],
      [
        "Ġc",
        "le"
      ],
      [
        "Ġt",
        "e"
      ],
      [
        "ĠJ",
        "o"
      ],
      [
        "v",
        "ent"
      ],
      [
        "ur",
        "p"
      ],
      [
        "Ġg",
        "r"
      ],
      [
        "re",
        "am"
      ],
      [
        "Ġc",
        "he"
      ],
      [
        "Ġbe",
        "aut"
      ],
      [
        "m",
        "b"
      ],
      [
        "Ġj",
        "ump"
      ],
      [
        "Ġa",
        "d"
      ],
      [
        "ĠH",
        "er"
      ],
      [
        "i",
        "es"
      ],
      [
        "p",
        "t"
      ],
      [
        "Ġb",
        "ra"
      ],
      [
        "Ġe",
        "ven"
      ],
      [
        "Ġb",
        "est"
      ],
      [
        "ĠS",
        "o"
      ],
      [
        "Ġfl",
        "ow"
      ],
      [
        "Ġthan",
        "ked"
      ],
      [
        "Ġc",
        "all"
      ],
      [
        "Ġlot",
        "s"
      ],
      [
        "ad",
        "y"
      ],
      [
        "H",
        "e"
      ],
      [
        "Ġlaug",
        "hed"
      ],
      [
        "a",
        "ce"
      ],
      [
        "ur",
        "n"
      ],
      [
        "sel",
        "f"
      ],
      [
        "Ġb",
        "y"
      ],
      [
        "ll",
        "y"
      ],
      [
        "ar",
        "s"
      ],
      [
        "Ġwa",
        "y"
      ],
      [
        "Ġfa",
        "st"
      ],
      [
        "Ġf",
        "am"
      ],
      [
        "Ġ",
        "C"
      ],
      [
        "v",
        "es"
      ],
      [
        "ard",
        "en"
      ],
      [
        "Ġg",
        "arden"
      ],
      [
        "Ġbeaut",
        "i"
      ],
      [
        "w",
        "n"
      ],
      [
        "Ġbeauti",
        "ful"
      ],
      [
        "T",
        "h"
      ],
      [
        "Ġl",
        "oud"
      ],
      [
        "Ġsk",
        "y"
      ],
      [
        "h",
        "n"
      ],
      [
        "Ġd",
        "on"
      ],
      [
        "le",
        "w"
      ],
      [
        "er",
        "ed"
      ],
      [
        "Ġcare",
        "ful"
      ],
      [
        "Ġlo",
        "ve"
      ],
      [
        "âĢ",
        "Ŀ"
      ],
      [
        "Ġf",
        "i"
      ],
      [
        "Ġsa",
        "fe"
      ],
      [
        "âĢ",
        "ľ"
      ],
      [
        "in",
        "y"
      ],
      [
        "ĠThe",
        "n"
      ],
      [
        "ec",
        "t"
      ],
      [
        "a",
        "se"
      ],
      [
        "Ġc",
        "ome"
      ],
      [
        "ĠM",
        "ia"
      ],
      [
        "ĠA",
        "nd"
      ],
      [
        "Y",
        "es"
      ],
      [
        "ĠF",
        "rom"
      ],
      [
        "Ġh",
        "ard"
      ],
      [
        "Ġw",
        "o"
      ],
      [
        "Ġu",
        "nder"
      ],
      [
        "m",
        "e"
      ],
      [
        "an",
        "e"
      ],
      [
        "I",
        "t"
      ],
      [
        "Ġst",
        "ay"
      ],
      [
        "op",
        "le"
      ],
      [
        "Ġl",
        "ist"
      ],
      [
        "Ġg",
        "l"
      ],
      [
        "oo",
        "l"
      ],
      [
        "Ġst",
        "ill"
      ],
      [
        "n",
        "ing"
      ],
      [
        "Ġh",
        "urt"
      ],
      [
        "re",
        "e"
      ],
      [
        "Ġha",
        "s"
      ],
      [
        "ĠH",
        "is"
      ],
      [
        "Ġim",
        "p"
      ],
      [
        "Ġb",
        "oth"
      ],
      [
        "Ġfam",
        "ily"
      ],
      [
        "r",
        "m"
      ],
      [
        "he",
        "s"
      ],
      [
        "Ġpe",
        "ople"
      ],
      [
        "Ġanimal",
        "s"
      ],
      [
        "Ġco",
        "l"
      ],
      [
        "Ġr",
        "ed"
      ],
      [
        "W",
        "hen"
      ],
      [
        "Ġc",
        "u"
      ],
      [
        "ig",
        "h"
      ],
      [
        "Ġbra",
        "ve"
      ],
      [
        "Ġli",
        "ved"
      ],
      [
        "Ġwal",
        "ked"
      ],
      [
        "c",
        "t"
      ],
      [
        "T",
        "im"
      ],
      [
        "urp",
        "r"
      ],
      [
        "o",
        "b"
      ],
      [
        "Ġs",
        "urpr"
      ],
      [
        "ĠW",
        "hen"
      ],
      [
        "Ġtw",
        "o"
      ],
      [
        "Ġb",
        "ad"
      ],
      [
        "Ġl",
        "et"
      ],
      [
        "re",
        "ss"
      ],
      [
        "is",
        "hed"
      ],
      [
        "Ġsh",
        "ould"
      ],
      [
        "Ġ",
        "âĢľ"
      ],
      [
        "Ġf",
        "ore"
      ],
      [
        "i",
        "p"
      ],
      [
        "Ġke",
        "pt"
      ],
      [
        "Ġb",
        "ook"
      ],
      [
        "Ġst",
        "or"
      ],
      [
        "Ġf",
        "in"
      ],
      [
        "a",
        "st"
      ],
      [
        "Ġf",
        "lew"
      ],
      [
        "is",
        "ed"
      ],
      [
        "Ġf",
        "ly"
      ],
      [
        "Ġit",
        "s"
      ],
      [
        "l",
        "ed"
      ],
      [
        "o",
        "ck"
      ],
      [
        "Ġd",
        "an"
      ],
      [
        "Ġcle",
        "an"
      ],
      [
        "Ġp",
        "ic"
      ],
      [
        "uc",
        "y"
      ],
      [
        "f",
        "ore"
      ],
      [
        "Ġgo",
        "ing"
      ],
      [
        "k",
        "ay"
      ],
      [
        "Ġcall",
        "ed"
      ],
      [
        "Ġan",
        "gry"
      ],
      [
        "Ġsh",
        "are"
      ],
      [
        "Ġ",
        "ide"
      ],
      [
        "Ġso",
        "on"
      ],
      [
        "N",
        "o"
      ],
      [
        "Ġc",
        "on"
      ],
      [
        "Ġpret",
        "ty"
      ],
      [
        "Ġro",
        "ck"
      ],
      [
        "i",
        "ed"
      ],
      [
        "il",
        "ly"
      ],
      [
        "x",
        "t"
      ],
      [
        "Ġg",
        "round"
      ],
      [
        "Ġexpl",
        "ore"
      ],
      [
        "s",
        "o"
      ],
      [
        "Ġw",
        "ind"
      ],
      [
        "b",
        "e"
      ],
      [
        "Ġre",
        "al"
      ],
      [
        "L",
        "et"
      ],
      [
        "Ġst",
        "o"
      ],
      [
        "Ġc",
        "ry"
      ],
      [
        "Ġad",
        "vent"
      ],
      [
        "Ġdo",
        "ll"
      ],
      [
        "Ġal",
        "so"
      ],
      [
        "Ġide",
        "a"
      ],
      [
        "Ġop",
        "ened"
      ],
      [
        "Ġsh",
        "iny"
      ],
      [
        "o",
        "y"
      ],
      [
        "Ġbe",
        "fore"
      ],
      [
        "Ġe",
        "y"
      ],
      [
        "dd",
        "ed"
      ],
      [
        "um",
        "my"
      ],
      [
        "Ġfeel",
        "ing"
      ],
      [
        "Ġwh",
        "ile"
      ],
      [
        "Ġn",
        "ow"
      ],
      [
        "Ġdo",
        "or"
      ],
      [
        "Ġke",
        "ep"
      ],
      [
        "le",
        "s"
      ],
      [
        "o",
        "on"
      ],
      [
        "Ġwal",
        "king"
      ],
      [
        "Ġno",
        "ise"
      ],
      [
        "Ġf",
        "r"
      ],
      [
        "Ġt",
        "urn"
      ],
      [
        "ag",
        "e"
      ],
      [
        "Ġcol",
        "or"
      ],
      [
        "i",
        "ous"
      ],
      [
        "Ġb",
        "ed"
      ],
      [
        "t",
        "hing"
      ],
      [
        "u",
        "ch"
      ],
      [
        "f",
        "f"
      ],
      [
        "t",
        "h"
      ],
      [
        "Ġd",
        "ra"
      ],
      [
        "Ġf",
        "ar"
      ],
      [
        "Ġpick",
        "ed"
      ],
      [
        "ar",
        "y"
      ],
      [
        "im",
        "b"
      ],
      [
        "t",
        "ure"
      ],
      [
        "Ġd",
        "el"
      ],
      [
        "Ġbe",
        "ing"
      ],
      [
        "a",
        "c"
      ],
      [
        "Ġcl",
        "imb"
      ],
      [
        "W",
        "hat"
      ],
      [
        "âĢ",
        "Ļ"
      ],
      [
        "e",
        "et"
      ],
      [
        "Ġu",
        "n"
      ],
      [
        "Ġf",
        "ood"
      ],
      [
        "Ġw",
        "r"
      ],
      [
        "Ġd",
        "if"
      ],
      [
        "Ġadvent",
        "ure"
      ],
      [
        "Ġth",
        "r"
      ],
      [
        "ug",
        "ht"
      ],
      [
        "Ġsmil",
        "e"
      ],
      [
        "Ġbl",
        "ue"
      ],
      [
        "me",
        "mb"
      ],
      [
        "Ġne",
        "xt"
      ],
      [
        "ic",
        "ed"
      ],
      [
        "j",
        "oy"
      ],
      [
        "Ġloo",
        "king"
      ],
      [
        "Ġd",
        "is"
      ],
      [
        "Ġqu",
        "ick"
      ],
      [
        "ĠL",
        "ucy"
      ],
      [
        "bb",
        "it"
      ],
      [
        "Ġ",
        "P"
      ],
      [
        "Ġclo",
        "s"
      ],
      [
        "Ġre",
        "pl"
      ],
      [
        "Ġno",
        "dded"
      ],
      [
        "Ġfore",
        "st"
      ],
      [
        "Ġey",
        "es"
      ],
      [
        "Ġy",
        "ell"
      ],
      [
        "Ġpic",
        "ture"
      ],
      [
        "g",
        "er"
      ],
      [
        "Ġo",
        "wn"
      ],
      [
        "iz",
        "ed"
      ],
      [
        "ĠD",
        "ad"
      ],
      [
        "t",
        "ed"
      ],
      [
        "ĠS",
        "uddenly"
      ],
      [
        "Ġwa",
        "it"
      ],
      [
        "T",
        "hat"
      ],
      [
        "Ġre",
        "memb"
      ],
      [
        "Ġgre",
        "at"
      ],
      [
        "Ġimp",
        "ort"
      ],
      [
        "Ġt",
        "ra"
      ],
      [
        "Ġsto",
        "pped"
      ],
      [
        "S",
        "uddenly"
      ],
      [
        "Th",
        "ank"
      ],
      [
        "Ġv",
        "o"
      ],
      [
        "Ġr",
        "ain"
      ],
      [
        "Ġg",
        "ive"
      ],
      [
        "B",
        "en"
      ],
      [
        "Ġ",
        "G"
      ],
      [
        "Ġen",
        "joy"
      ],
      [
        "Ġa",
        "pp"
      ],
      [
        "Ġne",
        "ar"
      ],
      [
        "Ġimport",
        "ant"
      ],
      [
        "g",
        "an"
      ],
      [
        "Ġquick",
        "ly"
      ],
      [
        "Ġra",
        "bbit"
      ],
      [
        "Ġe",
        "ver"
      ],
      [
        "Ġwor",
        "k"
      ],
      [
        "t",
        "ing"
      ],
      [
        "Ġf",
        "ish"
      ],
      [
        "Ġa",
        "fter"
      ],
      [
        "Ġtr",
        "uck"
      ],
      [
        "bb",
        "ed"
      ],
      [
        "Ġlist",
        "en"
      ],
      [
        "Ġb",
        "re"
      ],
      [
        "Ġth",
        "ink"
      ],
      [
        "Ġbr",
        "o"
      ],
      [
        "Ġrepl",
        "ied"
      ],
      [
        "Ġnot",
        "iced"
      ],
      [
        "Ġm",
        "a"
      ],
      [
        "Ġhand",
        "s"
      ],
      [
        "p",
        "ot"
      ],
      [
        "Ġwal",
        "k"
      ],
      [
        "Ġsl",
        "ide"
      ],
      [
        "k",
        "es"
      ],
      [
        "S",
        "he"
      ],
      [
        "Ġa",
        "c"
      ],
      [
        "Ġshow",
        "ed"
      ],
      [
        "Ġevery",
        "one"
      ],
      [
        "ir",
        "st"
      ],
      [
        "Ġwo",
        "nder"
      ],
      [
        "fe",
        "re"
      ],
      [
        "Ġdif",
        "fere"
      ],
      [
        "S",
        "o"
      ],
      [
        "Ġ",
        "R"
      ],
      [
        "Ġd",
        "e"
      ],
      [
        "Ġto",
        "w"
      ],
      [
        "Ġs",
        "ound"
      ],
      [
        "Ġs",
        "ure"
      ],
      [
        "by",
        "e"
      ],
      [
        "Ġr",
        "ight"
      ],
      [
        "ma",
        "z"
      ],
      [
        "Ġstr",
        "ong"
      ],
      [
        "Ġsh",
        "out"
      ],
      [
        "Ġa",
        "maz"
      ],
      [
        "Ġt",
        "al"
      ],
      [
        "Ġhe",
        "ad"
      ],
      [
        "Ġbe",
        "en"
      ],
      [
        "Ġbec",
        "ame"
      ],
      [
        "Ġme",
        "an"
      ],
      [
        "Ġm",
        "or"
      ],
      [
        "Ġbr",
        "ight"
      ],
      [
        "Ġch",
        "ild"
      ],
      [
        "ay",
        "be"
      ],
      [
        "Ġy",
        "e"
      ],
      [
        "Ġfa",
        "ce"
      ],
      [
        "Ġwat",
        "ched"
      ],
      [
        "Ġw",
        "here"
      ],
      [
        "ĠS",
        "ue"
      ],
      [
        "Ġd",
        "ress"
      ],
      [
        "Ġwat",
        "ch"
      ],
      [
        "ll",
        "ow"
      ],
      [
        "a",
        "ble"
      ],
      [
        "a",
        "ught"
      ],
      [
        "Ġc",
        "ook"
      ],
      [
        "Ġdiffere",
        "nt"
      ],
      [
        "d",
        "ay"
      ],
      [
        "Ġh",
        "igh"
      ],
      [
        "Ġ",
        "N"
      ],
      [
        "n",
        "g"
      ],
      [
        "Ġbo",
        "at"
      ],
      [
        "Ġo",
        "kay"
      ],
      [
        "Ġgood",
        "bye"
      ],
      [
        "an",
        "ge"
      ],
      [
        "ĠB",
        "ob"
      ],
      [
        "Ġs",
        "qu"
      ],
      [
        "Ġu",
        "s"
      ],
      [
        "Ġst",
        "ore"
      ],
      [
        "Ġvo",
        "ice"
      ],
      [
        "Ġn",
        "ight"
      ],
      [
        "Ġclos",
        "er"
      ],
      [
        "J",
        "o"
      ],
      [
        "at",
        "h"
      ],
      [
        "le",
        "ase"
      ],
      [
        "Ġa",
        "r"
      ],
      [
        "Ġpl",
        "ace"
      ],
      [
        "ĠMom",
        "my"
      ],
      [
        "Ġfo",
        "llow"
      ],
      [
        "Ġu",
        "se"
      ],
      [
        "Ġp",
        "u"
      ],
      [
        "le",
        "ep"
      ],
      [
        "Ġfa",
        "v"
      ],
      [
        "Ġflow",
        "ers"
      ],
      [
        "Ġb",
        "us"
      ],
      [
        "ir",
        "ed"
      ],
      [
        "is",
        "y"
      ],
      [
        "un",
        "ny"
      ],
      [
        "Ġcu",
        "ri"
      ],
      [
        "Ġgra",
        "bbed"
      ],
      [
        "Ġst",
        "ick"
      ],
      [
        "Ġc",
        "r"
      ],
      [
        "ĠJo",
        "hn"
      ],
      [
        "Ġfor",
        "g"
      ],
      [
        "ĠS",
        "pot"
      ],
      [
        "Ġm",
        "ag"
      ],
      [
        "W",
        "e"
      ],
      [
        "Ġc",
        "ake"
      ],
      [
        "Ġwa",
        "rm"
      ],
      [
        "Ġjump",
        "ed"
      ],
      [
        "m",
        "ore"
      ],
      [
        "Ġany",
        "more"
      ],
      [
        "Ġbut",
        "ter"
      ],
      [
        "ĠSara",
        "h"
      ],
      [
        "A",
        "fter"
      ],
      [
        "Ġas",
        "k"
      ],
      [
        "Ġt",
        "ell"
      ],
      [
        "Ġcuri",
        "ous"
      ],
      [
        "ou",
        "nt"
      ],
      [
        "Ġfe",
        "ll"
      ],
      [
        "Ġth",
        "ree"
      ],
      [
        "l",
        "ie"
      ],
      [
        "Ġ",
        "our"
      ],
      [
        "a",
        "ched"
      ],
      [
        "c",
        "o"
      ],
      [
        "or",
        "n"
      ],
      [
        "nd",
        "ma"
      ],
      [
        "as",
        "s"
      ],
      [
        "ĠT",
        "h"
      ],
      [
        "Ġbird",
        "s"
      ],
      [
        "Ġcon",
        "t"
      ],
      [
        "H",
        "er"
      ],
      [
        "ĠJ",
        "ane"
      ],
      [
        "Ġbl",
        "ock"
      ],
      [
        "Ġf",
        "irst"
      ],
      [
        "Ġhelp",
        "ed"
      ],
      [
        "is",
        "s"
      ],
      [
        "Ġp",
        "ull"
      ],
      [
        "Ġh",
        "at"
      ],
      [
        "Ġyell",
        "ow"
      ],
      [
        "Ġh",
        "op"
      ],
      [
        "il",
        "a"
      ],
      [
        "Ġr",
        "u"
      ],
      [
        "Ġb",
        "it"
      ],
      [
        "it",
        "c"
      ],
      [
        "Ġm",
        "on"
      ],
      [
        "S",
        "ara"
      ],
      [
        "ĠEvery",
        "one"
      ],
      [
        "Ġk",
        "id"
      ],
      [
        "L",
        "ook"
      ],
      [
        "Ġreal",
        "ized"
      ],
      [
        "Ġd",
        "r"
      ],
      [
        "Ġ",
        "z"
      ],
      [
        "pp",
        "y"
      ],
      [
        "A",
        "nna"
      ],
      [
        "Ġbr",
        "other"
      ],
      [
        "Ġst",
        "op"
      ],
      [
        "z",
        "y"
      ],
      [
        "Ġdo",
        "es"
      ],
      [
        "Ġp",
        "er"
      ],
      [
        "Ġat",
        "e"
      ],
      [
        "Ġhapp",
        "ened"
      ],
      [
        "Ġgre",
        "en"
      ],
      [
        "im",
        "es"
      ],
      [
        "Ġsw",
        "eet"
      ],
      [
        "Ġfav",
        "or"
      ],
      [
        "Ġk",
        "itc"
      ],
      [
        "Ġkitc",
        "hen"
      ],
      [
        "Ġre",
        "ally"
      ],
      [
        "Ġgra",
        "ss"
      ],
      [
        "Ġfavor",
        "ite"
      ],
      [
        "Ġy",
        "ummy"
      ],
      [
        "ĠA",
        "s"
      ],
      [
        "Ġbe",
        "gan"
      ],
      [
        "Ġre",
        "st"
      ],
      [
        "Ġp",
        "ain"
      ],
      [
        "Ġle",
        "a"
      ],
      [
        "Ġre",
        "ached"
      ],
      [
        "a",
        "ir"
      ],
      [
        "Ġre",
        "ady"
      ],
      [
        "Ġunder",
        "st"
      ],
      [
        "Ġfl",
        "o"
      ],
      [
        "'",
        "re"
      ],
      [
        "Ġs",
        "ing"
      ],
      [
        "Ġhe",
        "re"
      ],
      [
        "Ġsa",
        "nd"
      ],
      [
        "Ġstor",
        "y"
      ],
      [
        "Ġa",
        "m"
      ],
      [
        "Ġwor",
        "ld"
      ],
      [
        "st",
        "er"
      ],
      [
        "Ġt",
        "ri"
      ],
      [
        "Ġon",
        "ly"
      ],
      [
        "Ġbe",
        "h"
      ],
      [
        "Ġpr",
        "in"
      ],
      [
        "Ġop",
        "en"
      ],
      [
        "Ġgl",
        "ad"
      ],
      [
        "Ġst",
        "e"
      ],
      [
        "Ġb",
        "a"
      ],
      [
        "are",
        "nt"
      ],
      [
        "a",
        "isy"
      ],
      [
        "Ġthr",
        "ough"
      ],
      [
        "w",
        "here"
      ],
      [
        "Ġb",
        "unny"
      ],
      [
        "Ġc",
        "re"
      ],
      [
        "Ġflow",
        "er"
      ],
      [
        "Ġhim",
        "self"
      ],
      [
        "Ġfi",
        "re"
      ],
      [
        "Ġdel",
        "ic"
      ],
      [
        "Ġt",
        "ired"
      ],
      [
        "Ġha",
        "ving"
      ],
      [
        "Ġso",
        "ft"
      ],
      [
        "fu",
        "lly"
      ],
      [
        "Ġm",
        "ess"
      ],
      [
        "Ġp",
        "arent"
      ],
      [
        "Ġbutter",
        "f"
      ],
      [
        "Ġf",
        "ro"
      ],
      [
        "Ġd",
        "one"
      ],
      [
        "Ġth",
        "ing"
      ],
      [
        "ĠL",
        "et"
      ],
      [
        "C",
        "an"
      ],
      [
        "Tim",
        "my"
      ],
      [
        "Ġwh",
        "y"
      ],
      [
        "Mom",
        "my"
      ],
      [
        "Ġc",
        "ut"
      ],
      [
        "o",
        "lly"
      ],
      [
        "k",
        "en"
      ],
      [
        "Ġta",
        "st"
      ],
      [
        "i",
        "ver"
      ],
      [
        "Ġp",
        "art"
      ],
      [
        "Ġd",
        "in"
      ],
      [
        "Ġmag",
        "ic"
      ],
      [
        "Ġwa",
        "ved"
      ],
      [
        "Ġshout",
        "ed"
      ],
      [
        "Ġwor",
        "ry"
      ],
      [
        "Ġd",
        "uck"
      ],
      [
        "u",
        "ff"
      ],
      [
        "Ġg",
        "ame"
      ],
      [
        "Ġkid",
        "s"
      ],
      [
        "Ġse",
        "es"
      ],
      [
        "at",
        "her"
      ],
      [
        "ill",
        "ed"
      ],
      [
        "ed",
        "dy"
      ],
      [
        "at",
        "er"
      ],
      [
        "i",
        "ent"
      ],
      [
        "s",
        "h"
      ],
      [
        "Jo",
        "hn"
      ],
      [
        "Ġpo",
        "nd"
      ],
      [
        "Ġcat",
        "ch"
      ],
      [
        "Ġma",
        "king"
      ],
      [
        "at",
        "ion"
      ],
      [
        "Ġcom",
        "ing"
      ],
      [
        "ak",
        "es"
      ],
      [
        "A",
        "s"
      ],
      [
        "Ġl",
        "ess"
      ],
      [
        "Ġc",
        "ool"
      ],
      [
        "Ġfi",
        "x"
      ],
      [
        "Ġu",
        "sed"
      ],
      [
        "Ġl",
        "ady"
      ],
      [
        "Ġse",
        "en"
      ],
      [
        "Ġho",
        "pped"
      ],
      [
        "Ġd",
        "ark"
      ],
      [
        "Ġthan",
        "k"
      ],
      [
        "\"",
        "."
      ],
      [
        "ĠJo",
        "e"
      ],
      [
        "Ġto",
        "p"
      ],
      [
        "m",
        "er"
      ],
      [
        "Ġsurpr",
        "ise"
      ],
      [
        "Ġha",
        "ir"
      ],
      [
        "ĠC",
        "an"
      ],
      [
        "ar",
        "ing"
      ],
      [
        "Ġdra",
        "w"
      ],
      [
        "Ġl",
        "ight"
      ],
      [
        "Ġf",
        "ull"
      ],
      [
        "Ġp",
        "rom"
      ],
      [
        "Ġc",
        "ra"
      ],
      [
        "Ġm",
        "um"
      ],
      [
        "ig",
        "n"
      ],
      [
        "ap",
        "er"
      ],
      [
        "Ġfun",
        "ny"
      ],
      [
        "Ġto",
        "uch"
      ],
      [
        "in",
        "s"
      ],
      [
        "re",
        "l"
      ],
      [
        "Ġsurpr",
        "ised"
      ],
      [
        "Ġd",
        "ro"
      ],
      [
        "Ġ",
        "-"
      ],
      [
        "Ġsp",
        "ot"
      ],
      [
        "ĠBen",
        "ny"
      ],
      [
        "Ġwor",
        "ked"
      ],
      [
        "ĠD",
        "o"
      ],
      [
        "Ġ",
        "ice"
      ],
      [
        "re",
        "n"
      ],
      [
        "Ġdo",
        "ing"
      ],
      [
        "Ġparent",
        "s"
      ],
      [
        "Ġtre",
        "es"
      ],
      [
        "Ġfro",
        "g"
      ],
      [
        "W",
        "ow"
      ],
      [
        "Ġsw",
        "ing"
      ],
      [
        "in",
        "ally"
      ],
      [
        "D",
        "on"
      ],
      [
        "ĠT",
        "hat"
      ],
      [
        "Ġs",
        "at"
      ],
      [
        "Ġpret",
        "end"
      ],
      [
        "ĠI",
        "n"
      ],
      [
        "one",
        "y"
      ],
      [
        "Ġcare",
        "fully"
      ],
      [
        "Ġre",
        "ad"
      ],
      [
        "Ġw",
        "ood"
      ],
      [
        "Ġt",
        "ight"
      ],
      [
        "Ġsl",
        "ow"
      ],
      [
        "Ġneed",
        "ed"
      ],
      [
        "Ġdelic",
        "ious"
      ],
      [
        "Ġho",
        "le"
      ],
      [
        "Ġm",
        "ouse"
      ],
      [
        "Ġp",
        "us"
      ],
      [
        "h",
        "y"
      ],
      [
        "Ġs",
        "et"
      ],
      [
        "Ġblock",
        "s"
      ],
      [
        "Ġsw",
        "im"
      ],
      [
        "Ġhe",
        "ld"
      ],
      [
        "ard",
        "s"
      ],
      [
        "Ġrememb",
        "ered"
      ],
      [
        "Ġco",
        "ld"
      ],
      [
        "Ġd",
        "ri"
      ],
      [
        "Ġlo",
        "st"
      ],
      [
        "Ġbeh",
        "ind"
      ],
      [
        "el",
        "y"
      ],
      [
        "c",
        "ess"
      ],
      [
        "Ġlook",
        "s"
      ],
      [
        "Ġrun",
        "ning"
      ],
      [
        "Ġher",
        "self"
      ],
      [
        "Ġsm",
        "ell"
      ],
      [
        "s",
        "w"
      ],
      [
        "Ġbutterf",
        "ly"
      ],
      [
        "Ġg",
        "i"
      ],
      [
        "Ġc",
        "ried"
      ],
      [
        "i",
        "ke"
      ],
      [
        "as",
        "k"
      ],
      [
        "Ġper",
        "f"
      ],
      [
        "Ġhapp",
        "ily"
      ],
      [
        "Ġnam",
        "e"
      ],
      [
        "Ġenjoy",
        "ed"
      ],
      [
        "Ġs",
        "leep"
      ],
      [
        "Ġb",
        "ag"
      ],
      [
        "Ġye",
        "ars"
      ],
      [
        "Ġw",
        "ished"
      ],
      [
        "Ġflo",
        "or"
      ],
      [
        "Ġan",
        "other"
      ],
      [
        "Ġar",
        "ri"
      ],
      [
        "Ġbu",
        "y"
      ],
      [
        "Ġwind",
        "ow"
      ],
      [
        "Ġmo",
        "ve"
      ],
      [
        "u",
        "l"
      ],
      [
        "Ġa",
        "ir"
      ],
      [
        "Ġt",
        "all"
      ],
      [
        "Ġless",
        "on"
      ],
      [
        "u",
        "ed"
      ],
      [
        "Ġcar",
        "s"
      ],
      [
        "Ġh",
        "ill"
      ],
      [
        "n",
        "er"
      ],
      [
        "Ġsh",
        "o"
      ],
      [
        "s",
        "p"
      ],
      [
        "Ġfin",
        "ished"
      ],
      [
        "Ġchild",
        "ren"
      ],
      [
        "Ġli",
        "kes"
      ],
      [
        "Ġb",
        "ow"
      ],
      [
        "Ġp",
        "aper"
      ],
      [
        "en",
        "s"
      ],
      [
        "and",
        "y"
      ],
      [
        "ĠA",
        "fter"
      ],
      [
        "Ġho",
        "ld"
      ],
      [
        "Ġwr",
        "ong"
      ],
      [
        "re",
        "ed"
      ],
      [
        "S",
        "am"
      ],
      [
        "F",
        "rom"
      ],
      [
        "re",
        "w"
      ],
      [
        "Ġarri",
        "ved"
      ],
      [
        "Ġle",
        "ft"
      ],
      [
        "u",
        "it"
      ],
      [
        "ĠD",
        "aisy"
      ],
      [
        "Ġunderst",
        "and"
      ],
      [
        "Ġclo",
        "se"
      ],
      [
        "Ġhe",
        "ar"
      ],
      [
        "Ġany",
        "thing"
      ],
      [
        "Ġcont",
        "in"
      ],
      [
        "Ġh",
        "un"
      ],
      [
        "Ġg",
        "ent"
      ],
      [
        "at",
        "ter"
      ],
      [
        "l",
        "f"
      ],
      [
        "Ġa",
        "ble"
      ],
      [
        "Ġwa",
        "ll"
      ],
      [
        "ro",
        "ss"
      ],
      [
        "Ġfriend",
        "ly"
      ],
      [
        "as",
        "ure"
      ],
      [
        "a",
        "v"
      ],
      [
        "ĠS",
        "ally"
      ],
      [
        "Ġforg",
        "ot"
      ],
      [
        "H",
        "ell"
      ],
      [
        "Hell",
        "o"
      ],
      [
        "Ġd",
        "ream"
      ],
      [
        "Ġe",
        "l"
      ],
      [
        "Ġd",
        "ir"
      ],
      [
        "Ġg",
        "one"
      ],
      [
        "Ġw",
        "et"
      ],
      [
        "b",
        "o"
      ],
      [
        "on",
        "s"
      ],
      [
        "Ġf",
        "illed"
      ],
      [
        "Ġcre",
        "at"
      ],
      [
        "Ġcook",
        "ies"
      ],
      [
        "Ġdin",
        "ner"
      ],
      [
        "Ġlaug",
        "h"
      ],
      [
        ".",
        "âĢĿ"
      ],
      [
        "ie",
        "ld"
      ],
      [
        "Ġh",
        "ot"
      ],
      [
        "Ġta",
        "ble"
      ],
      [
        "Ġbro",
        "ken"
      ],
      [
        "am",
        "a"
      ],
      [
        "um",
        "b"
      ],
      [
        "Ġel",
        "se"
      ],
      [
        "Ġh",
        "id"
      ],
      [
        "c",
        "ed"
      ],
      [
        "r",
        "ot"
      ],
      [
        "Ġcolor",
        "s"
      ],
      [
        "Ġa",
        "rm"
      ],
      [
        "Ġfollow",
        "ed"
      ],
      [
        "Ġp",
        "ink"
      ],
      [
        "Ġbu",
        "ild"
      ],
      [
        "Ġmom",
        "ent"
      ],
      [
        "e",
        "y"
      ],
      [
        "Ġwonder",
        "ful"
      ],
      [
        "Ġpu",
        "ppy"
      ],
      [
        "ou",
        "p"
      ],
      [
        "Ġm",
        "ar"
      ],
      [
        "Ġy",
        "es"
      ],
      [
        "Ġcontin",
        "ued"
      ],
      [
        "Ġm",
        "ight"
      ],
      [
        "ĠE",
        "m"
      ],
      [
        "Ġfin",
        "ally"
      ],
      [
        "!",
        "âĢĿ"
      ],
      [
        "Ġen",
        "ough"
      ],
      [
        "a",
        "pp"
      ],
      [
        "in",
        "ed"
      ],
      [
        "ir",
        "rel"
      ],
      [
        "Ġperf",
        "ect"
      ],
      [
        "J",
        "ack"
      ],
      [
        "ĠB",
        "illy"
      ],
      [
        "Ġstay",
        "ed"
      ],
      [
        "ĠN",
        "ow"
      ],
      [
        "Ġbook",
        "s"
      ],
      [
        "Ġmor",
        "ning"
      ],
      [
        "Ġc",
        "ream"
      ],
      [
        "Ġc",
        "ast"
      ],
      [
        "Ġj",
        "u"
      ],
      [
        "Ġfa",
        "ir"
      ],
      [
        "Ġdad",
        "dy"
      ],
      [
        "Ġsome",
        "one"
      ],
      [
        "ĠThe",
        "re"
      ],
      [
        "Ġother",
        "s"
      ],
      [
        "Ġag",
        "reed"
      ],
      [
        "Ġtry",
        "ing"
      ],
      [
        "ĠL",
        "ila"
      ],
      [
        "ro",
        "om"
      ],
      [
        "'",
        "ll"
      ],
      [
        "Ġf",
        "all"
      ],
      [
        "ic",
        "y"
      ],
      [
        "Ġget",
        "ting"
      ],
      [
        "Ġc",
        "ount"
      ],
      [
        "Ġmu",
        "s"
      ],
      [
        "Ġgra",
        "ndma"
      ],
      [
        "Ġba",
        "by"
      ],
      [
        "Ġsn",
        "ow"
      ],
      [
        "The",
        "n"
      ],
      [
        "Ġsqu",
        "irrel"
      ],
      [
        "Ġm",
        "other"
      ],
      [
        "o",
        "l"
      ],
      [
        "Ġlea",
        "ves"
      ],
      [
        "Ġfe",
        "w"
      ],
      [
        "A",
        "t"
      ],
      [
        "as",
        "h"
      ],
      [
        "h",
        "o"
      ],
      [
        "ri",
        "es"
      ],
      [
        "Ġbre",
        "ak"
      ],
      [
        "ĠTh",
        "is"
      ],
      [
        "Ġv",
        "is"
      ],
      [
        "Ġb",
        "ug"
      ],
      [
        "Ġclimb",
        "ed"
      ],
      [
        "an",
        "ce"
      ],
      [
        "at",
        "ed"
      ],
      [
        "Ġbr",
        "ought"
      ],
      [
        "Ġbe",
        "ach"
      ],
      [
        "Ġp",
        "lease"
      ],
      [
        "Ġm",
        "et"
      ],
      [
        "Ġde",
        "ep"
      ],
      [
        "ĠTom",
        "my"
      ],
      [
        "l",
        "ing"
      ],
      [
        "i",
        "ch"
      ],
      [
        "Ġsomet",
        "imes"
      ],
      [
        "o",
        "om"
      ],
      [
        "ke",
        "y"
      ],
      [
        "Ġevery",
        "thing"
      ],
      [
        "Th",
        "is"
      ],
      [
        "l",
        "c"
      ],
      [
        "Ġf",
        "ight"
      ],
      [
        "Ġmus",
        "ic"
      ],
      [
        "Ġtra",
        "in"
      ],
      [
        "o",
        "s"
      ],
      [
        "Ġli",
        "on"
      ],
      [
        "Ġturn",
        "ed"
      ],
      [
        "Ġhun",
        "gry"
      ],
      [
        "Ġwas",
        "n"
      ],
      [
        "d",
        "s"
      ],
      [
        "Ġs",
        "ong"
      ],
      [
        "Ġpicture",
        "s"
      ],
      [
        "or",
        "ing"
      ],
      [
        "Ġr",
        "ide"
      ],
      [
        "g",
        "on"
      ],
      [
        "Ġm",
        "akes"
      ],
      [
        "Ġjo",
        "y"
      ],
      [
        "z",
        "z"
      ],
      [
        "Ġcl",
        "ot"
      ],
      [
        "Ġpo",
        "l"
      ],
      [
        "e",
        "e"
      ],
      [
        "Ġlist",
        "ened"
      ],
      [
        "Ġse",
        "ar"
      ],
      [
        "Ġclot",
        "hes"
      ],
      [
        "H",
        "is"
      ],
      [
        "Ġsp",
        "ark"
      ],
      [
        "ĠW",
        "hat"
      ],
      [
        "Ġsa",
        "il"
      ],
      [
        "uck",
        "y"
      ],
      [
        "b",
        "ble"
      ],
      [
        "Ġpo",
        "in"
      ],
      [
        "Ġgr",
        "ow"
      ],
      [
        "a",
        "pped"
      ],
      [
        "en",
        "ny"
      ],
      [
        "Ġcom",
        "p"
      ],
      [
        "Ġt",
        "eddy"
      ],
      [
        "Ġwant",
        "s"
      ],
      [
        "Ġfly",
        "ing"
      ],
      [
        "m",
        "an"
      ],
      [
        "Ġpl",
        "an"
      ],
      [
        "Ġstr",
        "ange"
      ],
      [
        "Ġsc",
        "ary"
      ],
      [
        "r",
        "ow"
      ],
      [
        "sw",
        "er"
      ],
      [
        "op",
        "e"
      ],
      [
        "Ġamaz",
        "ed"
      ],
      [
        "Ġwa",
        "ited"
      ],
      [
        "Ġe",
        "le"
      ],
      [
        "Ġamaz",
        "ing"
      ],
      [
        "Ġp",
        "at"
      ],
      [
        "Ġtre",
        "at"
      ],
      [
        "O",
        "K"
      ],
      [
        "Ġ",
        "K"
      ],
      [
        "Ġf",
        "ur"
      ],
      [
        "Ġball",
        "oon"
      ],
      [
        "m",
        "ed"
      ],
      [
        "Ġle",
        "ave"
      ],
      [
        "is",
        "ter"
      ],
      [
        "Ġdan",
        "ger"
      ],
      [
        "Ġp",
        "i"
      ],
      [
        "Ġs",
        "uch"
      ],
      [
        "Ġp",
        "ie"
      ],
      [
        "Ġown",
        "er"
      ],
      [
        "Ġcast",
        "le"
      ],
      [
        "h",
        "one"
      ],
      [
        "Ġsp",
        "l"
      ],
      [
        "Ġwh",
        "ite"
      ],
      [
        "O",
        "h"
      ],
      [
        "Ġtal",
        "k"
      ],
      [
        "r",
        "ed"
      ],
      [
        "uff",
        "y"
      ],
      [
        "Ġprom",
        "ised"
      ],
      [
        "c",
        "le"
      ],
      [
        "e",
        "ver"
      ],
      [
        "Ġsh",
        "ared"
      ],
      [
        "Ġwood",
        "s"
      ],
      [
        "ĠM",
        "aybe"
      ],
      [
        "ĠT",
        "o"
      ],
      [
        "Ġn",
        "ap"
      ],
      [
        "Ġpull",
        "ed"
      ],
      [
        "Ġp",
        "re"
      ],
      [
        "Ġvis",
        "it"
      ],
      [
        "Ġs",
        "it"
      ],
      [
        "ug",
        "g"
      ],
      [
        "an",
        "g"
      ],
      [
        "Ġcolor",
        "ful"
      ],
      [
        "th",
        "y"
      ],
      [
        "Ġmagic",
        "al"
      ],
      [
        "ot",
        "t"
      ],
      [
        "ct",
        "or"
      ],
      [
        "ig",
        "g"
      ],
      [
        "ĠA",
        "my"
      ],
      [
        "Ġr",
        "iver"
      ],
      [
        "Ġbe",
        "lie"
      ],
      [
        "Ġal",
        "one"
      ],
      [
        "Ġtow",
        "ards"
      ],
      [
        "u",
        "ally"
      ],
      [
        "en",
        "ce"
      ],
      [
        "Ġg",
        "u"
      ],
      [
        "Ġgr",
        "ate"
      ],
      [
        "Ġsmil",
        "es"
      ],
      [
        "Ġta",
        "il"
      ],
      [
        "am",
        "p"
      ],
      [
        "as",
        "ed"
      ],
      [
        "ow",
        "er"
      ],
      [
        "Ġh",
        "ide"
      ],
      [
        "Ġs",
        "ide"
      ],
      [
        "Ġh",
        "ig"
      ],
      [
        "Ġpain",
        "t"
      ],
      [
        "Ġs",
        "illy"
      ],
      [
        "Ġpr",
        "o"
      ],
      [
        "Ġgrate",
        "ful"
      ],
      [
        "u",
        "p"
      ],
      [
        "ain",
        "ed"
      ],
      [
        "Ġla",
        "nd"
      ],
      [
        "Ġmor",
        "al"
      ],
      [
        "M",
        "ax"
      ],
      [
        "et",
        "er"
      ],
      [
        "Ġp",
        "a"
      ],
      [
        "Ġro",
        "ll"
      ],
      [
        "Ġslow",
        "ly"
      ],
      [
        "ĠJ",
        "im"
      ],
      [
        "s",
        "et"
      ],
      [
        "Ġsh",
        "ap"
      ],
      [
        "av",
        "y"
      ],
      [
        "Ġs",
        "ec"
      ],
      [
        "Ġf",
        "ield"
      ],
      [
        "Ġk",
        "ite"
      ],
      [
        "Ġsn",
        "ack"
      ],
      [
        "Ġmon",
        "ster"
      ],
      [
        "Ġs",
        "ister"
      ],
      [
        "Ġp",
        "et"
      ],
      [
        "Ġm",
        "in"
      ],
      [
        "Ġtre",
        "asure"
      ],
      [
        "Ġjo",
        "b"
      ],
      [
        "Ġfast",
        "er"
      ],
      [
        "Ġhelp",
        "ing"
      ],
      [
        "Ġwor",
        "ried"
      ],
      [
        "Ġqu",
        "i"
      ],
      [
        "e",
        "ar"
      ],
      [
        "Ġmu",
        "st"
      ],
      [
        "Ġpart",
        "y"
      ],
      [
        "or",
        "m"
      ],
      [
        "Ġrememb",
        "er"
      ],
      [
        "Ġm",
        "oney"
      ],
      [
        "w",
        "l"
      ],
      [
        "Ġmo",
        "st"
      ],
      [
        "Ġli",
        "ving"
      ],
      [
        "le",
        "ss"
      ],
      [
        "Ġwe",
        "ar"
      ],
      [
        "Ġac",
        "c"
      ],
      [
        "e",
        "m"
      ],
      [
        "ĠG",
        "ra"
      ],
      [
        "d",
        "er"
      ],
      [
        "z",
        "e"
      ],
      [
        "i",
        "re"
      ],
      [
        "Ġp",
        "ot"
      ],
      [
        "Ġfo",
        "x"
      ],
      [
        "i",
        "pped"
      ],
      [
        "Ġs",
        "ign"
      ],
      [
        "Ġc",
        "andy"
      ],
      [
        "Ġprin",
        "cess"
      ],
      [
        "Ġqui",
        "et"
      ],
      [
        "id",
        "ent"
      ],
      [
        "un",
        "ch"
      ],
      [
        "out",
        "h"
      ],
      [
        "Ġl",
        "ake"
      ],
      [
        "Ġcar",
        "rot"
      ],
      [
        "Ġcu",
        "p"
      ],
      [
        "Ġbe",
        "l"
      ],
      [
        "Ġevery",
        "where"
      ],
      [
        "Ġhig",
        "her"
      ],
      [
        "Ġcl",
        "oud"
      ],
      [
        "Ġbl",
        "ank"
      ],
      [
        "ask",
        "et"
      ],
      [
        "Ġrun",
        "s"
      ],
      [
        "Ġste",
        "pped"
      ],
      [
        "Ġm",
        "outh"
      ],
      [
        "am",
        "es"
      ],
      [
        "Ġbig",
        "ger"
      ],
      [
        "ĠA",
        "ll"
      ],
      [
        "Ġblank",
        "et"
      ],
      [
        "Ġto",
        "wn"
      ],
      [
        "Ġb",
        "asket"
      ],
      [
        "an",
        "c"
      ],
      [
        "ĠM",
        "olly"
      ],
      [
        "Ġjo",
        "in"
      ],
      [
        "Ġclo",
        "sed"
      ],
      [
        "Ġb",
        "uck"
      ],
      [
        "Ġsc",
        "ream"
      ],
      [
        "Ġco",
        "ll"
      ],
      [
        "is",
        "es"
      ],
      [
        "Ġbro",
        "ke"
      ],
      [
        "o",
        "se"
      ],
      [
        "Ġdanger",
        "ous"
      ],
      [
        "Ġdoll",
        "s"
      ],
      [
        "or",
        "d"
      ],
      [
        "Ġpl",
        "ant"
      ],
      [
        "Ġwe",
        "lc"
      ],
      [
        "e",
        "ared"
      ],
      [
        "Ġre",
        "ach"
      ],
      [
        "Ġdan",
        "ce"
      ],
      [
        "ĠDad",
        "dy"
      ],
      [
        "Ġw",
        "on"
      ],
      [
        "Ġte",
        "ac"
      ],
      [
        "Ġhe",
        "avy"
      ],
      [
        "Ġwould",
        "n"
      ],
      [
        "Ġb",
        "ott"
      ],
      [
        "Ġch",
        "air"
      ],
      [
        "Ġask",
        "s"
      ],
      [
        "p",
        "h"
      ],
      [
        "ĠM",
        "r"
      ],
      [
        "O",
        "kay"
      ],
      [
        "b",
        "r"
      ],
      [
        "Ġc",
        "e"
      ],
      [
        "Ġst",
        "re"
      ],
      [
        "g",
        "s"
      ],
      [
        "ck",
        "et"
      ],
      [
        "Ġthink",
        "s"
      ],
      [
        "f",
        "ort"
      ],
      [
        "ec",
        "es"
      ],
      [
        "Ġpi",
        "eces"
      ],
      [
        "Ġeat",
        "ing"
      ],
      [
        "Ġp",
        "ack"
      ],
      [
        "Ġra",
        "ce"
      ],
      [
        "d",
        "e"
      ],
      [
        "Ġdis",
        "app"
      ],
      [
        "Ġac",
        "ross"
      ],
      [
        "Ġb",
        "ike"
      ],
      [
        "H",
        "i"
      ],
      [
        "Ġfr",
        "uit"
      ],
      [
        "Ġbelie",
        "ve"
      ],
      [
        "m",
        "ing"
      ],
      [
        "it",
        "ing"
      ],
      [
        "Ġ",
        "ve"
      ],
      [
        "Ġfar",
        "mer"
      ],
      [
        "Ġst",
        "uck"
      ],
      [
        "Ġne",
        "igh"
      ],
      [
        "Ġcry",
        "ing"
      ],
      [
        "Ġs",
        "uddenly"
      ],
      [
        "ph",
        "ant"
      ],
      [
        "Ġs",
        "oup"
      ],
      [
        "Ġb",
        "ar"
      ],
      [
        "Ġth",
        "rew"
      ],
      [
        "Ġneigh",
        "b"
      ],
      [
        "S",
        "ure"
      ],
      [
        "Ġg",
        "if"
      ],
      [
        "Ġdir",
        "ty"
      ],
      [
        "or",
        "ed"
      ],
      [
        "Ġacc",
        "ident"
      ],
      [
        "vent",
        "ually"
      ],
      [
        "Ġmon",
        "key"
      ],
      [
        "Ġele",
        "phant"
      ],
      [
        "i",
        "er"
      ],
      [
        "e",
        "ad"
      ],
      [
        "Ġhe",
        "al"
      ],
      [
        "pp",
        "ing"
      ],
      [
        "Ġw",
        "in"
      ],
      [
        "Ġsa",
        "me"
      ],
      [
        "Ġre",
        "m"
      ],
      [
        "Ġteac",
        "her"
      ],
      [
        "Ġp",
        "ers"
      ],
      [
        "Ġin",
        "st"
      ],
      [
        "Ġdra",
        "gon"
      ],
      [
        "Ġb",
        "en"
      ],
      [
        "Ġsp",
        "r"
      ],
      [
        "M",
        "aybe"
      ],
      [
        "i",
        "ble"
      ],
      [
        "Ġbr",
        "own"
      ],
      [
        "Ġgent",
        "le"
      ],
      [
        "Ġf",
        "ree"
      ],
      [
        "Ġwor",
        "ds"
      ],
      [
        "Ġup",
        "set"
      ],
      [
        "Ġbuck",
        "et"
      ],
      [
        "ch",
        "ool"
      ],
      [
        "Ġche",
        "ered"
      ],
      [
        "Ġlong",
        "er"
      ],
      [
        "F",
        "inally"
      ],
      [
        "ck",
        "ed"
      ],
      [
        "Ġbe",
        "e"
      ],
      [
        "Ġbl",
        "ack"
      ],
      [
        "ĠF",
        "l"
      ],
      [
        "Ġb",
        "ite"
      ],
      [
        "Ġh",
        "it"
      ],
      [
        "Ġm",
        "ark"
      ],
      [
        "Ġdo",
        "ctor"
      ],
      [
        "Ġpie",
        "ce"
      ],
      [
        "m",
        "ent"
      ],
      [
        "Ġwe",
        "ll"
      ],
      [
        "Ġcl",
        "apped"
      ],
      [
        "Ġal",
        "ong"
      ],
      [
        "M",
        "ia"
      ],
      [
        "W",
        "hy"
      ],
      [
        "Ġc",
        "aught"
      ],
      [
        "i",
        "x"
      ],
      [
        "Ġsa",
        "ng"
      ],
      [
        "Ġyou",
        "ng"
      ],
      [
        "Ġbow",
        "l"
      ],
      [
        "Ġbut",
        "t"
      ],
      [
        "Ġpl",
        "ac"
      ],
      [
        "Ġs",
        "chool"
      ],
      [
        "Ġy",
        "ard"
      ],
      [
        "Ġse",
        "a"
      ],
      [
        "Ġexpl",
        "ained"
      ],
      [
        "Ġc",
        "our"
      ],
      [
        "es",
        "e"
      ],
      [
        "ĠJ",
        "ill"
      ],
      [
        "Ġdro",
        "pped"
      ],
      [
        "bb",
        "y"
      ],
      [
        "s",
        "y"
      ],
      [
        "Ġstor",
        "ies"
      ],
      [
        "Ġbr",
        "ing"
      ],
      [
        "Ġb",
        "ath"
      ],
      [
        "Ġsw",
        "ings"
      ],
      [
        "our",
        "n"
      ],
      [
        "w",
        "eet"
      ],
      [
        "Ġhe",
        "art"
      ],
      [
        "?",
        "âĢĿ"
      ],
      [
        "Ġw",
        "ings"
      ],
      [
        "Ġst",
        "u"
      ],
      [
        "Ġsm",
        "art"
      ],
      [
        "Ġdr",
        "ink"
      ],
      [
        "Ġju",
        "ice"
      ],
      [
        "Ġd",
        "ry"
      ],
      [
        "Ġp",
        "en"
      ],
      [
        "b",
        "er"
      ],
      [
        "Ġm",
        "ine"
      ],
      [
        "Ġfor",
        "get"
      ],
      [
        "Ġj",
        "ourn"
      ],
      [
        "Ġdro",
        "ve"
      ],
      [
        "Ġnear",
        "by"
      ],
      [
        "Ġcour",
        "se"
      ],
      [
        "aught",
        "er"
      ],
      [
        "Ġsec",
        "ret"
      ],
      [
        "Ġwelc",
        "ome"
      ],
      [
        "un",
        "g"
      ],
      [
        "Ġye",
        "ar"
      ],
      [
        "Ġ",
        "es"
      ],
      [
        "Ġto",
        "day"
      ],
      [
        "Ġwith",
        "out"
      ],
      [
        "ĠEm",
        "ma"
      ],
      [
        "Ġstre",
        "et"
      ],
      [
        "Ġhapp",
        "en"
      ],
      [
        "Ġcr",
        "ay"
      ],
      [
        "Ġpus",
        "hed"
      ],
      [
        "Ġj",
        "ar"
      ],
      [
        "Ġex",
        "p"
      ],
      [
        "Ġche",
        "ese"
      ],
      [
        "Ġturn",
        "s"
      ],
      [
        "Ġsing",
        "ing"
      ],
      [
        "Ġg",
        "ames"
      ],
      [
        "ra",
        "ct"
      ],
      [
        "Ġt",
        "iny"
      ],
      [
        "Ġa",
        "nt"
      ],
      [
        "ve",
        "l"
      ],
      [
        "Ġsm",
        "o"
      ],
      [
        "Ġpo",
        "cket"
      ],
      [
        "t",
        "o"
      ],
      [
        "Ġat",
        "t"
      ],
      [
        "Ġfair",
        "y"
      ],
      [
        "Ġhop",
        "ed"
      ],
      [
        "or",
        "row"
      ],
      [
        "Ġre",
        "sp"
      ],
      [
        "Ġsp",
        "oon"
      ],
      [
        "ĠF",
        "inally"
      ],
      [
        "Ġwo",
        "ke"
      ],
      [
        "a",
        "il"
      ],
      [
        "Ġc",
        "ow"
      ],
      [
        "Ġl",
        "on"
      ],
      [
        "itt",
        "ing"
      ],
      [
        "Ġhug",
        "s"
      ],
      [
        "Ġtw",
        "ins"
      ],
      [
        "is",
        "sed"
      ],
      [
        "Ġtr",
        "ou"
      ],
      [
        "Ġs",
        "uc"
      ],
      [
        "Ġin",
        "v"
      ],
      [
        "y",
        "ard"
      ],
      [
        "Ġf",
        "it"
      ],
      [
        "Ġst",
        "and"
      ],
      [
        "Ġno",
        "ises"
      ],
      [
        "Ġexpl",
        "oring"
      ],
      [
        "Ġdis",
        "co"
      ],
      [
        "Ġrock",
        "s"
      ],
      [
        "ount",
        "ain"
      ],
      [
        "e",
        "k"
      ],
      [
        "Ġl",
        "unch"
      ],
      [
        "Ġd",
        "aughter"
      ],
      [
        "ver",
        "ed"
      ],
      [
        "Ġsee",
        "med"
      ],
      [
        "Ġlon",
        "ely"
      ],
      [
        "Ġj",
        "e"
      ],
      [
        "Ġapp",
        "le"
      ],
      [
        "ll",
        "o"
      ],
      [
        "Ġtow",
        "er"
      ],
      [
        "Ġback",
        "yard"
      ],
      [
        "Ġsh",
        "ook"
      ],
      [
        "b",
        "ow"
      ],
      [
        "re",
        "ad"
      ],
      [
        "Ġm",
        "iss"
      ],
      [
        "ou",
        "n"
      ],
      [
        "Ġc",
        "ir"
      ],
      [
        "Ġs",
        "u"
      ],
      [
        "fu",
        "sed"
      ],
      [
        "Ġsw",
        "am"
      ],
      [
        "Ġw",
        "ish"
      ],
      [
        "Ġke",
        "y"
      ],
      [
        "Ġ",
        "3"
      ],
      [
        "Ġst",
        "ars"
      ],
      [
        "Ġbus",
        "h"
      ],
      [
        "Ġth",
        "ough"
      ],
      [
        "Ġshap",
        "es"
      ],
      [
        "Ġp",
        "ar"
      ],
      [
        "Ġmo",
        "ved"
      ],
      [
        "Ġthr",
        "ow"
      ],
      [
        "Ġsho",
        "es"
      ],
      [
        "b",
        "s"
      ],
      [
        "ap",
        "e"
      ],
      [
        "t",
        "s"
      ],
      [
        "Ġre",
        "lie"
      ],
      [
        "ĠM",
        "ama"
      ],
      [
        "Ġben",
        "ch"
      ],
      [
        "Ġta",
        "king"
      ],
      [
        "A",
        "nd"
      ],
      [
        "it",
        "y"
      ],
      [
        "itt",
        "ens"
      ],
      [
        "Ġadventure",
        "s"
      ],
      [
        "Ġw",
        "ise"
      ],
      [
        "ock",
        "ed"
      ],
      [
        "Ġo",
        "wl"
      ],
      [
        "ĠSam",
        "my"
      ],
      [
        "sh",
        "ine"
      ],
      [
        "Ġshe",
        "ll"
      ],
      [
        "Ġbu",
        "bble"
      ],
      [
        "Ġw",
        "he"
      ],
      [
        "Ġne",
        "ck"
      ],
      [
        "Ġl",
        "ate"
      ],
      [
        "Ġwh",
        "ist"
      ],
      [
        "our",
        "s"
      ],
      [
        "Ġf",
        "ence"
      ],
      [
        "us",
        "h"
      ],
      [
        "Ġor",
        "ange"
      ],
      [
        "pp",
        "er"
      ],
      [
        "Ġcut",
        "e"
      ],
      [
        "u",
        "nt"
      ],
      [
        "in",
        "ing"
      ],
      [
        "Ġsp",
        "in"
      ],
      [
        "Ġcreat",
        "ure"
      ],
      [
        "Ġaccident",
        "ally"
      ],
      [
        "Ġc",
        "orn"
      ],
      [
        "ĠFl",
        "uffy"
      ],
      [
        "w",
        "ard"
      ],
      [
        "t",
        "en"
      ],
      [
        "urp",
        "le"
      ],
      [
        "Ġm",
        "at"
      ],
      [
        "il",
        "k"
      ],
      [
        "Ġli",
        "ft"
      ],
      [
        "Ġrain",
        "bow"
      ],
      [
        "Ġp",
        "hone"
      ],
      [
        "Ġst",
        "ar"
      ],
      [
        "ion",
        "s"
      ],
      [
        "ĠW",
        "ho"
      ],
      [
        "L",
        "ila"
      ],
      [
        "Ġs",
        "itting"
      ],
      [
        "Ġd",
        "ist"
      ],
      [
        "Ġon",
        "to"
      ],
      [
        "Ġarm",
        "s"
      ],
      [
        "Ġa",
        "f"
      ],
      [
        "id",
        "ge"
      ],
      [
        "Ġsun",
        "shine"
      ],
      [
        "Ġhe",
        "llo"
      ],
      [
        "Ġdri",
        "ver"
      ],
      [
        "f",
        "ish"
      ],
      [
        "g",
        "ged"
      ],
      [
        "Ġn",
        "est"
      ],
      [
        "Ġn",
        "aught"
      ],
      [
        "Ġnaught",
        "y"
      ],
      [
        "ll",
        "a"
      ],
      [
        "ĠA",
        "n"
      ],
      [
        "Ġinst",
        "ead"
      ],
      [
        "Ġb",
        "ought"
      ],
      [
        "Ġcom",
        "es"
      ],
      [
        "Ġp",
        "op"
      ],
      [
        "Ġwonder",
        "ed"
      ],
      [
        "Ġe",
        "as"
      ],
      [
        "Ġlaug",
        "hing"
      ],
      [
        "Ġm",
        "ix"
      ],
      [
        "L",
        "ater"
      ],
      [
        "a",
        "le"
      ],
      [
        "Ġb",
        "oun"
      ],
      [
        "Ġm",
        "ilk"
      ],
      [
        "Ġco",
        "zy"
      ],
      [
        "Ġsear",
        "ched"
      ],
      [
        "et",
        "h"
      ],
      [
        "Ġch",
        "o"
      ],
      [
        "Ġc",
        "ave"
      ],
      [
        "or",
        "s"
      ],
      [
        "Ġcar",
        "ry"
      ],
      [
        "u",
        "ched"
      ],
      [
        "Ġto",
        "uched"
      ],
      [
        "Ġp",
        "urple"
      ],
      [
        "Ġin",
        "c"
      ],
      [
        "ad",
        "ow"
      ],
      [
        "Ġtal",
        "ked"
      ],
      [
        "Ġp",
        "ig"
      ],
      [
        "ĠT",
        "weet"
      ],
      [
        "Ġsun",
        "ny"
      ],
      [
        "Ġsound",
        "s"
      ],
      [
        "ĠIn",
        "side"
      ],
      [
        "Ġapp",
        "les"
      ],
      [
        "o",
        "g"
      ],
      [
        "Ġp",
        "ast"
      ],
      [
        "Ġn",
        "umb"
      ],
      [
        "itt",
        "y"
      ],
      [
        "Ġsh",
        "op"
      ],
      [
        "Ġfeel",
        "s"
      ],
      [
        "Ġbus",
        "y"
      ],
      [
        "n",
        "ess"
      ],
      [
        "Ġfar",
        "m"
      ],
      [
        "Ġa",
        "ct"
      ],
      [
        "Ġto",
        "m"
      ],
      [
        "le",
        "t"
      ],
      [
        "Ġno",
        "se"
      ],
      [
        "Ġjourn",
        "ey"
      ],
      [
        "Ġc",
        "ou"
      ],
      [
        "Ġl",
        "ucky"
      ],
      [
        "Ġco",
        "at"
      ],
      [
        "Ġpat",
        "ient"
      ],
      [
        "Ġrelie",
        "ved"
      ],
      [
        "Ġs",
        "ick"
      ],
      [
        "Ġnot",
        "hing"
      ],
      [
        "ra",
        "id"
      ],
      [
        "Ġr",
        "ope"
      ],
      [
        "ĠGra",
        "ndma"
      ],
      [
        "Ġbel",
        "ong"
      ],
      [
        "Ġaf",
        "raid"
      ],
      [
        "Ġswim",
        "ming"
      ],
      [
        "Ġz",
        "oom"
      ],
      [
        "Ġw",
        "om"
      ],
      [
        "at",
        "or"
      ],
      [
        "Ġre",
        "t"
      ],
      [
        "Ġwom",
        "an"
      ],
      [
        "b",
        "all"
      ],
      [
        "Ġm",
        "ad"
      ],
      [
        "Ġpe",
        "ace"
      ],
      [
        "Ġdan",
        "ced"
      ],
      [
        "Ġwa",
        "r"
      ],
      [
        "id",
        "er"
      ],
      [
        "ble",
        "m"
      ],
      [
        "Ġhug",
        "e"
      ],
      [
        "Ġwatch",
        "ing"
      ],
      [
        "ĠTh",
        "ank"
      ],
      [
        "Ġpro",
        "blem"
      ],
      [
        "B",
        "ob"
      ],
      [
        "Ġ",
        "O"
      ],
      [
        "Ġp",
        "udd"
      ],
      [
        "Ġb",
        "and"
      ],
      [
        "Ġkne",
        "e"
      ],
      [
        "ĠSo",
        "on"
      ],
      [
        "D",
        "o"
      ],
      [
        "Ġexc",
        "iting"
      ],
      [
        "Ġfore",
        "ver"
      ],
      [
        "Ġmin",
        "ut"
      ],
      [
        "Ġday",
        "s"
      ],
      [
        "th",
        "day"
      ],
      [
        "p",
        "ed"
      ],
      [
        "Ġg",
        "igg"
      ],
      [
        "Ġre",
        "l"
      ],
      [
        "Ġas",
        "leep"
      ],
      [
        "Ġv",
        "ill"
      ],
      [
        "c",
        "er"
      ],
      [
        "Ġf",
        "ing"
      ],
      [
        "Ġli",
        "fe"
      ],
      [
        "Ġcoll",
        "ect"
      ],
      [
        "Ġret",
        "urn"
      ],
      [
        "Ġcle",
        "ver"
      ],
      [
        "Ġk",
        "ing"
      ],
      [
        "ĠJ",
        "en"
      ],
      [
        "c",
        "es"
      ],
      [
        "Ġp",
        "ower"
      ],
      [
        "am",
        "ed"
      ],
      [
        "Ġor",
        "gan"
      ],
      [
        "Ġheal",
        "thy"
      ],
      [
        "Ġw",
        "ra"
      ],
      [
        "ir",
        "t"
      ],
      [
        "Ġr",
        "ound"
      ],
      [
        "ĠM",
        "ary"
      ],
      [
        "Ġme",
        "et"
      ],
      [
        "Ġhold",
        "ing"
      ],
      [
        "O",
        "f"
      ],
      [
        "Ġg",
        "ather"
      ],
      [
        "m",
        "p"
      ],
      [
        "ar",
        "p"
      ],
      [
        "al",
        "m"
      ],
      [
        "Ġpr",
        "ot"
      ],
      [
        "Ġsh",
        "arp"
      ],
      [
        "e",
        "re"
      ],
      [
        "Ġsa",
        "f"
      ],
      [
        "ĠM",
        "ittens"
      ],
      [
        "Ġspot",
        "ted"
      ],
      [
        "Ġprot",
        "ect"
      ],
      [
        "Ġre",
        "p"
      ],
      [
        "Ġbir",
        "thday"
      ],
      [
        "Ġpre",
        "s"
      ],
      [
        "ĠAn",
        "swer"
      ],
      [
        "Ġp",
        "ill"
      ],
      [
        "it",
        "ch"
      ],
      [
        "Ġstor",
        "m"
      ],
      [
        "Ġe",
        "ar"
      ],
      [
        "Ġta",
        "kes"
      ],
      [
        "Ġbott",
        "le"
      ],
      [
        "E",
        "very"
      ],
      [
        "ĠW",
        "ith"
      ],
      [
        "an",
        "ch"
      ],
      [
        "itt",
        "en"
      ],
      [
        "Ġma",
        "il"
      ],
      [
        "c",
        "ing"
      ],
      [
        "Ġbr",
        "anch"
      ],
      [
        "ul",
        "ar"
      ],
      [
        "Ġche",
        "er"
      ],
      [
        "Ġneighb",
        "or"
      ],
      [
        "He",
        "y"
      ],
      [
        "Ġgent",
        "ly"
      ],
      [
        "Ġpoin",
        "ted"
      ],
      [
        "Ġgif",
        "t"
      ],
      [
        "Ġpers",
        "on"
      ],
      [
        "Ġplac",
        "es"
      ],
      [
        "Ġp",
        "ass"
      ],
      [
        "st",
        "ing"
      ],
      [
        "Ġcom",
        "fort"
      ],
      [
        "Ġhop",
        "e"
      ],
      [
        "ĠJim",
        "my"
      ],
      [
        "ow",
        "ed"
      ],
      [
        "Ġtast",
        "y"
      ],
      [
        "h",
        "in"
      ],
      [
        "s",
        "c"
      ],
      [
        "Ġsmil",
        "ing"
      ],
      [
        "co",
        "l"
      ],
      [
        "Ġresp",
        "ect"
      ],
      [
        "Ġsh",
        "ining"
      ],
      [
        "Ġapp",
        "eared"
      ],
      [
        "Ġb",
        "lew"
      ],
      [
        "Ġas",
        "h"
      ],
      [
        "Ġad",
        "m"
      ],
      [
        "Ġtast",
        "ed"
      ],
      [
        "Ġsmell",
        "ed"
      ],
      [
        "n",
        "ic"
      ],
      [
        "Ġ",
        "ent"
      ],
      [
        "Ġwe",
        "aring"
      ],
      [
        "Ġk",
        "ick"
      ],
      [
        "bo",
        "ard"
      ],
      [
        "Ġsp",
        "o"
      ],
      [
        "Ġl",
        "etter"
      ],
      [
        "er",
        "t"
      ],
      [
        "Ġpic",
        "nic"
      ],
      [
        "Ġre",
        "c"
      ],
      [
        "Ġsp",
        "ider"
      ],
      [
        "ep",
        "end"
      ],
      [
        "ĠC",
        "ome"
      ],
      [
        "Ġtrou",
        "ble"
      ],
      [
        "Ġm",
        "atter"
      ],
      [
        "M",
        "olly"
      ],
      [
        "Ġm",
        "ist"
      ],
      [
        "Ġtight",
        "ly"
      ],
      [
        "Ġpres",
        "ent"
      ],
      [
        "o",
        "ve"
      ],
      [
        "Ġw",
        "ide"
      ],
      [
        "Ġe",
        "ag"
      ],
      [
        "Ġint",
        "ere"
      ],
      [
        "iz",
        "e"
      ],
      [
        "Ġp",
        "ract"
      ],
      [
        "Ġsu",
        "pp"
      ],
      [
        "Ġs",
        "ur"
      ],
      [
        "Ġpl",
        "ane"
      ],
      [
        "Ġsp",
        "read"
      ],
      [
        "Ġfe",
        "ather"
      ],
      [
        "Tom",
        "my"
      ],
      [
        "l",
        "a"
      ],
      [
        "on",
        "es"
      ],
      [
        "Ġany",
        "one"
      ],
      [
        "Ġtri",
        "p"
      ],
      [
        "ar",
        "ge"
      ],
      [
        "Ġk",
        "iss"
      ],
      [
        "a",
        "ur"
      ],
      [
        "g",
        "g"
      ],
      [
        "Ġqu",
        "est"
      ],
      [
        "Ġbre",
        "ad"
      ],
      [
        "Ġpu",
        "zz"
      ],
      [
        "o",
        "nd"
      ],
      [
        "on",
        "t"
      ],
      [
        "Ġse",
        "at"
      ],
      [
        "Ġwho",
        "le"
      ],
      [
        "Ġro",
        "ad"
      ],
      [
        "Ġgi",
        "ant"
      ],
      [
        "Ġd",
        "es"
      ],
      [
        "Ġp",
        "ath"
      ],
      [
        "le",
        "x"
      ],
      [
        "Ġh",
        "oney"
      ],
      [
        "Ġl",
        "ater"
      ],
      [
        "Ġlo",
        "ves"
      ],
      [
        "Ġcon",
        "fused"
      ],
      [
        "Ġcook",
        "ie"
      ],
      [
        "I",
        "n"
      ],
      [
        "Ġl",
        "ay"
      ],
      [
        "ell",
        "a"
      ],
      [
        "Ġsn",
        "ake"
      ],
      [
        "ĠG",
        "o"
      ],
      [
        "Ġscream",
        "ed"
      ],
      [
        "Ġfr",
        "ont"
      ],
      [
        "Ġspl",
        "as"
      ],
      [
        "Ġimp",
        "ress"
      ],
      [
        "or",
        "k"
      ],
      [
        "Ġte",
        "ach"
      ],
      [
        "Ġb",
        "ark"
      ],
      [
        "Ġbutt",
        "on"
      ],
      [
        "nd",
        "p"
      ],
      [
        "er",
        "ly"
      ],
      [
        "ĠC",
        "h"
      ],
      [
        "Ġcloud",
        "s"
      ],
      [
        "Ġc",
        "a"
      ],
      [
        "Ġo",
        "ce"
      ],
      [
        "Ġoce",
        "an"
      ],
      [
        "e",
        "b"
      ],
      [
        "Ġa",
        "p"
      ],
      [
        "Ġan",
        "swer"
      ],
      [
        "Ġh",
        "or"
      ],
      [
        "ung",
        "le"
      ],
      [
        "Ġd",
        "i"
      ],
      [
        "ss",
        "ed"
      ],
      [
        "Ġs",
        "er"
      ],
      [
        "Ġwh",
        "ich"
      ],
      [
        "Ġj",
        "ungle"
      ],
      [
        "Ġl",
        "arge"
      ],
      [
        "oo",
        "se"
      ],
      [
        "el",
        "s"
      ],
      [
        "Ġli",
        "ve"
      ],
      [
        "Ġmy",
        "ster"
      ],
      [
        "u",
        "b"
      ],
      [
        "Ġb",
        "an"
      ],
      [
        "Ġe",
        "ventually"
      ],
      [
        "Ġch",
        "ased"
      ],
      [
        "h",
        "ile"
      ],
      [
        "C",
        "ome"
      ],
      [
        "G",
        "ood"
      ],
      [
        "Ġshe",
        "lf"
      ],
      [
        "un",
        "k"
      ],
      [
        "Ġim",
        "ag"
      ],
      [
        "ĠEm",
        "ily"
      ],
      [
        "Ġcray",
        "ons"
      ],
      [
        "Ġvill",
        "age"
      ],
      [
        "ĠJ",
        "enny"
      ],
      [
        "Ġdec",
        "or"
      ],
      [
        "Ġwr",
        "ite"
      ],
      [
        "Ġdir",
        "t"
      ],
      [
        "ĠJ",
        "ake"
      ],
      [
        "Ġprom",
        "ise"
      ],
      [
        "Ġgi",
        "ves"
      ],
      [
        "J",
        "ust"
      ],
      [
        "L",
        "ucy"
      ],
      [
        "Ġb",
        "er"
      ],
      [
        "Ġtoo",
        "l"
      ],
      [
        "Ġla",
        "st"
      ],
      [
        "Ġt",
        "id"
      ],
      [
        "Ġw",
        "ild"
      ],
      [
        "le",
        "br"
      ],
      [
        "Ġtal",
        "king"
      ],
      [
        "Ġsp",
        "ent"
      ],
      [
        "Ġput",
        "s"
      ],
      [
        "Ġsl",
        "id"
      ],
      [
        "ĠEvery",
        "where"
      ],
      [
        "Ġsand",
        "w"
      ],
      [
        "Ġce",
        "lebr"
      ],
      [
        "Ġwa",
        "ve"
      ],
      [
        "Ġso",
        "l"
      ],
      [
        "Ġsh",
        "y"
      ],
      [
        "Ġfo",
        "ot"
      ],
      [
        "Ġth",
        "in"
      ],
      [
        "J",
        "im"
      ],
      [
        "M",
        "um"
      ],
      [
        "ndp",
        "a"
      ],
      [
        "Ġo",
        "ven"
      ],
      [
        "Ġgo",
        "es"
      ],
      [
        "Ġv",
        "al"
      ],
      [
        "in",
        "a"
      ],
      [
        "Ġfe",
        "et"
      ],
      [
        "Ġtast",
        "e"
      ],
      [
        "Ġbuild",
        "ing"
      ],
      [
        "Ġsnow",
        "man"
      ],
      [
        "Ġintere",
        "sting"
      ],
      [
        "Ġc",
        "art"
      ],
      [
        "Ġhelp",
        "ful"
      ],
      [
        "Ġru",
        "de"
      ],
      [
        "Ġsear",
        "ch"
      ],
      [
        "Ġash",
        "amed"
      ],
      [
        "e",
        "en"
      ],
      [
        "ip",
        "e"
      ],
      [
        "ck",
        "s"
      ],
      [
        "Ġsp",
        "e"
      ],
      [
        "Ġdel",
        "ight"
      ],
      [
        "Ġwait",
        "ing"
      ],
      [
        "Ġhid",
        "ing"
      ],
      [
        "Ġwhist",
        "le"
      ],
      [
        "Ġh",
        "on"
      ],
      [
        "if",
        "e"
      ],
      [
        "Ġtreat",
        "s"
      ],
      [
        "Ġm",
        "ot"
      ],
      [
        "Ġn",
        "et"
      ],
      [
        "Ġst",
        "ood"
      ],
      [
        "Ġjump",
        "ing"
      ],
      [
        "Ġlove",
        "ly"
      ],
      [
        "Ġpretend",
        "ed"
      ],
      [
        "Ġban",
        "an"
      ],
      [
        "on",
        "y"
      ],
      [
        "Ġe",
        "mb"
      ],
      [
        "Ġsh",
        "r"
      ],
      [
        "Ġwor",
        "m"
      ],
      [
        "Ġo",
        "b"
      ],
      [
        "ĠS",
        "t"
      ],
      [
        "Ġst",
        "ep"
      ],
      [
        "Ġprin",
        "ce"
      ],
      [
        "Ġbug",
        "s"
      ],
      [
        "Ġtid",
        "y"
      ],
      [
        "o",
        "ld"
      ],
      [
        "Ġwas",
        "h"
      ],
      [
        "Ġp",
        "ile"
      ],
      [
        "Ġc",
        "ross"
      ],
      [
        "Ġc",
        "alm"
      ],
      [
        "ump",
        "y"
      ],
      [
        "S",
        "oon"
      ],
      [
        "n",
        "ot"
      ],
      [
        "Ġm",
        "ach"
      ],
      [
        "Ġbl",
        "ow"
      ],
      [
        "Ġforg",
        "ive"
      ],
      [
        "Ġz",
        "oo"
      ],
      [
        "Ġbe",
        "ll"
      ],
      [
        "Ġte",
        "eth"
      ],
      [
        "Ġfur",
        "ry"
      ],
      [
        "Ġsuc",
        "cess"
      ],
      [
        "l",
        "ice"
      ],
      [
        "Ġs",
        "el"
      ],
      [
        "Ġb",
        "at"
      ],
      [
        "Ġm",
        "ind"
      ],
      [
        "Ġduck",
        "s"
      ],
      [
        "Ġcorn",
        "er"
      ],
      [
        "Ġrem",
        "ind"
      ],
      [
        "Ġpudd",
        "le"
      ],
      [
        "Ġcan",
        "not"
      ],
      [
        "Ġroll",
        "ed"
      ],
      [
        "Ġ",
        "ign"
      ],
      [
        "ig",
        "er"
      ],
      [
        "Ġsh",
        "irt"
      ],
      [
        "Ġemb",
        "ar"
      ],
      [
        "M",
        "ama"
      ],
      [
        "Ġm",
        "ed"
      ],
      [
        "Ġst",
        "ret"
      ],
      [
        "Ġsh",
        "ip"
      ],
      [
        "Ġs",
        "ug"
      ],
      [
        "en",
        "er"
      ],
      [
        "Ġgra",
        "b"
      ],
      [
        "Ġembar",
        "ra"
      ],
      [
        "Ġl",
        "ad"
      ],
      [
        "Ġst",
        "ra"
      ],
      [
        "Ġsh",
        "aring"
      ],
      [
        "Ġfo",
        "ld"
      ],
      [
        "Ġm",
        "ountain"
      ],
      [
        "is",
        "a"
      ],
      [
        "ig",
        "hed"
      ],
      [
        "Ġmess",
        "y"
      ],
      [
        "Ġspark",
        "ly"
      ],
      [
        "Ġpill",
        "ow"
      ],
      [
        "c",
        "y"
      ],
      [
        "Ġc",
        "oo"
      ],
      [
        "Ġspr",
        "ay"
      ],
      [
        "ĠS",
        "ome"
      ],
      [
        "Ġpeace",
        "ful"
      ],
      [
        "S",
        "t"
      ],
      [
        "v",
        "ous"
      ],
      [
        "Ġhe",
        "l"
      ],
      [
        "Ġdo",
        "lp"
      ],
      [
        "al",
        "s"
      ],
      [
        "omet",
        "imes"
      ],
      [
        "Ġfa",
        "ces"
      ],
      [
        "Ġtri",
        "es"
      ],
      [
        "Ġst",
        "ir"
      ],
      [
        "Ġsel",
        "fish"
      ],
      [
        "Ġsug",
        "ar"
      ],
      [
        "Ġh",
        "um"
      ],
      [
        "Ġp",
        "le"
      ],
      [
        "Ġp",
        "our"
      ],
      [
        "Ġp",
        "ool"
      ],
      [
        "Ġh",
        "ar"
      ],
      [
        "N",
        "ow"
      ],
      [
        "n",
        "ed"
      ],
      [
        "Ġh",
        "ours"
      ],
      [
        "Ġv",
        "an"
      ],
      [
        "Ġpus",
        "h"
      ],
      [
        "Ġcreat",
        "ive"
      ],
      [
        "Ġfight",
        "ing"
      ],
      [
        "Ġtom",
        "orrow"
      ],
      [
        "Ġminut",
        "es"
      ],
      [
        "a",
        "king"
      ],
      [
        "Ġw",
        "ore"
      ],
      [
        "ll",
        "ie"
      ],
      [
        "Ġgo",
        "ld"
      ],
      [
        "Ġwhen",
        "ever"
      ],
      [
        "Ġch",
        "ick"
      ],
      [
        "Ġlad",
        "der"
      ],
      [
        "o",
        "in"
      ],
      [
        "Ġt",
        "un"
      ],
      [
        "Ġsp",
        "icy"
      ],
      [
        "Ġfix",
        "ed"
      ],
      [
        "ul",
        "t"
      ],
      [
        "Ġhor",
        "se"
      ],
      [
        "Ġf",
        "ig"
      ],
      [
        "Ġg",
        "ener"
      ],
      [
        "Ġro",
        "b"
      ],
      [
        "Ġbre",
        "ath"
      ],
      [
        "Ġp",
        "an"
      ],
      [
        "Ġche",
        "w"
      ],
      [
        "Ġ",
        "'"
      ],
      [
        "ĠH",
        "ow"
      ],
      [
        "Ġcl",
        "ass"
      ],
      [
        "Sara",
        "h"
      ],
      [
        "Ġcho",
        "col"
      ],
      [
        "it",
        "al"
      ],
      [
        "Ġm",
        "issed"
      ],
      [
        "ĠP",
        "lease"
      ],
      [
        "Ġdri",
        "ve"
      ],
      [
        "P",
        "lease"
      ],
      [
        "ĠJ",
        "ust"
      ],
      [
        "Ġembarra",
        "ssed"
      ],
      [
        "M",
        "y"
      ],
      [
        "Ġho",
        "sp"
      ],
      [
        "Ġbar",
        "ked"
      ],
      [
        "Ġhosp",
        "ital"
      ],
      [
        "g",
        "ly"
      ],
      [
        "Ġn",
        "er"
      ],
      [
        "Ġu",
        "gly"
      ],
      [
        "ĠL",
        "e"
      ],
      [
        "Ġte",
        "a"
      ],
      [
        "ĠR",
        "e"
      ],
      [
        "i",
        "an"
      ],
      [
        "Ġeas",
        "y"
      ],
      [
        "Ġcou",
        "ch"
      ],
      [
        "Ġme",
        "ant"
      ],
      [
        "Ġme",
        "adow"
      ],
      [
        "Ġcol",
        "our"
      ],
      [
        "Ġbed",
        "room"
      ],
      [
        "Ġdisapp",
        "oin"
      ],
      [
        "Ġsa",
        "l"
      ],
      [
        "Ġknow",
        "ing"
      ],
      [
        "Ġmu",
        "d"
      ],
      [
        "Ġmo",
        "v"
      ],
      [
        "Ġunderst",
        "ood"
      ],
      [
        "Ġmach",
        "ine"
      ],
      [
        "Ġner",
        "vous"
      ],
      [
        "Ġb",
        "al"
      ],
      [
        "w",
        "ork"
      ],
      [
        "Ġta",
        "ught"
      ],
      [
        "Ġcarrot",
        "s"
      ],
      [
        "Ġh",
        "ur"
      ],
      [
        "Ġc",
        "ard"
      ],
      [
        "Ġp",
        "as"
      ],
      [
        "an",
        "o"
      ],
      [
        "Ġre",
        "g"
      ],
      [
        "Ġgre",
        "w"
      ],
      [
        "Ġland",
        "ed"
      ],
      [
        "Ġrob",
        "ot"
      ],
      [
        "Ġpas",
        "sed"
      ],
      [
        "m",
        "o"
      ],
      [
        "Ġof",
        "ten"
      ],
      [
        "Ġkn",
        "ocked"
      ],
      [
        "Ġtr",
        "ust"
      ],
      [
        "Ġfe",
        "ar"
      ],
      [
        "ell",
        "y"
      ],
      [
        "Ġthank",
        "ful"
      ],
      [
        "Ġd",
        "eter"
      ],
      [
        "is",
        "p"
      ],
      [
        "Ġlea",
        "f"
      ],
      [
        "Ġreturn",
        "ed"
      ],
      [
        "Ġdeter",
        "m"
      ],
      [
        "D",
        "ad"
      ],
      [
        "Ġco",
        "in"
      ],
      [
        "Ġmo",
        "on"
      ],
      [
        "T",
        "o"
      ],
      [
        "Ġ",
        "On"
      ],
      [
        "at",
        "o"
      ],
      [
        "Ġst",
        "uff"
      ],
      [
        "ĠA",
        "nn"
      ],
      [
        "o",
        "bby"
      ],
      [
        "Ġn",
        "ut"
      ],
      [
        "ĠB",
        "r"
      ],
      [
        "Ġdisappoin",
        "ted"
      ],
      [
        "g",
        "round"
      ],
      [
        "Ġf",
        "anc"
      ],
      [
        "Ġhe",
        "ars"
      ],
      [
        "Ġwo",
        "lf"
      ],
      [
        "B",
        "e"
      ],
      [
        "Ġm",
        "ic"
      ],
      [
        "Ġp",
        "ir"
      ],
      [
        "Ġr",
        "ing"
      ],
      [
        "Ġfin",
        "ish"
      ],
      [
        "Ġcir",
        "c"
      ],
      [
        "Ġbubble",
        "s"
      ],
      [
        "or",
        "y"
      ],
      [
        "ir",
        "d"
      ],
      [
        "Ġan",
        "sw"
      ],
      [
        "ust",
        "r"
      ],
      [
        "iz",
        "z"
      ],
      [
        "Ġgener",
        "ous"
      ],
      [
        "ĠE",
        "ven"
      ],
      [
        "Ġgl",
        "ass"
      ],
      [
        "Ġsmo",
        "oth"
      ],
      [
        "d",
        "le"
      ],
      [
        "Ġf",
        "ake"
      ],
      [
        "Ġse",
        "ed"
      ],
      [
        "Ġche",
        "st"
      ],
      [
        "Ġmot",
        "or"
      ],
      [
        "Ġchocol",
        "ate"
      ],
      [
        "Ġdr",
        "um"
      ],
      [
        "eci",
        "ally"
      ],
      [
        "Ġsong",
        "s"
      ],
      [
        "p",
        "ack"
      ],
      [
        "ur",
        "se"
      ],
      [
        "Ġcar",
        "ried"
      ],
      [
        "os",
        "aur"
      ],
      [
        "Ġpa",
        "w"
      ],
      [
        "Ġsnack",
        "s"
      ],
      [
        "Ġthe",
        "se"
      ],
      [
        "Ġfor",
        "ward"
      ],
      [
        "Ġwh",
        "isp"
      ],
      [
        "Ġcl",
        "own"
      ],
      [
        "Ġsc",
        "ar"
      ],
      [
        "iz",
        "zy"
      ],
      [
        "Ġsleep",
        "y"
      ],
      [
        "ĠTo",
        "gether"
      ],
      [
        "Ġfanc",
        "y"
      ],
      [
        "p",
        "ecially"
      ],
      [
        "Ġk",
        "itten"
      ],
      [
        "Ġstr",
        "ing"
      ],
      [
        "Ġes",
        "pecially"
      ],
      [
        "Ġa",
        "v"
      ],
      [
        "Ġg",
        "as"
      ],
      [
        "Ġr",
        "ad"
      ],
      [
        "Ġsp",
        "end"
      ],
      [
        "Ġfr",
        "ustr"
      ],
      [
        "Ġdin",
        "osaur"
      ],
      [
        "Ġspl",
        "ash"
      ],
      [
        "Ġneck",
        "l"
      ],
      [
        "Ġtw",
        "irl"
      ],
      [
        "Ġgather",
        "ed"
      ],
      [
        "Ġhon",
        "est"
      ],
      [
        "ĠB",
        "e"
      ],
      [
        "Ġgr",
        "oup"
      ],
      [
        "Ġcra",
        "w"
      ],
      [
        "y",
        "ing"
      ],
      [
        "Ġwa",
        "ves"
      ],
      [
        "ĠM",
        "ark"
      ],
      [
        "Ġbr",
        "idge"
      ],
      [
        "Ġfing",
        "er"
      ],
      [
        "Ġmyster",
        "ious"
      ],
      [
        "p",
        "ort"
      ],
      [
        "Ġs",
        "our"
      ],
      [
        "Ġm",
        "ir"
      ],
      [
        "Ġgr",
        "umpy"
      ],
      [
        "Ġcra",
        "b"
      ],
      [
        "ĠW",
        "hy"
      ],
      [
        "Ġgl",
        "ue"
      ],
      [
        "mo",
        "st"
      ],
      [
        "Ġsh",
        "ore"
      ],
      [
        "ĠK",
        "itty"
      ],
      [
        "s",
        "ist"
      ],
      [
        "Ġc",
        "and"
      ],
      [
        "Ġm",
        "ap"
      ],
      [
        "Ġo",
        "k"
      ],
      [
        "Ġsa",
        "ck"
      ],
      [
        "ot",
        "e"
      ],
      [
        "Ġso",
        "ld"
      ],
      [
        "Ġch",
        "ange"
      ],
      [
        "Ġsmell",
        "y"
      ],
      [
        "Ġplant",
        "s"
      ],
      [
        "Ġpuzz",
        "le"
      ],
      [
        "B",
        "illy"
      ],
      [
        "r",
        "or"
      ],
      [
        "ĠT",
        "eddy"
      ],
      [
        "Ġg",
        "ate"
      ],
      [
        "ĠThe",
        "ir"
      ],
      [
        "Ġal",
        "most"
      ],
      [
        "Ġgr",
        "ay"
      ],
      [
        "Ġneckl",
        "ace"
      ],
      [
        "Ġa",
        "unt"
      ],
      [
        "Ġpo",
        "or"
      ],
      [
        "Ġber",
        "ries"
      ],
      [
        "Ġp",
        "in"
      ],
      [
        "Ġst",
        "one"
      ],
      [
        "Ġbo",
        "dy"
      ],
      [
        "ĠBr",
        "own"
      ],
      [
        "u",
        "ce"
      ],
      [
        "Ġl",
        "ine"
      ],
      [
        "Ġm",
        "aybe"
      ],
      [
        "or",
        "ry"
      ],
      [
        "Ġbird",
        "ie"
      ],
      [
        "Ġv",
        "ase"
      ],
      [
        "air",
        "s"
      ],
      [
        "Ġpol",
        "ite"
      ],
      [
        "Ġfrustr",
        "ated"
      ],
      [
        "ĠD",
        "on"
      ],
      [
        "Ġes",
        "c"
      ],
      [
        "Ġnumb",
        "er"
      ],
      [
        "k",
        "in"
      ],
      [
        "Ġwe",
        "ak"
      ],
      [
        "itt",
        "er"
      ],
      [
        "Ġj",
        "am"
      ],
      [
        "Ġcl",
        "oth"
      ],
      [
        "Ġsc",
        "r"
      ],
      [
        "Ġho",
        "pping"
      ],
      [
        "ens",
        "ive"
      ],
      [
        "Ġpol",
        "ice"
      ],
      [
        "d",
        "en"
      ],
      [
        "Ġw",
        "is"
      ],
      [
        "Ġshe",
        "ep"
      ],
      [
        "Ġj",
        "elly"
      ],
      [
        "ag",
        "ed"
      ],
      [
        "Ġexp",
        "ensive"
      ],
      [
        "Ġje",
        "w"
      ],
      [
        "Ġb",
        "ored"
      ],
      [
        "us",
        "ie"
      ],
      [
        "Ġclos",
        "et"
      ],
      [
        "Ġmat",
        "ch"
      ],
      [
        "Ġmir",
        "ror"
      ],
      [
        "Ġd",
        "rew"
      ],
      [
        "ĠA",
        "t"
      ],
      [
        "Ġyell",
        "ed"
      ],
      [
        "Ġpack",
        "ed"
      ],
      [
        "Ġt",
        "ick"
      ],
      [
        "Ġsk",
        "ipped"
      ],
      [
        "Ġfruit",
        "s"
      ],
      [
        "Ġfig",
        "ure"
      ],
      [
        "Ġpl",
        "ate"
      ],
      [
        "Ġle",
        "gs"
      ],
      [
        "Ġhid",
        "den"
      ],
      [
        "Ġdeterm",
        "ined"
      ],
      [
        "J",
        "ane"
      ],
      [
        "The",
        "re"
      ],
      [
        "?\"",
        "."
      ],
      [
        "Ġf",
        "is"
      ],
      [
        "Ġc",
        "ries"
      ],
      [
        "Ġth",
        "ick"
      ],
      [
        "ot",
        "s"
      ],
      [
        "Ġe",
        "mp"
      ],
      [
        "Ġpr",
        "ay"
      ],
      [
        "Ġmo",
        "ving"
      ],
      [
        "Ġs",
        "ighed"
      ],
      [
        "at",
        "es"
      ],
      [
        "Ġon",
        "es"
      ],
      [
        "Ġex",
        "am"
      ],
      [
        "Ġta",
        "ken"
      ],
      [
        "Ġstick",
        "s"
      ],
      [
        "Ġemp",
        "ty"
      ],
      [
        "Ġl",
        "it"
      ],
      [
        "ĠS",
        "ometimes"
      ],
      [
        "est",
        "ed"
      ],
      [
        "Ġdog",
        "s"
      ],
      [
        "au",
        "l"
      ],
      [
        "Ġcont",
        "ent"
      ],
      [
        "d",
        "ge"
      ],
      [
        "Ġs",
        "ight"
      ],
      [
        "id",
        "dle"
      ],
      [
        "Ġsa",
        "ved"
      ],
      [
        "Ġexc",
        "ite"
      ],
      [
        "Ġfl",
        "ut"
      ],
      [
        "Ġdisco",
        "vered"
      ],
      [
        "Ġinc",
        "red"
      ],
      [
        "'",
        "d"
      ],
      [
        "W",
        "here"
      ],
      [
        "Ġb",
        "oring"
      ],
      [
        "er",
        "a"
      ],
      [
        "Ġso",
        "ap"
      ],
      [
        "qu",
        "e"
      ],
      [
        "Ġjo",
        "g"
      ],
      [
        "bo",
        "x"
      ],
      [
        "Ġsplas",
        "hed"
      ],
      [
        "Ġdolp",
        "hin"
      ],
      [
        "Ġple",
        "ased"
      ],
      [
        "Ġha",
        "ng"
      ],
      [
        "Ġcr",
        "ane"
      ],
      [
        "Ġsail",
        "ed"
      ],
      [
        "Ġballoon",
        "s"
      ],
      [
        "Ġpar",
        "rot"
      ],
      [
        "Ġw",
        "ip"
      ],
      [
        "Ġe",
        "ld"
      ],
      [
        "ĠB",
        "ella"
      ],
      [
        "Ġsee",
        "k"
      ],
      [
        "Ġpower",
        "ful"
      ],
      [
        "A",
        "re"
      ],
      [
        "l",
        "ight"
      ],
      [
        "Ġt",
        "iger"
      ],
      [
        "Ġsa",
        "ve"
      ],
      [
        "Ġbo",
        "ard"
      ],
      [
        "Ġorgan",
        "ized"
      ],
      [
        "Ġansw",
        "ered"
      ],
      [
        "Ġexcite",
        "ment"
      ],
      [
        "Ġb",
        "ake"
      ],
      [
        "Ġc",
        "ap"
      ],
      [
        "us",
        "hed"
      ],
      [
        "Ġscar",
        "f"
      ],
      [
        "c",
        "hes"
      ],
      [
        "The",
        "ir"
      ],
      [
        "ĠM",
        "um"
      ],
      [
        "Ġbr",
        "anc"
      ],
      [
        "Ġwr",
        "ote"
      ],
      [
        "Ġbranc",
        "hes"
      ],
      [
        "Ġc",
        "op"
      ],
      [
        "Ġm",
        "iddle"
      ],
      [
        "Ġst",
        "ones"
      ],
      [
        "Ġlo",
        "ck"
      ],
      [
        "Ġfe",
        "ed"
      ],
      [
        "Ġs",
        "ugg"
      ],
      [
        "in",
        "ess"
      ],
      [
        "get",
        "able"
      ],
      [
        "if",
        "f"
      ],
      [
        "l",
        "ies"
      ],
      [
        "Ġp",
        "ay"
      ],
      [
        "ĠB",
        "l"
      ],
      [
        "ra",
        "g"
      ],
      [
        "Ġtell",
        "s"
      ],
      [
        "Ġstand",
        "ing"
      ],
      [
        "Ġmov",
        "ie"
      ],
      [
        "Ġincred",
        "ible"
      ],
      [
        "c",
        "orn"
      ],
      [
        "Ġt",
        "ie"
      ],
      [
        "Ġcl",
        "ap"
      ],
      [
        "ol",
[...]
