{
  "version": "1.0",
  "truncation": null,
  "padding": null,
  "added_tokens": [
    {
      "id": 0,
      "content": "<pad>",
      "single_word": false,
      "lstrip": false,
      "rstrip": false,
      "normalized": false,
      "special": true
    },
    {
      "id": 1,
      "content": "<unk>",
      "single_word": false,
      "lstrip": false,
      "rstrip": false,
      "normalized": false,
      "special": true
    },
    {
      "id": 2,
      "content": "<bos>",
      "single_word": false,
      "lstrip": false,
      "rstrip": false,
      "normalized": false,
      "special": true
    },
    {
      "id": 3,
      "content": "<eos>",
      "single_word": false,
      "lstrip": false,
      "rstrip": false,
      "normalized": false,
      "special": true
    },
    {
      "id": 4,
      "content": "<doc>",
      "single_word": false,
      "lstrip": false,
      "rstrip": false,
      "normalized": false,
      "special": true
    }
  ],
  "normalizer": null,
  "pre_tokenizer": {
    "type": "ByteLevel",
    "add_prefix_space": true,
    "trim_offsets": true,
    "use_regex": true
  },
  "post_processor": null,
  "decoder": {
    "type": "ByteLevel",
    "add_prefix_space": true,
    "trim_offsets": true,
    "use_regex": true
  },
  "model": {
    "type": "BPE",
    "dropout": null,
    "unk_token": "<unk>",
    "continuing_subword_prefix": null,
    "end_of_word_suffix": null,
    "fuse_unk": false,
    "byte_fallback": false,
    "ignore_merges": false,
    "vocab": {
      "<pad>": 0,
      "<unk>": 1,
      "<bos>": 2,
      "<eos>": 3,
      "<doc>": 4,
      "!": 5,
      "\"": 6,
      "#": 7,
      "$": 8,
      "%": 9,
      "&": 10,
      "'": 11,
      "(": 12,
      ")": 13,
      "*": 14,
      "+": 15,
      ",": 16,
      "-": 17,
      ".": 18,
      "/": 19,
      "0": 20,
      "1": 21,
      "2": 22,
      "3": 23,
      "4": 24,
      "5": 25,
      "6": 26,
      "7": 27,
      "8": 28,
      "9": 29,
      ":": 30,
      ";": 31,
      "<": 32,
      "=": 33,
      ">": 34,
      "?": 35,
      "@": 36,
      "A": 37,
      "B": 38,
      "C": 39,
      "D": 40,
      "E": 41,
      "F": 42,
      "G": 43,
      "H": 44,
      "I": 45,
      "J": 46,
      "K": 47,
      "L": 48,
      "M": 49,
      "N": 50,
      "O": 51,
      "P": 52,
      "Q": 53,
      "R": 54,
      "S": 55,
      "T": 56,
      "U": 57,
      "V": 58,
      "W": 59,
      "X": 60,
      "Y": 61,
      "Z": 62,
      "[": 63,
      "\\": 64,
      "]": 65,
      "^": 66,
      "_": 67,
      "`": 68,
      "a": 69,
      "b": 70,
      "c": 71,
      "d": 72,
      "e": 73,
      "f": 74,
      "g": 75,
      "h": 76,
      "i": 77,
      "j": 78,
      "k": 79,
      "l": 80,
      "m": 81,
      "n": 82,
      "o": 83,
      "p": 84,
      "q": 85,
      "r": 86,
      "s": 87,
      "t": 88,
      "u": 89,
      "v": 90,
      "w": 91,
      "x": 92,
      "y": 93,
      "z": 94,
      "{": 95,
      "|": 96,
      "}": 97,
      "~": 98,
      "¡": 99,
      "¢": 100,
      "£": 101,
      "¤": 102,
      "¥": 103,
      "¦": 104,
      "§": 105,
      "¨": 106,
      "©": 107,
      "ª": 108,
      "«": 109,
      "¬": 110,
      "®": 111,
      "¯": 112,
      "°": 113,
      "±": 114,
      "²": 115,
      "³": 116,
      "´": 117,
      "µ": 118,
      "¶": 119,
      "·": 120,
      "¸": 121,
      "¹": 122,
      "º": 123,
      "»": 124,
      "¼": 125,
      "½": 126,
      "¾": 127,
      "¿": 128,
      "À": 129,
      "Á": 130,
      "Â": 131,
      "Ã": 132,
      "Ä": 133,
      "Å": 134,
      "Æ": 135,
      "Ç": 136,
      "È": 137,
      "É": 138,
      "Ê": 139,
      "Ë": 140,
      "Ì": 141,
      "Í": 142,
      "Î": 143,
      "Ï": 144,
      "Ð": 145,
      "Ñ": 146,
      "Ò": 147,
      "Ó": 148,
      "Ô": 149,
      "Õ": 150,
      "Ö": 151,
      "×": 152,
      "Ø": 153,
      "Ù": 154,
      "Ú": 155,
      "Û": 156,
      "Ü": 157,
      "Ý": 158,
      "Þ": 159,
      "ß": 160,
      "à": 161,
      "á": 162,
      "â": 163,
      "ã": 164,
      "ä": 165,
      "å": 166,
      "æ": 167,
      "ç": 168,
      "è": 169,
      "é": 170,
      "ê": 171,
      "ë": 172,
      "ì": 173,
      "í": 174,
      "î": 175,
      "ï": 176,
      "ð": 177,
      "ñ": 178,
      "ò": 179,
      "ó": 180,
      "ô": 181,
      "õ": 182,
      "ö": 183,
      "÷": 184,
      "ø": 185,
      "ù": 186,
      "ú": 187,
      "û": 188,
      "ü": 189,
      "ý": 190,
      "þ": 191,
      "ÿ": 192,
      "Ā": 193,
      "ā": 194,
      "Ă": 195,
      "ă": 196,
      "Ą": 197,
      "ą": 198,
      "Ć": 199,
      "ć": 200,
      "Ĉ": 201,
      "ĉ": 202,
      "Ċ": 203,
      "ċ": 204,
      "Č": 205,
      "č": 206,
      "Ď": 207,
      "ď": 208,
      "Đ": 209,
      "đ": 210,
      "Ē": 211,
      "ē": 212,
      "Ĕ": 213,
      "ĕ": 214,
      "Ė": 215,
      "ė": 216,
      "Ę": 217,
      "ę": 218,
      "Ě": 219,
      "ě": 220,
      "Ĝ": 221,
      "ĝ": 222,
      "Ğ": 223,
      "ğ": 224,
      "Ġ": 225,
      "ġ": 226,
      "Ģ": 227,
      "ģ": 228,
      "Ĥ": 229,
      "ĥ": 230,
      "Ħ": 231,
      "ħ": 232,
      "Ĩ": 233,
      "ĩ": 234,
      "Ī": 235,
      "ī": 236,
      "Ĭ": 237,
      "ĭ": 238,
      "Į": 239,
      "į": 240,
      "İ": 241,
      "ı": 242,
      "Ĳ": 243,
      "ĳ": 244,
      "Ĵ": 245,
      "ĵ": 246,
      "Ķ": 247,
      "ķ": 248,
      "ĸ": 249,
      "Ĺ": 250,
      "ĺ": 251,
      "Ļ": 252,
      "ļ": 253,
      "Ľ": 254,
      "ľ": 255,
      "Ŀ": 256,
      "ŀ": 257,
      "Ł": 258,
      "ł": 259,
      "Ń": 260,
      "he": 261,
      "Ġt": 262,
      "Ġa": 263,
      "Ġs": 264,
      "Ġw": 265,
      "nd": 266,
      "Ġthe": 267,
      "ed": 268,
      "Ġand": 269,
      "Ġto": 270,
      "Ġb": 271,
      "in": 272,
      "Ġh": 273,
      "Ġwa": 274,
      "re": 275,
      "Ġf": 276,
      "it": 277,
      "ou": 278,
      "Ġc": 279,
      "Ġl": 280,
      "Ġhe": 281,
      "Ġd": 282,
      "er": 283,
      "Ġwas": 284,
      "Ġm": 285,
      "Ġp": 286,
      "om": 287,
      "ĠT": 288,
      "Ġo": 289,
      "ay": 290,
      "ar": 291,
      "is": 292,
      "ing": 293,
      "Ġg": 294,
      "il": 295,
      "id": 296,
      "at": 297,
      "en": 298,
      "Ġn": 299,
      "Ġsa": 300,
      "Ġha": 301,
      "ĠS": 302,
      "ĠThe": 303,
      "im": 304,
      "an": 305,
      "or": 306,
      "on": 307,
      "Ġit": 308,
      "Ġth": 309,
      "ll": 310,
      "le": 311,
      "ĠH": 312,
      "Ġher": 313,
      "et": 314,
      "ot": 315,
      "ir": 316,
      "ĠShe": 317,
      "ĠHe": 318,
      "ver": 319,
      "es": 320,
      "Ġin": 321,
      "ut": 322,
      "ow": 323,
      "ck": 324,
      "Ġe": 325,
      "Ġu": 326,
      "ld": 327,
      "ĠThey": 328,
      "oo": 329,
      "ig": 330,
      "Ġy": 331,
      "Ġr": 332,
      "Ġsaid": 333,
      "am": 334,
      "ily": 335,
      "Ġbe": 336,
      "Ġst": 337,
      "ce": 338,
      "Ġshe": 339,
      "ith": 340,
      "Ġ\"": 341,
      "pp": 342,
      "ke": 343,
      "Ġwith": 344,
      "ĠI": 345,
      "On": 346,
      "ve": 347,
      "ĠL": 348,
      "Ġon": 349,
      "Ġof": 350,
      "Ġso": 351,
      "Ġhis": 352,
      "ked": 353,
      "ri": 354,
      "nt": 355,
      "very": 356,
      "Ġpl": 357,
      "Ġday": 358,
      "ad": 359,
      "Ġyou": 360,
      "Ġthat": 361,
      "ĠOn": 362,
      "Ġup": 363,
      "ĠLily": 364,
      "Ġhad": 365,
      "st": 366,
      "Ġplay": 367,
      "Ġthey": 368,
      "Ġwe": 369,
      "Ġmom": 370,
      "my": 371,
      "Ġfor": 372,
      "el": 373,
      "ould": 374,
      "ĠB": 375,
      "un": 376,
      "'s": 377,
      "itt": 378,
      "ent": 379,
      "Ġhapp": 380,
      "ch": 381,
      "The": 382,
      "Ġli": 383,
      "Ġwant": 384,
      "out": 385,
      "Ġsh": 386,
      "her": 387,
      "ly": 388,
      "ime": 389,
      "ittle": 390,
      "Ġvery": 391,
      "ound": 392,
      "Ġtime": 393,
      "ome": 394,
      "Ġdo": 395,
      "Ġlittle": 396,
      "Ġthere": 397,
      "all": 398,
      "se": 399,
      "Ġk": 400,
      "Ġwh": 401,
      "end": 402,
      "al": 403,
      "ht": 404,
      "Ġne": 405,
      "ĠM": 406,
      "Ġre": 407,
      "Ġnot": 408,
      "Ġhappy": 409,
      "Ġbig": 410,
      "Ġbut": 411,
      "ack": 412,
      "Ġsm": 413,
      "Ġsaw": 414,
      "ĠIt": 415,
      "Ġas": 416,
      "Ġan": 417,
      "riend": 418,
      "Ġfriend": 419,
      "ra": 420,
      "ry": 421,
      "ide": 422,
      "Ġis": 423,
      "ved": 424,
      "'t": 425,
      "ake": 426,
      "ĠOnce": 427,
      ".\"": 428,
      "Ġwere": 429,
      "ter": 430,
      "ug": 431,
      "Ġloo": 432,
      "Ġlo": 433,
      "ec": 434,
      "ore": 435,
      "ĠTim": 436,
      "Ġbo": 437,
      "Ġhim": 438,
      "!\"": 439,
      "Ġgo": 440,
      "Ġtoo": 441,
      "Ġupon": 442,
      "irl": 443,
      "Ġj": 444,
      "Ġwanted": 445,
      "Ġse": 446,
      "Ġgirl": 447,
      "Ġout": 448,
      "ard": 449,
      "way": 450,
      "Ġsp": 451,
      "ill": 452,
      "ĠA": 453,
      "Ġthem": 454,
      "ind": 455,
      "fu": 456,
      "Ġat": 457,
      "Ġcould": 458,
      "hen": 459,
      "ur": 460,
      "Ġdid": 461,
      "Ġtheir": 462,
      "Ġare": 463,
      "Ġsmil": 464,
      "Ġex": 465,
      "ain": 466,
      "ĠJ": 467,
      "Ġwent": 468,
      "hed": 469,
      "ic": 470,
      "art": 471,
      "rom": 472,
      "round": 473,
      "Ġhave": 474,
      "lp": 475,
      "Ġnam": 476,
      "Ġall": 477,
      "ful": 478,
      "ĠOne": 479,
      "Ġkn": 480,
      "hing": 481,
      "ood": 482,
      "Ġhelp": 483,
      "ight": 484,
      "Ġfriends": 485,
      "ark": 486,
      "one": 487,
      "um": 488,
      "Ġback": 489,
      "Ġcan": 490,
      "ĠBen": 491,
      "Ġnamed": 492,
      "ĠTom": 493,
      "Ġcl": 494,
      "?\"": 495,
      "Ġfun": 496,
      "are": 497,
      "Ġloved": 498,
      "ĠTimmy": 499,
      "op": 500,
      "Ġal": 501,
      "elt": 502,
      "side": 503,
      "Ġle": 504,
      "Ġno": 505,
      "Ġsc": 506,
      "Ġfelt": 507,
      "oug": 508,
      "Ġsmiled": 509,
      "ick": 510,
      "You": 511,
      "Ġasked": 512,
      "Ġtoy": 513,
      "Ġsay": 514,
      "Ġman": 515,
      "Ġaround": 516,
      "Ġfe": 517,
      "ame": 518,
      "ĠW": 519,
      "Ġsome": 520,
      "Ġboy": 521,
      "Ġlooked": 522,
      "ure": 523,
      "omet": 524,
      "Ġwould": 525,
      "Ġbr": 526,
      "Ġme": 527,
      "Ġbir": 528,
      "Ġlike": 529,
      "Ġro": 530,
      "as": 531,
      "Ġstart": 532,
      "get": 533,
      "Ġsee": 534,
      "ice": 535,
      "ong": 536,
      "Ġbird": 537,
      "Ġsomet": 538,
      "dd": 539,
      "ie": 540,
      "Ġwor": 541,
      "ade": 542,
      "Ġag": 543,
      "own": 544,
      "king": 545,
      "Ġfa": 546,
      "Ġaway": 547,
      "ings": 548,
      "Ġwhat": 549,
      "Ġtre": 550,
      "âĢ": 551,
      "Ġran": 552,
      "Ġstarted": 553,
      "gether": 554,
      "ared": 555,
      "Ġmake": 556,
      "ĠBut": 557,
      "ited": 558,
      "if": 559,
      "oud": 560,
      "Ġmade": 561,
      "Ġtogether": 562,
      "Ġsomething": 563,
      "ag": 564,
      "Ġexc": 565,
      "Ġco": 566,
      "Ġpark": 567,
      "Ġnew": 568,
      "Ġsad": 569,
      ",\"": 570,
      "ell": 571,
      "Ġcar": 572,
      "Ġput": 573,
      "Ġfrom": 574,
      "ble": 575,
      "Ġpr": 576,
      "ther": 577,
      "Ġmu": 578,
      "ĠYou": 579,
      "Ġthen": 580,
      "Ġhome": 581,
      "Ġwhen": 582,
      "Ġagain": 583,
      "Ġother": 584,
      "Ġfound": 585,
      "Ġdec": 586,
      "Ġwho": 587,
      "Ġla": 588,
      "ss": 589,
      "Ġch": 590,
      "ried": 591,
      "ook": 592,
      "Ġhug": 593,
      "Ġgood": 594,
      "pped": 595,
      "Ġsays": 596,
      "Ġwal": 597,
      "ally": 598,
      "est": 599,
      "ep": 600,
      "ĠE": 601,
      "Ġfl": 602,
      "pl": 603,
      "qu": 604,
      "Ġget": 605,
      "ach": 606,
      "Ġexcited": 607,
      "Lily": 608,
      "ought": 609,
      "Ġplaying": 610,
      "Ġgot": 611,
      "ous": 612,
      "Ġsw": 613,
      "One": 614,
      "ided": 615,
      "Ġthings": 616,
      "uck": 617,
      "hat": 618,
      "ny": 619,
      "Ġdecided": 620,
      "Ġevery": 621,
      "Ġcame": 622,
      "Ġbec": 623,
      "Ġbl": 624,
      "ave": 625,
      "ax": 626,
      "ro": 627,
      "Ġliked": 628,
      "Ġdown": 629,
      "Ġdog": 630,
      "Ġscared": 631,
      "Ġv": 632,
      "ue": 633,
      "udd": 634,
      "ust": 635,
      "Ġone": 636,
      "Ġfind": 637,
      "ap": 638,
      "Ġdidn": 639,
      "Ġthan": 640,
      "ĠD": 641,
      "Ġkne": 642,
      "ways": 643,
      "ouse": 644,
      "Ġcare": 645,
      "Ġmommy": 646,
      "Ġdad": 647,
      "Ġalways": 648,
      "Ġab": 649,
      "bb": 650,
      "Ġfeel": 651,
      "ara": 652,
      "arn": 653,
      "ist": 654,
      "fe": 655,
      "Ġyour": 656,
      "ĠMom": 657,
      "Ġgra": 658,
      "Ġoutside": 659,
      "ant": 660,
      "Ġke": 661,
      "Ġlot": 662,
      "us": 663,
      "Ġtook": 664,
      "nn": 665,
      "ite": 666,
      "ess": 667,
      "ĠF": 668,
      "Ġabout": 669,
      "nder": 670,
      "Ġtree": 671,
      "Ġlook": 672,
      "eci": 673,
      "Ġmy": 674,
      "our": 675,
      "Ġtoys": 676,
      "Ġpo": 677,
      "ched": 678,
      "ĠSam": 679,
      "Ġthought": 680,
      "ened": 681,
      "Ġknew": 682,
      "Ġball": 683,
      "Ġlearn": 684,
      "Ġint": 685,
      "ĠMax": 686,
      "Ġmore": 687,
      "ise": 688,
      "Ġold": 689,
      "ged": 690,
      "nna": 691,
      "They": 692,
      "Ġta": 693,
      "udden": 694,
      "Ġwill": 695,
      "ers": 696,
      "ecial": 697,
      "Ġspecial": 698,
      "Ġho": 699,
      "Ġpe": 700,
      "ret": 701,
      "Ġtake": 702,
      "Ġknow": 703,
      "Ġlaug": 704,
      "fter": 705,
      "uddenly": 706,
      "au": 707,
      "Ġcat": 708,
      "Ġtr": 709,
      "Ġhow": 710,
      "ive": 711,
      "Ġmuch": 712,
      "Ġany": 713,
      "Ġsor": 714,
      "Ġsl": 715,
      "ma": 716,
      "ven": 717,
      "ish": 718,
      "Ġmo": 719,
      "Ġshow": 720,
      "ink": 721,
      "ause": 722,
      "Ġcouldn": 723,
      "But": 724,
      "ump": 725,
      "ia": 726,
      "Ġhouse": 727,
      "Ġtried": 728,
      "Ġinto": 729,
      "Ġover": 730,
      "Ġclo": 731,
      "Ġsun": 732,
      "Ġsk": 733,
      "and": 734,
      "Ġeat": 735,
      "Ġtw": 736,
      "Ġinside": 737,
      "ĠEvery": 738,
      "dy": 739,
      "Ġrun": 740,
      "Ġhand": 741,
      "Ġen": 742,
      "Ġif": 743,
      "Ġqu": 744,
      "ĠSara": 745,
      "Ġtold": 746,
      "Ġgre": 747,
      "Ġproud": 748,
      "Ġnever": 749,
      "ion": 750,
      "Ġbecause": 751,
      "Ġsorry": 752,
      "by": 753,
      "Ġop": 754,
      "Ġgave": 755,
      "Ġbox": 756,
      "Ġor": 757,
      "Ġplayed": 758,
      "ate": 759,
      "Ġthis": 760,
      "Ġexpl": 761,
      "Ġheard": 762,
      "ank": 763,
      "ty": 764,
      "Ġroom": 765,
      "ge": 766,
      "Ġwater": 767,
      "other": 768,
      "Ġra": 769,
      "Ġpick": 770,
      "etter": 771,
      "ĠAnna": 772,
      "Ġjust": 773,
      "Ġhugged": 774,
      "ak": 775,
      "here": 776,
      "Ġoff": 777,
      "Ġpret": 778,
      "Ġeach": 779,
      "sed": 780,
      "Ġbu": 781,
      "Ġlong": 782,
      "Ġcom": 783,
      "ile": 784,
      "ort": 785,
      "Ġbear": 786,
      "Ġunt": 787,
      "ĠWe": 788,
      "Ġstr": 789,
      "ine": 790,
      "Ġneed": 791,
      "iz": 792,
      "Ġwat": 793,
      "oth": 794,
      "ĠJo": 795,
      "Ġjo": 796,
      "Ġuntil": 797,
      "Ġsmall": 798,
      "Ġnice": 799,
      "Ġtry": 800,
      "uc": 801,
      "Mom": 802,
      "ving": 803,
      "sel": 804,
      "ough": 805,
      "Ġlearned": 806,
      "ild": 807,
      "ĠJack": 808,
      "Ġkind": 809,
      "Ġmany": 810,
      "Ġbetter": 811,
      "'m": 812,
      "Ġfo": 813,
      "gry": 814,
      "Ġim": 815,
      "ft": 816,
      "Ġend": 817,
      "urt": 818,
      "Ġsn": 819,
      "imal": 820,
      "Ġanimal": 821,
      "ull": 822,
      "aut": 823,
      "Ġcle": 824,
      "Ġte": 825,
      "vent": 826,
      "urp": 827,
      "Ġgr": 828,
      "ream": 829,
      "Ġche": 830,
      "Ġbeaut": 831,
      "mb": 832,
      "Ġjump": 833,
      "Ġad": 834,
      "ĠHer": 835,
      "ies": 836,
      "pt": 837,
      "Ġbra": 838,
      "Ġeven": 839,
      "Ġbest": 840,
      "ĠSo": 841,
      "Ġflow": 842,
      "Ġthanked": 843,
      "Ġcall": 844,
      "Ġlots": 845,
      "ady": 846,
      "Ġlaughed": 847,
      "He": 848,
      "ace": 849,
      "urn": 850,
      "self": 851,
      "Ġby": 852,
      "lly": 853,
      "ars": 854,
      "ĠC": 855,
      "Ġway": 856,
      "Ġfast": 857,
      "Ġfam": 858,
      "ves": 859,
      "arden": 860,
      "Ġgarden": 861,
      "Ġbeauti": 862,
      "wn": 863,
      "Ġbeautiful": 864,
      "Th": 865,
      "Ġloud": 866,
      "Ġsky": 867,
      "hn": 868,
      "Ġdon": 869,
      "lew": 870,
      "ered": 871,
      "Ġcareful": 872,
      "ĠMia": 873,
      "Ġlove": 874,
      "âĢĿ": 875,
      "Ġfi": 876,
      "Ġsafe": 877,
      "âĢľ": 878,
      "iny": 879,
      "ĠThen": 880,
      "ect": 881,
      "ase": 882,
      "ĠAnd": 883,
      "Ġcome": 884,
      "Yes": 885,
      "ĠFrom": 886,
      "Ġhard": 887,
      "Ġwo": 888,
      "Ġunder": 889,
      "me": 890,
      "ane": 891,
      "Ġstay": 892,
      "ople": 893,
      "Ġlist": 894,
      "Ġgl": 895,
      "ool": 896,
      "Ġstill": 897,
      "ning": 898,
      "It": 899,
      "Ġhurt": 900,
      "Tom": 901,
      "ree": 902,
      "Ġhas": 903,
      "ĠHis": 904,
      "Ġimp": 905,
      "Ġboth": 906,
      "Ġfamily": 907,
      "rm": 908,
      "hes": 909,
      "Ġpeople": 910,
      "Ġanimals": 911,
      "Ġcol": 912,
      "Ġred": 913,
      "When": 914,
      "Ġcu": 915,
      "igh": 916,
      "Ġbrave": 917,
      "Ġlived": 918,
      "Ġwalked": 919,
      "ct": 920,
      "urpr": 921,
      "ob": 922,
      "Ġsurpr": 923,
      "ĠWhen": 924,
      "Ġtwo": 925,
      "Ġbad": 926,
      "Ġlet": 927,
      "ress": 928,
      "ished": 929,
      "ĠâĢľ": 930,
      "Ġshould": 931,
      "Ġfore": 932,
      "ip": 933,
      "Ġkept": 934,
      "Ġbook": 935,
      "Ġstor": 936,
      "Ġfin": 937,
      "ast": 938,
      "Ġflew": 939,
      "ised": 940,
      "Ġfly": 941,
      "Ġits": 942,
      "led": 943,
      "ock": 944,
      "Ġdan": 945,
      "Ġclean": 946,
      "Ġpic": 947,
      "ucy": 948,
      "fore": 949,
      "Ġgoing": 950,
      "kay": 951,
      "Ġcalled": 952,
      "Ġangry": 953,
      "Ġshare": 954,
      "Ġide": 955,
      "Ġsoon": 956,
      "No": 957,
      "Ġcon": 958,
      "Ġpretty": 959,
      "Ġrock": 960,
      "Tim": 961,
      "ied": 962,
      "illy": 963,
      "xt": 964,
      "Ġground": 965,
      "Ġexplore": 966,
      "so": 967,
      "Ġwind": 968,
      "be": 969,
      "Ġreal": 970,
      "Let": 971,
      "Ġsto": 972,
      "Ġcry": 973,
      "Ġadvent": 974,
      "Ġdoll": 975,
      "Ġalso": 976,
      "Ġidea": 977,
      "Ġopened": 978,
      "Ġshiny": 979,
      "oy": 980,
      "Ġbefore": 981,
      "Ġey": 982,
      "dded": 983,
      "ummy": 984,
      "Ġfeeling": 985,
      "Ġwhile": 986,
      "Ġnow": 987,
      "Ġdoor": 988,
      "Ġkeep": 989,
      "les": 990,
      "oon": 991,
      "Ġwalking": 992,
      "Ġnoise": 993,
      "Ġfr": 994,
      "Ġturn": 995,
      "age": 996,
      "Ġcolor": 997,
      "ious": 998,
      "Ġbed": 999,
      "thing": 1000,
      "uch": 1001,
      "ff": 1002,
      "th": 1003,
      "Ġdra": 1004,
      "Ġfar": 1005,
      "Ġpicked": 1006,
      "ary": 1007,
      "imb": 1008,
      "ture": 1009,
      "Ġdel": 1010,
      "Ġbeing": 1011,
      "ac": 1012,
      "Ġclimb": 1013,
      "What": 1014,
      "âĢĻ": 1015,
      "eet": 1016,
      "Ġun": 1017,
      "Ġfood": 1018,
      "ĠP": 1019,
      "Ġwr": 1020,
      "Ġdif": 1021,
      "Ġadventure": 1022,
      "Ġthr": 1023,
      "ught": 1024,
      "Ġsmile": 1025,
      "Ġblue": 1026,
      "memb": 1027,
      "Ġnext": 1028,
      "iced": 1029,
      "joy": 1030,
      "ĠLucy": 1031,
      "Ġlooking": 1032,
      "Ġdis": 1033,
      "Ġquick": 1034,
      "bbit": 1035,
      "Ġclos": 1036,
      "Ġrepl": 1037,
      "Ġnodded": 1038,
      "Ġforest": 1039,
      "ĠG": 1040,
      "Ġeyes": 1041,
      "Ġyell": 1042,
      "Ġpicture": 1043,
      "ger": 1044,
      "ĠDad": 1045,
      "Ġown": 1046,
      "ized": 1047,
      "ted": 1048,
      "ĠSuddenly": 1049,
      "Ġwait": 1050,
      "That": 1051,
      "Ġrememb": 1052,
      "Ġgreat": 1053,
      "Ġimport": 1054,
      "Ġtra": 1055,
      "Ġstopped": 1056,
      "Suddenly": 1057,
      "Thank": 1058,
      "Ġvo": 1059,
      "Ġrain": 1060,
      "Ġgive": 1061,
      "Ġenjoy": 1062,
      "Ġapp": 1063,
      "Ġnear": 1064,
      "Ġimportant": 1065,
      "gan": 1066,
      "Ġquickly": 1067,
      "ĠJohn": 1068,
      "Ġrabbit": 1069,
      "Ġever": 1070,
      "Ġwork": 1071,
      "ting": 1072,
      "Ġfish": 1073,
      "Ġafter": 1074,
      "Ġtruck": 1075,
      "bbed": 1076,
      "Ġlisten": 1077,
      "Ġbre": 1078,
      "Ġthink": 1079,
      "Ġbro": 1080,
      "Ġreplied": 1081,
      "Ġnoticed": 1082,
      "ĠR": 1083,
      "Ġma": 1084,
      "Ġhands": 1085,
      "pot": 1086,
      "Ġwalk": 1087,
      "Ġslide": 1088,
      "kes": 1089,
      "She": 1090,
      "Ġac": 1091,
      "Ġshowed": 1092,
      "Ġeveryone": 1093,
      "irst": 1094,
      "Ġwonder": 1095,
      "fere": 1096,
      "Ġdiffere": 1097,
      "So": 1098,
      "Ġde": 1099,
      "Ġtow": 1100,
      "Ġsound": 1101,
      "Ġsure": 1102,
      "bye": 1103,
      "Ġright": 1104,
      "maz": 1105,
      "Ġstrong": 1106,
      "Ġshout": 1107,
      "Ġamaz": 1108,
      "Ġtal": 1109,
      "Ġhead": 1110,
      "Ġbeen": 1111,
      "Ġbecame": 1112,
      "Ġmean": 1113,
      "Ġmor": 1114,
      "Ġbright": 1115,
      "ĠBob": 1116,
      "Ġchild": 1117,
      "aybe": 1118,
      "Ġye": 1119,
      "ĠSue": 1120,
      "Ġface": 1121,
      "Ġwatched": 1122,
      "Ġwhere": 1123,
      "ĠN": 1124,
      "Ġdress": 1125,
      "Ġwatch": 1126,
      "llow": 1127,
      "able": 1128,
      "aught": 1129,
      "Ġcook": 1130,
      "ĠMommy": 1131,
      "Ġdifferent": 1132,
      "day": 1133,
      "Ġhigh": 1134,
      "ng": 1135,
      "Ġboat": 1136,
      "Ġokay": 1137,
      "Ġgoodbye": 1138,
      "ange": 1139,
      "Ġsqu": 1140,
      "Ġus": 1141,
      "Ġstore": 1142,
      "Ġvoice": 1143,
      "Ġnight": 1144,
      "Ġcloser": 1145,
      "ath": 1146,
      "lease": 1147,
      "Ġar": 1148,
      "Ġplace": 1149,
      "Ġfollow": 1150,
      "Ġuse": 1151,
      "Ġpu": 1152,
      "leep": 1153,
      "Ġfav": 1154,
      "Ġflowers": 1155,
      "Ġbus": 1156,
      "ired": 1157,
      "isy": 1158,
      "Ben": 1159,
      "unny": 1160,
      "Ġcuri": 1161,
      "Ġgrabbed": 1162,
      "Ġstick": 1163,
      "Ġcr": 1164,
      "ĠSpot": 1165,
      "Ġforg": 1166,
      "Ġmag": 1167,
      "We": 1168,
      "Ġcake": 1169,
      "Ġwarm": 1170,
      "Ġjumped": 1171,
      "ĠSarah": 1172,
      "more": 1173,
      "Ġanymore": 1174,
      "Ġbutter": 1175,
      "After": 1176,
      "Ġask": 1177,
      "Ġtell": 1178,
      "Ġcurious": 1179,
      "ount": 1180,
      "Ġfell": 1181,
      "Ġthree": 1182,
      "lie": 1183,
      "Ġour": 1184,
      "ached": 1185,
      "co": 1186,
      "orn": 1187,
      "ĠJane": 1188,
      "ndma": 1189,
      "ĠTh": 1190,
      "ass": 1191,
      "Ġbirds": 1192,
      "Ġcont": 1193,
      "Her": 1194,
      "Ġblock": 1195,
      "Ġfirst": 1196,
      "Ġhelped": 1197,
      "iss": 1198,
      "Ġpull": 1199,
      "Ġhat": 1200,
      "Ġyellow": 1201,
      "Ġhop": 1202,
      "ila": 1203,
      "Ġru": 1204,
      "Ġbit": 1205,
      "itc": 1206,
      "Ġmon": 1207,
      "ĠEveryone": 1208,
      "Ġkid": 1209,
      "Look": 1210,
      "Ġrealized": 1211,
      "Ġdr": 1212,
      "Ġz": 1213,
      "ppy": 1214,
      "Ġbrother": 1215,
      "Ġstop": 1216,
      "zy": 1217,
      "Ġdoes": 1218,
      "Ġper": 1219,
      "Ġate": 1220,
      "Ġhappened": 1221,
      "Ġgreen": 1222,
      "imes": 1223,
      "Ġsweet": 1224,
      "Ġfavor": 1225,
      "Ġkitc": 1226,
      "Ġkitchen": 1227,
      "Ġreally": 1228,
      "Ġgrass": 1229,
      "ĠAs": 1230,
      "Ġfavorite": 1231,
      "Ġyummy": 1232,
      "Ġbegan": 1233,
      "Ġrest": 1234,
      "Ġpain": 1235,
      "Ġlea": 1236,
      "Ġreached": 1237,
      "air": 1238,
      "Ġready": 1239,
      "Ġunderst": 1240,
      "Ġflo": 1241,
      "'re": 1242,
      "Ġsing": 1243,
      "Ġhere": 1244,
      "Ġsand": 1245,
      "Ġstory": 1246,
      "Ġam": 1247,
      "Ġworld": 1248,
      "ster": 1249,
      "Ġtri": 1250,
      "Ġonly": 1251,
      "Ġbeh": 1252,
      "Ġprin": 1253,
      "Ġopen": 1254,
      "Ġglad": 1255,
      "Ġste": 1256,
      "Ġba": 1257,
      "arent": 1258,
      "aisy": 1259,
      "Ġthrough": 1260,
      "where": 1261,
      "Ġbunny": 1262,
      "Ġcre": 1263,
      "Ġflower": 1264,
      "Ġhimself": 1265,
      "Ġfire": 1266,
      "Ġdelic": 1267,
      "Ġtired": 1268,
      "Ġhaving": 1269,
      "Ġsoft": 1270,
      "fully": 1271,
      "Ġmess": 1272,
      "Ġparent": 1273,
      "Ġbutterf": 1274,
      "Ġfro": 1275,
      "Ġdone": 1276,
      "Ġthing": 1277,
      "ĠLet": 1278,
      "Can": 1279,
      "Ġwhy": 1280,
      "Ġcut": 1281,
      "olly": 1282,
      "Jo": 1283,
      "ken": 1284,
      "Ġtast": 1285,
      "iver": 1286,
      "Ġpart": 1287,
      "Ġdin": 1288,
      "Ġmagic": 1289,
      "Ġwaved": 1290,
      "Ġshouted": 1291,
      "Ġworry": 1292,
      "Ġduck": 1293,
      "uff": 1294,
      "Ġgame": 1295,
      "Ġkids": 1296,
      "Ġsees": 1297,
      "ather": 1298,
      "illed": 1299,
      "eddy": 1300,
      "ater": 1301,
      "ient": 1302,
      "Timmy": 1303,
      "sh": 1304,
      "Ġpond": 1305,
      "Ġcatch": 1306,
      "Ġmaking": 1307,
      "ĠJoe": 1308,
      "ation": 1309,
      "Ġcoming": 1310,
      "akes": 1311,
      "As": 1312,
      "Ġless": 1313,
      "Ġcool": 1314,
      "Ġfix": 1315,
      "Mommy": 1316,
      "Ġused": 1317,
      "Ġlady": 1318,
      "Ġseen": 1319,
      "Ġhopped": 1320,
      "Ġdark": 1321,
      "Ġthank": 1322,
      "\".": 1323,
      "Ġtop": 1324,
      "mer": 1325,
      "Ġsurprise": 1326,
      "Ġhair": 1327,
      "ĠCan": 1328,
      "aring": 1329,
      "Ġdraw": 1330,
      "Ġlight": 1331,
      "Ġfull": 1332,
      "Ġprom": 1333,
      "Ġcra": 1334,
      "Ġmum": 1335,
      "ign": 1336,
      "aper": 1337,
      "Ġfunny": 1338,
      "Ġtouch": 1339,
      "ins": 1340,
      "rel": 1341,
      "Ġsurprised": 1342,
      "Ġdro": 1343,
      "Ġ-": 1344,
      "Ġspot": 1345,
      "ĠBenny": 1346,
      "ĠDo": 1347,
      "Ġworked": 1348,
      "Ġice": 1349,
      "ren": 1350,
      "Ġdoing": 1351,
      "Ġparents": 1352,
      "Ġtrees": 1353,
      "Ġfrog": 1354,
      "Wow": 1355,
      "Ġswing": 1356,
      "inally": 1357,
      "Don": 1358,
      "ĠThat": 1359,
      "ĠIn": 1360,
      "Ġsat": 1361,
      "Ġpretend": 1362,
      "oney": 1363,
      "Ġcarefully": 1364,
      "Ġread": 1365,
      "Ġwood": 1366,
      "Ġtight": 1367,
      "Ġslow": 1368,
      "Ġneeded": 1369,
      "Ġdelicious": 1370,
      "Ġhole": 1371,
      "Ġmouse": 1372,
      "Ġpus": 1373,
      "hy": 1374,
      "Ġset": 1375,
      "Ġblocks": 1376,
      "Ġswim": 1377,
      "Ġheld": 1378,
      "ards": 1379,
      "Ġremembered": 1380,
      "Ġcold": 1381,
      "Ġdri": 1382,
      "Ġlost": 1383,
      "Ġbehind": 1384,
      "ely": 1385,
      "cess": 1386,
      "Ġlooks": 1387,
      "Ġrunning": 1388,
      "Ġherself": 1389,
      "Ġsmell": 1390,
      "sw": 1391,
      "Ġbutterfly": 1392,
      "Ġgi": 1393,
      "Ġcried": 1394,
      "ike": 1395,
      "ask": 1396,
      "Ġperf": 1397,
      "Ġhappily": 1398,
      "Ġname": 1399,
      "Ġenjoyed": 1400,
      "Ġsleep": 1401,
      "Ġbag": 1402,
      "Ġyears": 1403,
      "Ġwished": 1404,
      "Ġfloor": 1405,
      "Ġanother": 1406,
      "Ġarri": 1407,
      "Ġbuy": 1408,
      "Ġwindow": 1409,
      "Ġmove": 1410,
      "ul": 1411,
      "Ġair": 1412,
      "Ġtall": 1413,
      "Ġlesson": 1414,
      "ued": 1415,
      "Ġcars": 1416,
      "Ġhill": 1417,
      "ner": 1418,
      "ĠLila": 1419,
      "Sara": 1420,
      "Ġsho": 1421,
      "sp": 1422,
      "Ġfinished": 1423,
      "Ġchildren": 1424,
      "Ġlikes": 1425,
      "Ġbow": 1426,
      "Ġpaper": 1427,
      "ens": 1428,
      "andy": 1429,
      "ĠAfter": 1430,
      "Ġhold": 1431,
      "Ġwrong": 1432,
      "reed": 1433,
      "From": 1434,
      "rew": 1435,
      "Ġarrived": 1436,
      "Ġleft": 1437,
      "uit": 1438,
      "ĠDaisy": 1439,
      "Ġunderstand": 1440,
      "Ġclose": 1441,
      "Ġhear": 1442,
      "Ġanything": 1443,
      "Ġcontin": 1444,
      "Ġhun": 1445,
      "Ġgent": 1446,
      "atter": 1447,
      "lf": 1448,
      "Ġable": 1449,
      "ĠSally": 1450,
      "Ġwall": 1451,
      "ross": 1452,
      "Anna": 1453,
      "ĠThere": 1454,
      "Ġfriendly": 1455,
      "asure": 1456,
      "av": 1457,
      "Ġforgot": 1458,
      "Hell": 1459,
      "Hello": 1460,
      "Ġdream": 1461,
      "Ġel": 1462,
      "Ġdir": 1463,
      "Ġgone": 1464,
      "Ġwet": 1465,
      "bo": 1466,
      "ons": 1467,
      "Ġfilled": 1468,
      "ĠBilly": 1469,
      "Ġcreat": 1470,
      "Ġcookies": 1471,
      "Ġdinner": 1472,
      "Ġlaugh": 1473,
      ".âĢĿ": 1474,
      "ield": 1475,
      "Ġhot": 1476,
      "Ġtable": 1477,
      "Ġbroken": 1478,
      "ama": 1479,
      "umb": 1480,
      "Ġelse": 1481,
      "ĠTommy": 1482,
      "Ġhid": 1483,
      "ced": 1484,
      "rot": 1485,
      "John": 1486,
      "Ġcolors": 1487,
      "Ġarm": 1488,
      "Ġfollowed": 1489,
      "Ġpink": 1490,
      "Ġbuild": 1491,
      "Ġmoment": 1492,
      "ĠEm": 1493,
      "Ġwonderful": 1494,
      "Ġpuppy": 1495,
      "oup": 1496,
      "Ġmar": 1497,
      "Ġyes": 1498,
      "ey": 1499,
      "Ġcontinued": 1500,
      "Ġmight": 1501,
      "Ġfinally": 1502,
      "!âĢĿ": 1503,
      "Ġenough": 1504,
      "app": 1505,
      "ined": 1506,
      "irrel": 1507,
      "Ġperfect": 1508,
      "Ġstayed": 1509,
      "ĠNow": 1510,
      "Ġbooks": 1511,
      "Ġmorning": 1512,
      "Ġcream": 1513,
      "Ġcast": 1514,
      "Ġju": 1515,
      "Ġfair": 1516,
      "Ġdaddy": 1517,
      "Ġsomeone": 1518,
      "Ġothers": 1519,
      "Ġagreed": 1520,
      "Ġtrying": 1521,
      "room": 1522,
      "'ll": 1523,
      "Ġfall": 1524,
      "icy": 1525,
      "Ġgetting": 1526,
      "Ġcount": 1527,
      "Ġmus": 1528,
      "Ġgrandma": 1529,
      "Ġbaby": 1530,
      "Ġsnow": 1531,
      "Then": 1532,
      "Ġsquirrel": 1533,
      "Ġmother": 1534,
      "ol": 1535,
      "Ġleaves": 1536,
      "Ġfew": 1537,
      "ash": 1538,
      "At": 1539,
      "ho": 1540,
      "ries": 1541,
      "Ġbreak": 1542,
      "ĠThis": 1543,
      "Ġvis": 1544,
      "Ġbug": 1545,
      "Ġclimbed": 1546,
      "ance": 1547,
      "ated": 1548,
      "Ġbrought": 1549,
      "Ġbeach": 1550,
      "Ġplease": 1551,
      "Ġmet": 1552,
      "Ġdeep": 1553,
      "Jack": 1554,
      "ling": 1555,
      "ich": 1556,
      "Ġsometimes": 1557,
      "oom": 1558,
      "key": 1559,
      "Ġeverything": 1560,
      "This": 1561,
      "lc": 1562,
      "Ġfight": 1563,
      "Ġmusic": 1564,
      "Ġtrain": 1565,
      "os": 1566,
      "Ġlion": 1567,
      "Ġturned": 1568,
      "Ġhungry": 1569,
      "Ġwasn": 1570,
      "Sam": 1571,
      "ds": 1572,
      "Ġsong": 1573,
      "Ġpictures": 1574,
      "oring": 1575,
      "Ġride": 1576,
      "gon": 1577,
      "Ġmakes": 1578,
      "Ġjoy": 1579,
      "zz": 1580,
      "Ġclot": 1581,
      "Ġpol": 1582,
      "ee": 1583,
      "Ġlistened": 1584,
      "Ġsear": 1585,
      "Ġclothes": 1586,
      "His": 1587,
      "Ġspark": 1588,
      "ĠWhat": 1589,
      "ĠJen": 1590,
      "Ġsail": 1591,
      "ĠJim": 1592,
      "ucky": 1593,
      "bble": 1594,
      "Ġpoin": 1595,
      "Ġgrow": 1596,
      "apped": 1597,
      "Ġcomp": 1598,
      "Ġteddy": 1599,
      "ĠK": 1600,
      "Ġwants": 1601,
      "Ġflying": 1602,
      "man": 1603,
      "Ġplan": 1604,
      "Ġstrange": 1605,
      "Ġscary": 1606,
      "row": 1607,
      "swer": 1608,
      "ope": 1609,
      "ĠTo": 1610,
      "Ġamazed": 1611,
      "Ġwaited": 1612,
      "Ġele": 1613,
      "Ġamazing": 1614,
      "Ġpat": 1615,
      "Ġtreat": 1616,
      "OK": 1617,
      "Ġfur": 1618,
      "Ġballoon": 1619,
      "med": 1620,
      "Ġleave": 1621,
      "ister": 1622,
      "Ġdanger": 1623,
      "Ġpi": 1624,
      "Ġsuch": 1625,
      "Ġpie": 1626,
      "Ġowner": 1627,
      "Ġcastle": 1628,
      "hone": 1629,
      "Ġspl": 1630,
      "Ġwhite": 1631,
      "Oh": 1632,
      "Ġtalk": 1633,
      "red": 1634,
      "uffy": 1635,
      "Ġpromised": 1636,
      "cle": 1637,
      "ever": 1638,
      "Ġshared": 1639,
      "Ġwoods": 1640,
      "ĠMaybe": 1641,
      "Ġnap": 1642,
      "Ġpulled": 1643,
      "ĠMolly": 1644,
      "ĠAmy": 1645,
      "Ġpre": 1646,
      "Ġvisit": 1647,
      "Ġsit": 1648,
      "ugg": 1649,
      "ang": 1650,
      "Ġcolorful": 1651,
      "thy": 1652,
      "Ġmagical": 1653,
      "ott": 1654,
      "ctor": 1655,
      "igg": 1656,
      "Ġriver": 1657,
      "Ġbelie": 1658,
      "Ġalone": 1659,
      "Ġtowards": 1660,
      "ually": 1661,
      "ence": 1662,
      "Ġgu": 1663,
      "Ġgrate": 1664,
      "Ġsmiles": 1665,
      "Ġtail": 1666,
      "Ġpen": 1667,
      "amp": 1668,
      "ased": 1669,
      "ower": 1670,
      "Ġhide": 1671,
      "Ġside": 1672,
      "Ġhig": 1673,
      "Ġpaint": 1674,
      "Ġsilly": 1675,
      "Ġpro": 1676,
      "Ġgrateful": 1677,
      "up": 1678,
      "ained": 1679,
      "Ġland": 1680,
      "Ġmoral": 1681,
      "eter": 1682,
      "Ġpa": 1683,
      "Ġroll": 1684,
      "Ġslowly": 1685,
      "set": 1686,
      "Ġshap": 1687,
      "avy": 1688,
      "Ġsec": 1689,
      "Ġfield": 1690,
      "Ġkite": 1691,
      "Ġsnack": 1692,
      "Ġmonster": 1693,
      "Ġsister": 1694,
      "Ġpet": 1695,
      "Ġmin": 1696,
      "Ġtreasure": 1697,
      "Ġjob": 1698,
      "Ġfaster": 1699,
      "Ġhelping": 1700,
      "Ġworried": 1701,
      "Ġqui": 1702,
      "ĠGra": 1703,
      "ear": 1704,
      "Ġmust": 1705,
      "Ġparty": 1706,
      "orm": 1707,
      "Ġremember": 1708,
      "Ġmoney": 1709,
      "wl": 1710,
      "Ġmost": 1711,
      "Ġliving": 1712,
      "less": 1713,
      "Ġwear": 1714,
      "Ġacc": 1715,
      "em": 1716,
      "der": 1717,
      "ze": 1718,
      "ire": 1719,
      "Ġpot": 1720,
      "Ġfox": 1721,
      "ipped": 1722,
      "Ġsign": 1723,
      "Ġcandy": 1724,
      "Ġprincess": 1725,
      "Ġquiet": 1726,
      "ident": 1727,
      "unch": 1728,
      "outh": 1729,
      "Ġlake": 1730,
      "Ġcarrot": 1731,
      "Ġcup": 1732,
      "Ġbel": 1733,
      "Ġeverywhere": 1734,
      "Ġhigher": 1735,
      "Max": 1736,
      "Ġcloud": 1737,
      "Ġblank": 1738,
      "asket": 1739,
      "Ġruns": 1740,
      "Ġstepped": 1741,
      "Ġmouth": 1742,
      "ames": 1743,
      "Ġbigger": 1744,
      "ĠAll": 1745,
      "Ġblanket": 1746,
      "Ġtown": 1747,
      "Ġbasket": 1748,
      "anc": 1749,
      "Ġjoin": 1750,
      "Ġclosed": 1751,
      "Ġbuck": 1752,
      "Ġscream": 1753,
      "Ġcoll": 1754,
      "ises": 1755,
      "Ġbroke": 1756,
      "ose": 1757,
      "ĠDaddy": 1758,
      "Ġdangerous": 1759,
      "Ġdolls": 1760,
      "ord": 1761,
      "Ġplant": 1762,
      "Ġwelc": 1763,
      "eared": 1764,
      "Ġreach": 1765,
      "Ġdance": 1766,
      "Ġwon": 1767,
      "ĠMr": 1768,
      "Ġteac": 1769,
      "Ġheavy": 1770,
      "Ġwouldn": 1771,
      "Ġbott": 1772,
      "Ġchair": 1773,
      "Ġasks": 1774,
      "ph": 1775,
      "Okay": 1776,
      "br": 1777,
      "Ġce": 1778,
      "Ġstre": 1779,
      "gs": 1780,
      "cket": 1781,
      "Ġthinks": 1782,
      "fort": 1783,
      "eces": 1784,
      "Ġpieces": 1785,
      "Ġeating": 1786,
      "Ġpack": 1787,
      "Ġrace": 1788,
      "de": 1789,
      "Ġdisapp": 1790,
      "Ġacross": 1791,
      "Ġbike": 1792,
      "Hi": 1793,
      "Ġfruit": 1794,
      "Ġbelieve": 1795,
      "ming": 1796,
      "iting": 1797,
      "Ġve": 1798,
      "Ġfarmer": 1799,
      "Ġstuck": 1800,
      "Ġneigh": 1801,
      "Ġcrying": 1802,
      "Ġsuddenly": 1803,
      "phant": 1804,
      "ĠJill": 1805,
      "Ġsoup": 1806,
      "Ġbar": 1807,
      "Ġthrew": 1808,
      "Ġneighb": 1809,
      "Sure": 1810,
      "Ġgif": 1811,
      "Ġdirty": 1812,
      "ored": 1813,
      "Ġaccident": 1814,
      "ventually": 1815,
      "Ġmonkey": 1816,
      "Ġelephant": 1817,
      "ier": 1818,
      "ead": 1819,
      "Ġheal": 1820,
      "pping": 1821,
      "Ġwin": 1822,
      "Ġsame": 1823,
      "Ġrem": 1824,
      "Ġteacher": 1825,
      "Ġpers": 1826,
      "Ġinst": 1827,
      "Ġdragon": 1828,
      "Ġben": 1829,
      "Ġspr": 1830,
      "Maybe": 1831,
      "ible": 1832,
      "Ġbrown": 1833,
      "Ġgentle": 1834,
      "Ġfree": 1835,
      "Ġwords": 1836,
      "Ġupset": 1837,
      "Ġbucket": 1838,
      "chool": 1839,
      "Ġcheered": 1840,
      "Ġlonger": 1841,
      "Finally": 1842,
      "cked": 1843,
      "Ġbee": 1844,
      "Ġblack": 1845,
      "ĠFl": 1846,
      "Ġbite": 1847,
      "Ġhit": 1848,
      "Ġmark": 1849,
      "Ġdoctor": 1850,
      "Ġpiece": 1851,
      "ment": 1852,
      "Ġwell": 1853,
      "Ġclapped": 1854,
      "Ġalong": 1855,
      "Why": 1856,
      "Ġcaught": 1857,
      "ix": 1858,
      "Ġsang": 1859,
      "Ġyoung": 1860,
      "Ġbowl": 1861,
      "Ġbutt": 1862,
      "Ġplac": 1863,
      "Ġschool": 1864,
      "Ġyard": 1865,
      "Ġsea": 1866,
      "Ġexplained": 1867,
      "Ġcour": 1868,
      "ese": 1869,
      "Ġdropped": 1870,
      "bby": 1871,
      "sy": 1872,
      "Ġstories": 1873,
      "ĠMama": 1874,
      "Ġbring": 1875,
      "Ġbath": 1876,
      "Ġswings": 1877,
      "ourn": 1878,
      "weet": 1879,
      "Ġheart": 1880,
      "?âĢĿ": 1881,
      "Ġwings": 1882,
      "Ġstu": 1883,
      "Ġsmart": 1884,
      "Ġdrink": 1885,
      "ĠEmma": 1886,
      "Ġjuice": 1887,
      "Ġdry": 1888,
      "ber": 1889,
      "Ġmine": 1890,
      "Ġforget": 1891,
      "Ġjourn": 1892,
      "Ġdrove": 1893,
      "Ġnearby": 1894,
      "Ġcourse": 1895,
      "aughter": 1896,
      "Ġsecret": 1897,
      "Ġwelcome": 1898,
      "ung": 1899,
      "Ġyear": 1900,
      "Ġes": 1901,
      "Ġtoday": 1902,
      "Ġwithout": 1903,
      "Ġstreet": 1904,
      "Ġhappen": 1905,
      "Ġcray": 1906,
      "Ġpushed": 1907,
      "Ġjar": 1908,
      "Ġexp": 1909,
      "Ġcheese": 1910,
      "Ġturns": 1911,
      "Ġsinging": 1912,
      "Ġgames": 1913,
      "ract": 1914,
      "Ġtiny": 1915,
      "Ġant": 1916,
      "vel": 1917,
      "Ġsmo": 1918,
      "Ġpocket": 1919,
      "to": 1920,
      "Ġatt": 1921,
      "Ġfairy": 1922,
      "Ġhoped": 1923,
      "orrow": 1924,
      "Ġresp": 1925,
      "Ġspoon": 1926,
      "ĠFinally": 1927,
      "Ġwoke": 1928,
      "ail": 1929,
      "Ġcow": 1930,
      "Ġlon": 1931,
      "itting": 1932,
      "Ġhugs": 1933,
      "Ġtwins": 1934,
      "issed": 1935,
      "Ġtrou": 1936,
      "Ġsuc": 1937,
      "Ġinv": 1938,
      "yard": 1939,
      "Ġfit": 1940,
      "Ġstand": 1941,
      "Ġnoises": 1942,
      "Ġexploring": 1943,
      "Ġdisco": 1944,
      "Ġrocks": 1945,
      "ountain": 1946,
      "ek": 1947,
      "Ġlunch": 1948,
      "Ġdaughter": 1949,
      "vered": 1950,
      "Ġseemed": 1951,
      "Ġlonely": 1952,
      "Ġje": 1953,
      "ĠSammy": 1954,
      "Ġapple": 1955,
      "llo": 1956,
      "Ġtower": 1957,
      "Ġbackyard": 1958,
      "Ġshook": 1959,
      "bow": 1960,
      "read": 1961,
      "Ġmiss": 1962,
      "oun": 1963,
      "Ġcir": 1964,
      "Ġsu": 1965,
      "fused": 1966,
      "Ġswam": 1967,
      "Ġwish": 1968,
      "Ġkey": 1969,
      "Ġ3": 1970,
      "Ġstars": 1971,
      "Ġbush": 1972,
      "Ġthough": 1973,
      "Ġshapes": 1974,
      "Mia": 1975,
      "Ġpar": 1976,
      "Ġmoved": 1977,
      "Ġthrow": 1978,
      "Ġshoes": 1979,
      "bs": 1980,
      "ape": 1981,
      "ts": 1982,
      "Ġrelie": 1983,
      "Ġbench": 1984,
      "Ġtaking": 1985,
      "ity": 1986,
      "ittens": 1987,
      "Ġadventures": 1988,
      "Ġwise": 1989,
      "ocked": 1990,
      "Ġowl": 1991,
      "shine": 1992,
      "Ġshell": 1993,
      "Ġbubble": 1994,
      "Ġwhe": 1995,
      "Ġneck": 1996,
      "Ġlate": 1997,
      "Ġwhist": 1998,
      "ours": 1999,
      "Ġfence": 2000,
      "ush": 2001,
      "Ġorange": 2002,
      "And": 2003,
      "pper": 2004,
      "Ġcute": 2005,
      "unt": 2006,
      "ining": 2007,
      "Ġspin": 2008,
      "Ġcreature": 2009,
      "Ġaccidentally": 2010,
      "Ġcorn": 2011,
      "ĠFluffy": 2012,
      "ward": 2013,
      "ten": 2014,
      "urple": 2015,
      "Ġmat": 2016,
      "ilk": 2017,
      "Ġlift": 2018,
      "Ġrainbow": 2019,
      "Ġphone": 2020,
      "Ġstar": 2021,
      "ions": 2022,
      "ĠWho": 2023,
      "Ġsitting": 2024,
      "Ġdist": 2025,
      "Ġonto": 2026,
      "Ġarms": 2027,
      "Ġaf": 2028,
      "idge": 2029,
      "Ġsunshine": 2030,
      "Ġhello": 2031,
      "ĠAn": 2032,
      "Ġdriver": 2033,
      "fish": 2034,
      "gged": 2035,
      "Ġnest": 2036,
      "Ġnaught": 2037,
      "ĠJimmy": 2038,
      "Ġnaughty": 2039,
      "lla": 2040,
      "Ġinstead": 2041,
      "Ġbought": 2042,
      "Ġcomes": 2043,
      "Ġpop": 2044,
      "Ġwondered": 2045,
      "Ġeas": 2046,
      "Ġlaughing": 2047
    },
    "merges": [
      [
        "h",
        "e"
      ],
      [
        "Ġ",
        "t"
      ],
      [
        "Ġ",
        "a"
      ],
      [
        "Ġ",
        "s"
      ],
      [
        "Ġ",
        "w"
      ],
      [
        "n",
        "d"
      ],
      [
        "Ġt",
        "he"
      ],
      [
        "e",
        "d"
      ],
      [
        "Ġa",
        "nd"
      ],
      [
        "Ġt",
        "o"
      ],
      [
        "Ġ",
        "b"
      ],
      [
        "i",
        "n"
      ],
      [
        "Ġ",
        "h"
      ],
      [
        "Ġw",
        "a"
      ],
      [
        "r",
        "e"
      ],
      [
        "Ġ",
        "f"
      ],
      [
        "i",
        "t"
      ],
      [
        "o",
        "u"
      ],
      [
        "Ġ",
        "c"
      ],
      [
        "Ġ",
        "l"
      ],
      [
        "Ġ",
        "he"
      ],
      [
        "Ġ",
        "d"
      ],
      [
        "e",
        "r"
      ],
      [
        "Ġwa",
        "s"
      ],
      [
        "Ġ",
        "m"
      ],
      [
        "Ġ",
        "p"
      ],
      [
        "o",
        "m"
      ],
      [
        "Ġ",
        "T"
      ],
      [
        "Ġ",
        "o"
      ],
      [
        "a",
        "y"
      ],
      [
        "a",
        "r"
      ],
      [
        "i",
        "s"
      ],
      [
        "in",
        "g"
      ],
      [
        "Ġ",
        "g"
      ],
      [
        "i",
        "l"
      ],
      [
        "i",
        "d"
      ],
      [
        "a",
        "t"
      ],
      [
        "e",
        "n"
      ],
      [
        "Ġ",
        "n"
      ],
      [
        "Ġs",
        "a"
      ],
      [
        "Ġh",
        "a"
      ],
      [
        "Ġ",
        "S"
      ],
      [
        "ĠT",
        "he"
      ],
      [
        "i",
        "m"
      ],
      [
        "a",
        "n"
      ],
      [
        "o",
        "r"
      ],
      [
        "o",
        "n"
      ],
      [
        "Ġ",
        "it"
      ],
      [
        "Ġt",
        "h"
      ],
      [
        "l",
        "l"
      ],
      [
        "l",
        "e"
      ],
      [
        "Ġ",
        "H"
      ],
      [
        "Ġhe",
        "r"
      ],
      [
        "e",
        "t"
      ],
      [
        "o",
        "t"
      ],
      [
        "i",
        "r"
      ],
      [
        "ĠS",
        "he"
      ],
      [
        "ĠH",
        "e"
      ],
      [
        "v",
        "er"
      ],
      [
        "e",
        "s"
      ],
      [
        "Ġ",
        "in"
      ],
      [
        "u",
        "t"
      ],
      [
        "o",
        "w"
      ],
      [
        "c",
        "k"
      ],
      [
        "Ġ",
        "e"
      ],
      [
        "Ġ",
        "u"
      ],
      [
        "l",
        "d"
      ],
      [
        "ĠThe",
        "y"
      ],
      [
        "o",
        "o"
      ],
      [
        "i",
        "g"
      ],
      [
        "Ġ",
        "y"
      ],
      [
        "Ġ",
        "r"
      ],
      [
        "Ġsa",
        "id"
      ],
      [
        "a",
        "m"
      ],
      [
        "il",
        "y"
      ],
      [
        "Ġb",
        "e"
      ],
      [
        "Ġs",
        "t"
      ],
      [
        "c",
        "e"
      ],
      [
        "Ġs",
        "he"
      ],
      [
        "it",
        "h"
      ],
      [
        "Ġ",
        "\""
      ],
      [
        "p",
        "p"
      ],
      [
        "k",
        "e"
      ],
      [
        "Ġw",
        "ith"
      ],
      [
        "Ġ",
        "I"
      ],
      [
        "O",
        "n"
      ],
      [
        "v",
        "e"
      ],
      [
        "Ġ",
        "L"
      ],
      [
        "Ġo",
        "n"
      ],
      [
        "Ġo",
        "f"
      ],
      [
        "Ġs",
        "o"
      ],
      [
        "Ġh",
        "is"
      ],
      [
        "k",
        "ed"
      ],
      [
        "r",
        "i"
      ],
      [
        "n",
        "t"
      ],
      [
        "ver",
        "y"
      ],
      [
        "Ġp",
        "l"
      ],
      [
        "Ġd",
        "ay"
      ],
      [
        "a",
        "d"
      ],
      [
        "Ġy",
        "ou"
      ],
      [
        "Ġth",
        "at"
      ],
      [
        "Ġ",
        "On"
      ],
      [
        "Ġu",
        "p"
      ],
      [
        "ĠL",
        "ily"
      ],
      [
        "Ġha",
        "d"
      ],
      [
        "s",
        "t"
      ],
      [
        "Ġpl",
        "ay"
      ],
      [
        "Ġthe",
        "y"
      ],
      [
        "Ġw",
        "e"
      ],
      [
        "Ġm",
        "om"
      ],
      [
        "m",
        "y"
      ],
      [
        "Ġf",
        "or"
      ],
      [
        "e",
        "l"
      ],
      [
        "ou",
        "ld"
      ],
      [
        "Ġ",
        "B"
      ],
      [
        "u",
        "n"
      ],
      [
        "'",
        "s"
      ],
      [
        "it",
        "t"
      ],
      [
        "en",
        "t"
      ],
      [
        "Ġha",
        "pp"
      ],
      [
        "c",
        "h"
      ],
      [
        "T",
        "he"
      ],
      [
        "Ġl",
        "i"
      ],
      [
        "Ġwa",
        "nt"
      ],
      [
        "ou",
        "t"
      ],
      [
        "Ġs",
        "h"
      ],
      [
        "he",
        "r"
      ],
      [
        "l",
        "y"
      ],
      [
        "im",
        "e"
      ],
      [
        "itt",
        "le"
      ],
      [
        "Ġ",
        "very"
      ],
      [
        "ou",
        "nd"
      ],
      [
        "Ġt",
        "ime"
      ],
      [
        "om",
        "e"
      ],
      [
        "Ġd",
        "o"
      ],
      [
        "Ġl",
        "ittle"
      ],
      [
        "Ġthe",
        "re"
      ],
      [
        "a",
        "ll"
      ],
      [
        "s",
        "e"
      ],
      [
        "Ġ",
        "k"
      ],
      [
        "Ġw",
        "h"
      ],
      [
        "e",
        "nd"
      ],
      [
        "a",
        "l"
      ],
      [
        "h",
        "t"
      ],
      [
        "Ġn",
        "e"
      ],
      [
        "Ġ",
        "M"
      ],
      [
        "Ġ",
        "re"
      ],
      [
        "Ġn",
        "ot"
      ],
      [
        "Ġhapp",
        "y"
      ],
      [
        "Ġb",
        "ig"
      ],
      [
        "Ġb",
        "ut"
      ],
      [
        "a",
        "ck"
      ],
      [
        "Ġs",
        "m"
      ],
      [
        "Ġsa",
        "w"
      ],
      [
        "ĠI",
        "t"
      ],
      [
        "Ġa",
        "s"
      ],
      [
        "Ġa",
        "n"
      ],
      [
        "ri",
        "end"
      ],
      [
        "Ġf",
        "riend"
      ],
      [
        "r",
        "a"
      ],
      [
        "r",
        "y"
      ],
      [
        "id",
        "e"
      ],
      [
        "Ġ",
        "is"
      ],
      [
        "v",
        "ed"
      ],
      [
        "'",
        "t"
      ],
      [
        "a",
        "ke"
      ],
      [
        "ĠOn",
        "ce"
      ],
      [
        ".",
        "\""
      ],
      [
        "Ġwe",
        "re"
      ],
      [
        "t",
        "er"
      ],
      [
        "u",
        "g"
      ],
      [
        "Ġl",
        "oo"
      ],
      [
        "Ġl",
        "o"
      ],
      [
        "e",
        "c"
      ],
      [
        "o",
        "re"
      ],
      [
        "ĠT",
        "im"
      ],
      [
        "Ġb",
        "o"
      ],
      [
        "Ġh",
        "im"
      ],
      [
        "!",
        "\""
      ],
      [
        "Ġg",
        "o"
      ],
      [
        "Ġto",
        "o"
      ],
      [
        "Ġup",
        "on"
      ],
      [
        "ir",
        "l"
      ],
      [
        "Ġ",
        "j"
      ],
      [
        "Ġwant",
        "ed"
      ],
      [
        "Ġs",
        "e"
      ],
      [
        "Ġg",
        "irl"
      ],
      [
        "Ġ",
        "out"
      ],
      [
        "ar",
        "d"
      ],
      [
        "w",
        "ay"
      ],
      [
        "Ġs",
        "p"
      ],
      [
        "il",
        "l"
      ],
      [
        "Ġ",
        "A"
      ],
      [
        "Ġthe",
        "m"
      ],
      [
        "i",
        "nd"
      ],
      [
        "f",
        "u"
      ],
      [
        "Ġa",
        "t"
      ],
      [
        "Ġc",
        "ould"
      ],
      [
        "he",
        "n"
      ],
      [
        "u",
        "r"
      ],
      [
        "Ġd",
        "id"
      ],
      [
        "Ġthe",
        "ir"
      ],
      [
        "Ġa",
        "re"
      ],
      [
        "Ġsm",
        "il"
      ],
      [
        "Ġe",
        "x"
      ],
      [
        "a",
        "in"
      ],
      [
        "Ġ",
        "J"
      ],
      [
        "Ġw",
        "ent"
      ],
      [
        "he",
        "d"
      ],
      [
        "i",
        "c"
      ],
      [
        "ar",
        "t"
      ],
      [
        "r",
        "om"
      ],
      [
        "r",
        "ound"
      ],
      [
        "Ġha",
        "ve"
      ],
      [
        "l",
        "p"
      ],
      [
        "Ġn",
        "am"
      ],
      [
        "Ġa",
        "ll"
      ],
      [
        "fu",
        "l"
      ],
      [
        "ĠOn",
        "e"
      ],
      [
        "Ġk",
        "n"
      ],
      [
        "h",
        "ing"
      ],
      [
        "oo",
        "d"
      ],
      [
        "Ġhe",
        "lp"
      ],
      [
        "ig",
        "ht"
      ],
      [
        "Ġfriend",
        "s"
      ],
      [
        "ar",
        "k"
      ],
      [
        "on",
        "e"
      ],
      [
        "u",
        "m"
      ],
      [
        "Ġb",
        "ack"
      ],
      [
        "Ġc",
        "an"
      ],
      [
        "ĠB",
        "en"
      ],
      [
        "Ġnam",
        "ed"
      ],
      [
        "ĠT",
        "om"
      ],
      [
        "Ġc",
        "l"
      ],
      [
        "?",
        "\""
      ],
      [
        "Ġf",
        "un"
      ],
      [
        "a",
        "re"
      ],
      [
        "Ġlo",
        "ved"
      ],
      [
        "ĠTim",
        "my"
      ],
      [
        "o",
        "p"
      ],
      [
        "Ġa",
        "l"
      ],
      [
        "el",
        "t"
      ],
      [
        "s",
        "ide"
      ],
      [
        "Ġl",
        "e"
      ],
      [
        "Ġn",
        "o"
      ],
      [
        "Ġs",
        "c"
      ],
      [
        "Ġf",
        "elt"
      ],
      [
        "ou",
        "g"
      ],
      [
        "Ġsmil",
        "ed"
      ],
      [
        "i",
        "ck"
      ],
      [
        "Y",
        "ou"
      ],
      [
        "Ġas",
        "ked"
      ],
      [
        "Ġto",
        "y"
      ],
      [
        "Ġs",
        "ay"
      ],
      [
        "Ġm",
        "an"
      ],
      [
        "Ġa",
        "round"
      ],
      [
        "Ġf",
        "e"
      ],
      [
        "am",
        "e"
      ],
      [
        "Ġ",
        "W"
      ],
      [
        "Ġs",
        "ome"
      ],
      [
        "Ġbo",
        "y"
      ],
      [
        "Ġloo",
        "ked"
      ],
      [
        "u",
        "re"
      ],
      [
        "om",
        "et"
      ],
      [
        "Ġw",
        "ould"
      ],
      [
        "Ġb",
        "r"
      ],
      [
        "Ġm",
        "e"
      ],
      [
        "Ġb",
        "ir"
      ],
      [
        "Ġli",
        "ke"
      ],
      [
        "Ġr",
        "o"
      ],
      [
        "a",
        "s"
      ],
      [
        "Ġst",
        "art"
      ],
      [
        "g",
        "et"
      ],
      [
        "Ġse",
        "e"
      ],
      [
        "i",
        "ce"
      ],
      [
        "on",
        "g"
      ],
      [
        "Ġbir",
        "d"
      ],
      [
        "Ġs",
        "omet"
      ],
      [
        "d",
        "d"
      ],
      [
        "i",
        "e"
      ],
      [
        "Ġw",
        "or"
      ],
      [
        "ad",
        "e"
      ],
      [
        "Ġa",
        "g"
      ],
      [
        "ow",
        "n"
      ],
      [
        "k",
        "ing"
      ],
      [
        "Ġf",
        "a"
      ],
      [
        "Ġa",
        "way"
      ],
      [
        "ing",
        "s"
      ],
      [
        "Ġwh",
        "at"
      ],
      [
        "Ġt",
        "re"
      ],
      [
        "â",
        "Ģ"
      ],
      [
        "Ġr",
        "an"
      ],
      [
        "Ġstart",
        "ed"
      ],
      [
        "get",
        "her"
      ],
      [
        "ar",
        "ed"
      ],
      [
        "Ġm",
        "ake"
      ],
      [
        "ĠB",
        "ut"
      ],
      [
        "it",
        "ed"
      ],
      [
        "i",
        "f"
      ],
      [
        "ou",
        "d"
      ],
      [
        "Ġm",
        "ade"
      ],
      [
        "Ġto",
        "gether"
      ],
      [
        "Ġsomet",
        "hing"
      ],
      [
        "a",
        "g"
      ],
      [
        "Ġex",
        "c"
      ],
      [
        "Ġc",
        "o"
      ],
      [
        "Ġp",
        "ark"
      ],
      [
        "Ġne",
        "w"
      ],
      [
        "Ġsa",
        "d"
      ],
      [
        ",",
        "\""
      ],
      [
        "e",
        "ll"
      ],
      [
        "Ġc",
        "ar"
      ],
      [
        "Ġp",
        "ut"
      ],
      [
        "Ġf",
        "rom"
      ],
      [
        "b",
        "le"
      ],
      [
        "Ġp",
        "r"
      ],
      [
        "t",
        "her"
      ],
      [
        "Ġm",
        "u"
      ],
      [
        "Ġ",
        "You"
      ],
      [
        "Ġthe",
        "n"
      ],
      [
        "Ġh",
        "ome"
      ],
      [
        "Ġw",
        "hen"
      ],
      [
        "Ġag",
        "ain"
      ],
      [
        "Ġo",
        "ther"
      ],
      [
        "Ġf",
        "ound"
      ],
      [
        "Ġd",
        "ec"
      ],
      [
        "Ġwh",
        "o"
      ],
      [
        "Ġl",
        "a"
      ],
      [
        "s",
        "s"
      ],
      [
        "Ġc",
        "h"
      ],
      [
        "ri",
        "ed"
      ],
      [
        "oo",
        "k"
      ],
      [
        "Ġh",
        "ug"
      ],
      [
        "Ġg",
        "ood"
      ],
      [
        "pp",
        "ed"
      ],
      [
        "Ġsay",
        "s"
      ],
      [
        "Ġwa",
        "l"
      ],
      [
        "all",
        "y"
      ],
      [
        "es",
        "t"
      ],
      [
        "e",
        "p"
      ],
      [
        "Ġ",
        "E"
      ],
      [
        "Ġf",
        "l"
      ],
      [
        "p",
        "l"
      ],
      [
        "q",
        "u"
      ],
      [
        "Ġg",
        "et"
      ],
      [
        "a",
        "ch"
      ],
      [
        "Ġexc",
        "ited"
      ],
      [
        "L",
        "ily"
      ],
      [
        "oug",
        "ht"
      ],
      [
        "Ġplay",
        "ing"
      ],
      [
        "Ġg",
        "ot"
      ],
      [
        "ou",
        "s"
      ],
      [
        "Ġs",
        "w"
      ],
      [
        "On",
        "e"
      ],
      [
        "id",
        "ed"
      ],
      [
        "Ġth",
        "ings"
      ],
      [
        "u",
        "ck"
      ],
      [
        "h",
        "at"
      ],
      [
        "n",
        "y"
      ],
      [
        "Ġdec",
        "ided"
      ],
      [
        "Ġe",
        "very"
      ],
      [
        "Ġc",
        "ame"
      ],
      [
        "Ġbe",
        "c"
      ],
      [
        "Ġb",
        "l"
      ],
      [
        "a",
        "ve"
      ],
      [
        "a",
        "x"
      ],
      [
        "r",
        "o"
      ],
      [
        "Ġli",
        "ked"
      ],
      [
        "Ġd",
        "own"
      ],
      [
        "Ġdo",
        "g"
      ],
      [
        "Ġsc",
        "ared"
      ],
      [
        "Ġ",
        "v"
      ],
      [
        "u",
        "e"
      ],
      [
        "u",
        "dd"
      ],
      [
        "u",
        "st"
      ],
      [
        "Ġon",
        "e"
      ],
      [
        "Ġf",
        "ind"
      ],
      [
        "a",
        "p"
      ],
      [
        "Ġdid",
        "n"
      ],
      [
        "Ġth",
        "an"
      ],
      [
        "Ġ",
        "D"
      ],
      [
        "Ġkn",
        "e"
      ],
      [
        "way",
        "s"
      ],
      [
        "ou",
        "se"
      ],
      [
        "Ġc",
        "are"
      ],
      [
        "Ġmom",
        "my"
      ],
      [
        "Ġd",
        "ad"
      ],
      [
        "Ġal",
        "ways"
      ],
      [
        "Ġa",
        "b"
      ],
      [
        "b",
        "b"
      ],
      [
        "Ġfe",
        "el"
      ],
      [
        "ar",
        "a"
      ],
      [
        "ar",
        "n"
      ],
      [
        "is",
        "t"
      ],
      [
        "f",
        "e"
      ],
      [
        "Ġyou",
        "r"
      ],
      [
        "ĠM",
        "om"
      ],
      [
        "Ġg",
        "ra"
      ],
      [
        "Ġout",
        "side"
      ],
      [
        "an",
        "t"
      ],
      [
        "Ġ",
        "ke"
      ],
      [
        "Ġl",
        "ot"
      ],
      [
        "u",
        "s"
      ],
      [
        "Ġtoo",
        "k"
      ],
      [
        "n",
        "n"
      ],
      [
        "it",
        "e"
      ],
      [
        "es",
        "s"
      ],
      [
        "Ġ",
        "F"
      ],
      [
        "Ġab",
        "out"
      ],
      [
        "nd",
        "er"
      ],
      [
        "Ġtre",
        "e"
      ],
      [
        "Ġloo",
        "k"
      ],
      [
        "ec",
        "i"
      ],
      [
        "Ġm",
        "y"
      ],
      [
        "ou",
        "r"
      ],
      [
        "Ġtoy",
        "s"
      ],
      [
        "Ġp",
        "o"
      ],
      [
        "c",
        "hed"
      ],
      [
        "ĠS",
        "am"
      ],
      [
        "Ġth",
        "ought"
      ],
      [
        "en",
        "ed"
      ],
      [
        "Ġkne",
        "w"
      ],
      [
        "Ġb",
        "all"
      ],
      [
        "Ġle",
        "arn"
      ],
      [
        "Ġin",
        "t"
      ],
      [
        "ĠM",
        "ax"
      ],
      [
        "Ġm",
        "ore"
      ],
      [
        "is",
        "e"
      ],
      [
        "Ġo",
        "ld"
      ],
      [
        "g",
        "ed"
      ],
      [
        "nn",
        "a"
      ],
      [
        "The",
        "y"
      ],
      [
        "Ġt",
        "a"
      ],
      [
        "udd",
        "en"
      ],
      [
        "Ġw",
        "ill"
      ],
      [
        "er",
        "s"
      ],
      [
        "eci",
        "al"
      ],
      [
        "Ġsp",
        "ecial"
      ],
      [
        "Ġh",
        "o"
      ],
      [
        "Ġp",
        "e"
      ],
      [
        "re",
        "t"
      ],
      [
        "Ġt",
        "ake"
      ],
      [
        "Ġkn",
        "ow"
      ],
      [
        "Ġla",
        "ug"
      ],
      [
        "f",
        "ter"
      ],
      [
        "udden",
        "ly"
      ],
      [
        "a",
        "u"
      ],
      [
        "Ġc",
        "at"
      ],
      [
        "Ġt",
        "r"
      ],
      [
        "Ġh",
        "ow"
      ],
      [
        "i",
        "ve"
      ],
      [
        "Ġmu",
        "ch"
      ],
      [
        "Ġan",
        "y"
      ],
      [
        "Ġs",
        "or"
      ],
      [
        "Ġs",
        "l"
      ],
      [
        "m",
        "a"
      ],
      [
        "v",
        "en"
      ],
      [
        "is",
        "h"
      ],
      [
        "Ġm",
        "o"
      ],
      [
        "Ġsh",
        "ow"
      ],
      [
        "in",
        "k"
      ],
      [
        "au",
        "se"
      ],
      [
        "Ġcould",
        "n"
      ],
      [
        "B",
        "ut"
      ],
      [
        "um",
        "p"
      ],
      [
        "i",
        "a"
      ],
      [
        "Ġh",
        "ouse"
      ],
      [
        "Ġt",
        "ried"
      ],
      [
        "Ġint",
        "o"
      ],
      [
        "Ġo",
        "ver"
      ],
      [
        "Ġcl",
        "o"
      ],
      [
        "Ġs",
        "un"
      ],
      [
        "Ġs",
        "k"
      ],
      [
        "a",
        "nd"
      ],
      [
        "Ġe",
        "at"
      ],
      [
        "Ġt",
        "w"
      ],
      [
        "Ġin",
        "side"
      ],
      [
        "ĠE",
        "very"
      ],
      [
        "d",
        "y"
      ],
      [
        "Ġr",
        "un"
      ],
      [
        "Ġha",
        "nd"
      ],
      [
        "Ġ",
        "en"
      ],
      [
        "Ġ",
        "if"
      ],
      [
        "Ġ",
        "qu"
      ],
      [
        "ĠS",
        "ara"
      ],
      [
        "Ġto",
        "ld"
      ],
      [
        "Ġg",
        "re"
      ],
      [
        "Ġpr",
        "oud"
      ],
      [
        "Ġne",
        "ver"
      ],
      [
        "i",
        "on"
      ],
      [
        "Ġbec",
        "ause"
      ],
      [
        "Ġsor",
        "ry"
      ],
      [
        "b",
        "y"
      ],
      [
        "Ġo",
        "p"
      ],
      [
        "Ġg",
        "ave"
      ],
      [
        "Ġbo",
        "x"
      ],
      [
        "Ġo",
        "r"
      ],
      [
        "Ġplay",
        "ed"
      ],
      [
        "at",
        "e"
      ],
      [
        "Ġth",
        "is"
      ],
      [
        "Ġex",
        "pl"
      ],
      [
        "Ġhe",
        "ard"
      ],
      [
        "an",
        "k"
      ],
      [
        "t",
        "y"
      ],
      [
        "Ġro",
        "om"
      ],
      [
        "g",
        "e"
      ],
      [
        "Ġwa",
        "ter"
      ],
      [
        "ot",
        "her"
      ],
      [
        "Ġr",
        "a"
      ],
      [
        "Ġp",
        "ick"
      ],
      [
        "et",
        "ter"
      ],
      [
        "ĠA",
        "nna"
      ],
      [
        "Ġj",
        "ust"
      ],
      [
        "Ġhug",
        "ged"
      ],
      [
        "a",
        "k"
      ],
      [
        "he",
        "re"
      ],
      [
        "Ġof",
        "f"
      ],
      [
        "Ġp",
        "ret"
      ],
      [
        "Ġe",
        "ach"
      ],
      [
        "s",
        "ed"
      ],
      [
        "Ġb",
        "u"
      ],
      [
        "Ġl",
        "ong"
      ],
      [
        "Ġc",
        "om"
      ],
      [
        "il",
        "e"
      ],
      [
        "or",
        "t"
      ],
      [
        "Ġbe",
        "ar"
      ],
      [
        "Ġu",
        "nt"
      ],
      [
        "ĠW",
        "e"
      ],
      [
        "Ġst",
        "r"
      ],
      [
        "in",
        "e"
      ],
      [
        "Ġne",
        "ed"
      ],
      [
        "i",
        "z"
      ],
      [
        "Ġwa",
        "t"
      ],
      [
        "ot",
        "h"
      ],
      [
        "ĠJ",
        "o"
      ],
      [
        "Ġj",
        "o"
      ],
      [
        "Ġunt",
        "il"
      ],
      [
        "Ġsm",
        "all"
      ],
      [
        "Ġn",
        "ice"
      ],
      [
        "Ġt",
        "ry"
      ],
      [
        "u",
        "c"
      ],
      [
        "M",
        "om"
      ],
      [
        "v",
        "ing"
      ],
      [
        "s",
        "el"
      ],
      [
        "oug",
        "h"
      ],
      [
        "Ġlearn",
        "ed"
      ],
      [
        "il",
        "d"
      ],
      [
        "ĠJ",
        "ack"
      ],
      [
        "Ġk",
        "ind"
      ],
      [
        "Ġman",
        "y"
      ],
      [
        "Ġb",
        "etter"
      ],
      [
        "'",
        "m"
      ],
      [
        "Ġf",
        "o"
      ],
      [
        "g",
        "ry"
      ],
      [
        "Ġ",
        "im"
      ],
      [
        "f",
        "t"
      ],
      [
        "Ġe",
        "nd"
      ],
      [
        "ur",
        "t"
      ],
      [
        "Ġs",
        "n"
      ],
      [
        "im",
        "al"
      ],
      [
        "Ġan",
        "imal"
      ],
      [
        "u",
        "ll"
      ],
      [
        "a",
        "ut"
      ],
      [
        "Ġc",
        "le"
      ],
      [
        "Ġt",
        "e"
      ],
      [
        "v",
        "ent"
      ],
      [
        "ur",
        "p"
      ],
      [
        "Ġg",
        "r"
      ],
      [
        "re",
        "am"
      ],
      [
        "Ġc",
        "he"
      ],
      [
        "Ġbe",
        "aut"
      ],
      [
        "m",
        "b"
      ],
      [
        "Ġj",
        "ump"
      ],
      [
        "Ġa",
        "d"
      ],
      [
        "ĠH",
        "er"
      ],
      [
        "i",
        "es"
      ],
      [
        "p",
        "t"
      ],
      [
        "Ġb",
        "ra"
      ],
      [
        "Ġe",
        "ven"
      ],
      [
        "Ġb",
        "est"
      ],
      [
        "ĠS",
        "o"
      ],
      [
        "Ġfl",
        "ow"
      ],
      [
        "Ġthan",
        "ked"
      ],
      [
        "Ġc",
        "all"
      ],
      [
        "Ġlot",
        "s"
      ],
      [
        "ad",
        "y"
      ],
      [
        "Ġlaug",
        "hed"
      ],
      [
        "H",
        "e"
      ],
      [
        "a",
        "ce"
      ],
      [
        "ur",
        "n"
      ],
      [
        "sel",
        "f"
      ],
      [
        "Ġb",
        "y"
      ],
      [
        "ll",
        "y"
      ],
      [
        "ar",
        "s"
      ],
      [
        "Ġ",
        "C"
      ],
      [
        "Ġwa",
        "y"
      ],
      [
        "Ġfa",
        "st"
      ],
      [
        "Ġf",
        "am"
      ],
      [
        "v",
        "es"
      ],
      [
        "ard",
        "en"
      ],
      [
        "Ġg",
        "arden"
      ],
      [
        "Ġbeaut",
        "i"
      ],
      [
        "w",
        "n"
      ],
      [
        "Ġbeauti",
        "ful"
      ],
      [
        "T",
        "h"
      ],
      [
        "Ġl",
        "oud"
      ],
      [
        "Ġsk",
        "y"
      ],
      [
        "h",
        "n"
      ],
      [
        "Ġd",
        "on"
      ],
      [
        "le",
        "w"
      ],
      [
        "er",
        "ed"
      ],
      [
        "Ġcare",
        "ful"
      ],
      [
        "ĠM",
        "ia"
      ],
      [
        "Ġlo",
        "ve"
      ],
      [
        "âĢ",
        "Ŀ"
      ],
      [
        "Ġf",
        "i"
      ],
      [
        "Ġsa",
        "fe"
      ],
      [
        "âĢ",
        "ľ"
      ],
      [
        "in",
        "y"
      ],
      [
        "ĠThe",
        "n"
      ],
      [
        "ec",
        "t"
      ],
      [
        "a",
        "se"
      ],
      [
        "ĠA",
        "nd"
      ],
      [
        "Ġc",
        "ome"
      ],
      [
        "Y",
        "es"
      ],
      [
        "ĠF",
        "rom"
      ],
      [
        "Ġh",
        "ard"
      ],
      [
        "Ġw",
        "o"
      ],
      [
        "Ġu",
        "nder"
      ],
      [
        "m",
        "e"
      ],
      [
        "an",
        "e"
      ],
      [
        "Ġst",
        "ay"
      ],
      [
        "op",
        "le"
      ],
      [
        "Ġl",
        "ist"
      ],
      [
        "Ġg",
        "l"
      ],
      [
        "oo",
        "l"
      ],
      [
        "Ġst",
        "ill"
      ],
      [
        "n",
        "ing"
      ],
      [
        "I",
        "t"
      ],
      [
        "Ġh",
        "urt"
      ],
      [
        "T",
        "om"
      ],
      [
        "re",
        "e"
      ],
      [
        "Ġha",
        "s"
      ],
      [
        "ĠH",
        "is"
      ],
      [
        "Ġim",
        "p"
      ],
      [
        "Ġb",
        "oth"
      ],
      [
        "Ġfam",
        "ily"
      ],
      [
        "r",
        "m"
      ],
      [
        "he",
        "s"
      ],
      [
        "Ġpe",
        "ople"
      ],
      [
        "Ġanimal",
        "s"
      ],
      [
        "Ġco",
        "l"
      ],
      [
        "Ġr",
        "ed"
      ],
      [
        "W",
        "hen"
      ],
      [
        "Ġc",
        "u"
      ],
      [
        "ig",
        "h"
      ],
      [
        "Ġbra",
        "ve"
      ],
      [
        "Ġli",
        "ved"
      ],
      [
        "Ġwal",
        "ked"
      ],
      [
        "c",
        "t"
      ],
      [
        "urp",
        "r"
      ],
      [
        "o",
        "b"
      ],
      [
        "Ġs",
        "urpr"
      ],
      [
        "ĠW",
        "hen"
      ],
      [
        "Ġtw",
        "o"
      ],
      [
        "Ġb",
        "ad"
      ],
      [
        "Ġl",
        "et"
      ],
      [
        "re",
        "ss"
      ],
      [
        "is",
        "hed"
      ],
      [
        "Ġ",
        "âĢľ"
      ],
      [
        "Ġsh",
        "ould"
      ],
      [
        "Ġf",
        "ore"
      ],
      [
        "i",
        "p"
      ],
      [
        "Ġke",
        "pt"
      ],
      [
        "Ġb",
        "ook"
      ],
      [
        "Ġst",
        "or"
      ],
      [
        "Ġf",
        "in"
      ],
      [
        "a",
        "st"
      ],
      [
        "Ġf",
        "lew"
      ],
      [
        "is",
        "ed"
      ],
      [
        "Ġf",
        "ly"
      ],
      [
        "Ġit",
        "s"
      ],
      [
        "l",
        "ed"
      ],
      [
        "o",
        "ck"
      ],
      [
        "Ġd",
        "an"
      ],
      [
        "Ġcle",
        "an"
      ],
      [
        "Ġp",
        "ic"
      ],
      [
        "uc",
        "y"
      ],
      [
        "f",
        "ore"
      ],
      [
        "Ġgo",
        "ing"
      ],
      [
        "k",
        "ay"
      ],
      [
        "Ġcall",
        "ed"
      ],
      [
        "Ġan",
        "gry"
      ],
      [
        "Ġsh",
        "are"
      ],
      [
        "Ġ",
        "ide"
      ],
      [
        "Ġso",
        "on"
      ],
      [
        "N",
        "o"
      ],
      [
        "Ġc",
        "on"
      ],
      [
        "Ġpret",
        "ty"
      ],
      [
        "Ġro",
        "ck"
      ],
      [
        "T",
        "im"
      ],
      [
        "i",
        "ed"
      ],
      [
        "il",
        "ly"
      ],
      [
        "x",
        "t"
      ],
      [
        "Ġg",
        "round"
      ],
      [
        "Ġexpl",
        "ore"
      ],
      [
        "s",
        "o"
      ],
      [
        "Ġw",
        "ind"
      ],
      [
        "b",
        "e"
      ],
      [
        "Ġre",
        "al"
      ],
      [
        "L",
        "et"
      ],
      [
        "Ġst",
        "o"
      ],
      [
        "Ġc",
        "ry"
      ],
      [
        "Ġad",
        "vent"
      ],
      [
        "Ġdo",
        "ll"
      ],
      [
        "Ġal",
        "so"
      ],
      [
        "Ġide",
        "a"
      ],
      [
        "Ġop",
        "ened"
      ],
      [
        "Ġsh",
        "iny"
      ],
      [
        "o",
        "y"
      ],
      [
        "Ġbe",
        "fore"
      ],
      [
        "Ġe",
        "y"
      ],
      [
        "dd",
        "ed"
      ],
      [
        "um",
        "my"
      ],
      [
        "Ġfeel",
        "ing"
      ],
      [
        "Ġwh",
        "ile"
      ],
      [
        "Ġn",
        "ow"
      ],
      [
        "Ġdo",
        "or"
      ],
      [
        "Ġke",
        "ep"
      ],
      [
        "le",
        "s"
      ],
      [
        "o",
        "on"
      ],
      [
        "Ġwal",
        "king"
      ],
      [
        "Ġno",
        "ise"
      ],
      [
        "Ġf",
        "r"
      ],
      [
        "Ġt",
        "urn"
      ],
      [
        "ag",
        "e"
      ],
      [
        "Ġcol",
        "or"
      ],
      [
        "i",
        "ous"
      ],
      [
        "Ġb",
        "ed"
      ],
      [
        "t",
        "hing"
      ],
      [
        "u",
        "ch"
      ],
      [
        "f",
        "f"
      ],
      [
        "t",
        "h"
      ],
      [
        "Ġd",
        "ra"
      ],
      [
        "Ġf",
        "ar"
      ],
      [
        "Ġpick",
        "ed"
      ],
      [
        "ar",
        "y"
      ],
      [
        "im",
        "b"
      ],
      [
        "t",
        "ure"
      ],
      [
        "Ġd",
        "el"
      ],
      [
        "Ġbe",
        "ing"
      ],
      [
        "a",
        "c"
      ],
      [
        "Ġcl",
        "imb"
      ],
      [
        "W",
        "hat"
      ],
      [
        "âĢ",
        "Ļ"
      ],
      [
        "e",
        "et"
      ],
      [
        "Ġu",
        "n"
      ],
      [
        "Ġf",
        "ood"
      ],
      [
        "Ġ",
        "P"
      ],
      [
        "Ġw",
        "r"
      ],
      [
        "Ġd",
        "if"
      ],
      [
        "Ġadvent",
        "ure"
      ],
      [
        "Ġth",
        "r"
      ],
      [
        "ug",
        "ht"
      ],
      [
        "Ġsmil",
        "e"
      ],
      [
        "Ġbl",
        "ue"
      ],
      [
        "me",
        "mb"
      ],
      [
        "Ġne",
        "xt"
      ],
      [
        "ic",
        "ed"
      ],
      [
        "j",
        "oy"
      ],
      [
        "ĠL",
        "ucy"
      ],
      [
        "Ġloo",
        "king"
      ],
      [
        "Ġd",
        "is"
      ],
      [
        "Ġqu",
        "ick"
      ],
      [
        "bb",
        "it"
      ],
      [
        "Ġclo",
        "s"
      ],
      [
        "Ġre",
        "pl"
      ],
      [
        "Ġno",
        "dded"
      ],
      [
        "Ġfore",
        "st"
      ],
      [
        "Ġ",
        "G"
      ],
      [
        "Ġey",
        "es"
      ],
      [
        "Ġy",
        "ell"
      ],
      [
        "Ġpic",
        "ture"
      ],
      [
        "g",
        "er"
      ],
      [
        "ĠD",
        "ad"
      ],
      [
        "Ġo",
        "wn"
      ],
      [
        "iz",
        "ed"
      ],
      [
        "t",
        "ed"
      ],
      [
        "ĠS",
        "uddenly"
      ],
      [
        "Ġwa",
        "it"
      ],
      [
        "T",
        "hat"
      ],
      [
        "Ġre",
        "memb"
      ],
      [
        "Ġgre",
        "at"
      ],
      [
        "Ġimp",
        "ort"
      ],
      [
        "Ġt",
        "ra"
      ],
      [
        "Ġsto",
        "pped"
      ],
      [
        "S",
        "uddenly"
      ],
      [
        "Th",
        "ank"
      ],
      [
        "Ġv",
        "o"
      ],
      [
        "Ġr",
        "ain"
      ],
      [
        "Ġg",
        "ive"
      ],
      [
        "Ġen",
        "joy"
      ],
      [
        "Ġa",
        "pp"
      ],
      [
        "Ġne",
        "ar"
      ],
      [
        "Ġimport",
        "ant"
      ],
      [
        "g",
        "an"
      ],
      [
        "Ġquick",
        "ly"
      ],
      [
        "ĠJo",
        "hn"
      ],
      [
        "Ġra",
        "bbit"
      ],
      [
        "Ġe",
        "ver"
      ],
      [
        "Ġwor",
        "k"
      ],
      [
        "t",
        "ing"
      ],
      [
        "Ġf",
        "ish"
      ],
      [
        "Ġa",
        "fter"
      ],
      [
        "Ġtr",
        "uck"
      ],
      [
        "bb",
        "ed"
      ],
      [
        "Ġlist",
        "en"
      ],
      [
        "Ġb",
        "re"
      ],
      [
        "Ġth",
        "ink"
      ],
      [
        "Ġbr",
        "o"
      ],
      [
        "Ġrepl",
        "ied"
      ],
      [
        "Ġnot",
        "iced"
      ],
      [
        "Ġ",
        "R"
      ],
      [
        "Ġm",
        "a"
      ],
      [
        "Ġhand",
        "s"
      ],
      [
        "p",
        "ot"
      ],
      [
        "Ġwal",
        "k"
      ],
      [
        "Ġsl",
        "ide"
      ],
      [
        "k",
        "es"
      ],
      [
        "S",
        "he"
      ],
      [
        "Ġa",
        "c"
      ],
      [
        "Ġshow",
        "ed"
      ],
      [
        "Ġevery",
        "one"
      ],
      [
        "ir",
        "st"
      ],
      [
        "Ġwo",
        "nder"
      ],
      [
        "fe",
        "re"
      ],
      [
        "Ġdif",
        "fere"
      ],
      [
        "S",
        "o"
      ],
      [
        "Ġd",
        "e"
      ],
      [
        "Ġto",
        "w"
      ],
      [
        "Ġs",
        "ound"
      ],
      [
        "Ġs",
        "ure"
      ],
      [
        "by",
        "e"
      ],
      [
        "Ġr",
        "ight"
      ],
      [
        "ma",
        "z"
      ],
      [
        "Ġstr",
        "ong"
      ],
      [
        "Ġsh",
        "out"
      ],
      [
        "Ġa",
        "maz"
      ],
      [
        "Ġt",
        "al"
      ],
      [
        "Ġhe",
        "ad"
      ],
      [
        "Ġbe",
        "en"
      ],
      [
        "Ġbec",
        "ame"
      ],
      [
        "Ġme",
        "an"
      ],
      [
        "Ġm",
        "or"
      ],
      [
        "Ġbr",
        "ight"
      ],
      [
        "ĠB",
        "ob"
      ],
      [
        "Ġch",
        "ild"
      ],
      [
        "ay",
        "be"
      ],
      [
        "Ġy",
        "e"
      ],
      [
        "ĠS",
        "ue"
      ],
      [
        "Ġfa",
        "ce"
      ],
      [
        "Ġwat",
        "ched"
      ],
      [
        "Ġw",
        "here"
      ],
      [
        "Ġ",
        "N"
      ],
      [
        "Ġd",
        "ress"
      ],
      [
        "Ġwat",
        "ch"
      ],
      [
        "ll",
        "ow"
      ],
      [
        "a",
        "ble"
      ],
      [
        "a",
        "ught"
      ],
      [
        "Ġc",
        "ook"
      ],
      [
        "ĠMom",
        "my"
      ],
      [
        "Ġdiffere",
        "nt"
      ],
      [
        "d",
        "ay"
      ],
      [
        "Ġh",
        "igh"
      ],
      [
        "n",
        "g"
      ],
      [
        "Ġbo",
        "at"
      ],
      [
        "Ġo",
        "kay"
      ],
      [
        "Ġgood",
        "bye"
      ],
      [
        "an",
        "ge"
      ],
      [
        "Ġs",
        "qu"
      ],
      [
        "Ġu",
        "s"
      ],
      [
        "Ġst",
        "ore"
      ],
      [
        "Ġvo",
        "ice"
      ],
      [
        "Ġn",
        "ight"
      ],
      [
        "Ġclos",
        "er"
      ],
      [
        "at",
        "h"
      ],
      [
        "le",
        "ase"
      ],
      [
        "Ġa",
        "r"
      ],
      [
        "Ġpl",
        "ace"
      ],
      [
        "Ġfo",
        "llow"
      ],
      [
        "Ġu",
        "se"
      ],
      [
        "Ġp",
        "u"
      ],
      [
        "le",
        "ep"
      ],
      [
        "Ġfa",
        "v"
      ],
      [
        "Ġflow",
        "ers"
      ],
      [
        "Ġb",
        "us"
      ],
      [
        "ir",
        "ed"
      ],
      [
        "is",
        "y"
      ],
      [
        "B",
        "en"
      ],
      [
        "un",
        "ny"
      ],
      [
        "Ġcu",
        "ri"
      ],
      [
        "Ġgra",
        "bbed"
      ],
      [
        "Ġst",
        "ick"
      ],
      [
        "Ġc",
        "r"
      ],
      [
        "ĠS",
        "pot"
      ],
      [
        "Ġfor",
        "g"
      ],
      [
        "Ġm",
        "ag"
      ],
      [
        "W",
        "e"
      ],
      [
        "Ġc",
        "ake"
      ],
      [
        "Ġwa",
        "rm"
      ],
      [
        "Ġjump",
        "ed"
      ],
      [
        "ĠSara",
        "h"
      ],
      [
        "m",
        "ore"
      ],
      [
        "Ġany",
        "more"
      ],
      [
        "Ġbut",
        "ter"
      ],
      [
        "A",
        "fter"
      ],
      [
        "Ġas",
        "k"
      ],
      [
        "Ġt",
        "ell"
      ],
      [
        "Ġcuri",
        "ous"
      ],
      [
        "ou",
        "nt"
      ],
      [
        "Ġfe",
        "ll"
      ],
      [
        "Ġth",
        "ree"
      ],
      [
        "l",
        "ie"
      ],
      [
        "Ġ",
        "our"
      ],
      [
        "a",
        "ched"
      ],
      [
        "c",
        "o"
      ],
      [
        "or",
        "n"
      ],
      [
        "ĠJ",
        "ane"
      ],
      [
        "nd",
        "ma"
      ],
      [
        "ĠT",
        "h"
      ],
      [
        "as",
        "s"
      ],
      [
        "Ġbird",
        "s"
      ],
      [
        "Ġcon",
        "t"
      ],
      [
        "H",
        "er"
      ],
      [
        "Ġbl",
        "ock"
      ],
      [
        "Ġf",
        "irst"
      ],
      [
        "Ġhelp",
        "ed"
      ],
      [
        "is",
        "s"
      ],
      [
        "Ġp",
        "ull"
      ],
      [
        "Ġh",
        "at"
      ],
      [
        "Ġyell",
        "ow"
      ],
      [
        "Ġh",
        "op"
      ],
      [
        "il",
        "a"
      ],
      [
        "Ġr",
        "u"
      ],
      [
        "Ġb",
        "it"
      ],
      [
        "it",
        "c"
      ],
      [
        "Ġm",
        "on"
      ],
      [
        "ĠEvery",
        "one"
      ],
      [
        "Ġk",
        "id"
      ],
      [
        "L",
        "ook"
      ],
      [
        "Ġreal",
        "ized"
      ],
      [
        "Ġd",
        "r"
      ],
      [
        "Ġ",
        "z"
      ],
      [
        "pp",
        "y"
      ],
      [
        "Ġbr",
        "other"
      ],
      [
        "Ġst",
        "op"
      ],
      [
        "z",
        "y"
      ],
      [
        "Ġdo",
        "es"
      ],
      [
        "Ġp",
        "er"
      ],
      [
        "Ġat",
        "e"
      ],
      [
        "Ġhapp",
        "ened"
      ],
      [
        "Ġgre",
        "en"
      ],
      [
        "im",
        "es"
      ],
      [
        "Ġsw",
        "eet"
      ],
      [
        "Ġfav",
        "or"
      ],
      [
        "Ġk",
        "itc"
      ],
      [
        "Ġkitc",
        "hen"
      ],
      [
        "Ġre",
        "ally"
      ],
      [
        "Ġgra",
        "ss"
      ],
      [
        "ĠA",
        "s"
      ],
      [
        "Ġfavor",
        "ite"
      ],
      [
        "Ġy",
        "ummy"
      ],
      [
        "Ġbe",
        "gan"
      ],
      [
        "Ġre",
        "st"
      ],
      [
        "Ġp",
        "ain"
      ],
      [
        "Ġle",
        "a"
      ],
      [
        "Ġre",
        "ached"
      ],
      [
        "a",
        "ir"
      ],
      [
        "Ġre",
        "ady"
      ],
      [
        "Ġunder",
        "st"
      ],
      [
        "Ġfl",
        "o"
      ],
      [
        "'",
        "re"
      ],
      [
        "Ġs",
        "ing"
      ],
      [
        "Ġhe",
        "re"
      ],
      [
        "Ġsa",
        "nd"
      ],
      [
        "Ġstor",
        "y"
      ],
      [
        "Ġa",
        "m"
      ],
      [
        "Ġwor",
        "ld"
      ],
      [
        "st",
        "er"
      ],
      [
        "Ġt",
        "ri"
      ],
      [
        "Ġon",
        "ly"
      ],
      [
        "Ġbe",
        "h"
      ],
      [
        "Ġpr",
        "in"
      ],
      [
        "Ġop",
        "en"
      ],
      [
        "Ġgl",
        "ad"
      ],
      [
        "Ġst",
        "e"
      ],
      [
        "Ġb",
        "a"
      ],
      [
        "are",
        "nt"
      ],
      [
        "a",
        "isy"
      ],
      [
        "Ġthr",
        "ough"
      ],
      [
        "w",
        "here"
      ],
      [
        "Ġb",
        "unny"
      ],
      [
        "Ġc",
        "re"
      ],
      [
        "Ġflow",
        "er"
      ],
      [
        "Ġhim",
        "self"
      ],
      [
        "Ġfi",
        "re"
      ],
      [
        "Ġdel",
        "ic"
      ],
      [
        "Ġt",
        "ired"
      ],
      [
        "Ġha",
        "ving"
      ],
      [
        "Ġso",
        "ft"
      ],
      [
        "fu",
        "lly"
      ],
      [
        "Ġm",
        "ess"
      ],
      [
        "Ġp",
        "arent"
      ],
      [
        "Ġbutter",
        "f"
      ],
      [
        "Ġf",
        "ro"
      ],
      [
        "Ġd",
        "one"
      ],
      [
        "Ġth",
        "ing"
      ],
      [
        "ĠL",
        "et"
      ],
      [
        "C",
        "an"
      ],
      [
        "Ġwh",
        "y"
      ],
      [
        "Ġc",
        "ut"
      ],
      [
        "o",
        "lly"
      ],
      [
        "J",
        "o"
      ],
      [
        "k",
        "en"
      ],
      [
        "Ġta",
        "st"
      ],
      [
        "i",
        "ver"
      ],
      [
        "Ġp",
        "art"
      ],
      [
        "Ġd",
        "in"
      ],
      [
        "Ġmag",
        "ic"
      ],
      [
        "Ġwa",
        "ved"
      ],
      [
        "Ġshout",
        "ed"
      ],
      [
        "Ġwor",
        "ry"
      ],
      [
        "Ġd",
        "uck"
      ],
      [
        "u",
        "ff"
      ],
      [
        "Ġg",
        "ame"
      ],
      [
        "Ġkid",
        "s"
      ],
      [
        "Ġse",
        "es"
      ],
      [
        "at",
        "her"
      ],
      [
        "ill",
        "ed"
      ],
      [
        "ed",
        "dy"
      ],
      [
        "at",
        "er"
      ],
      [
        "i",
        "ent"
      ],
      [
        "Tim",
        "my"
      ],
      [
        "s",
        "h"
      ],
      [
        "Ġpo",
        "nd"
      ],
      [
        "Ġcat",
        "ch"
      ],
      [
        "Ġma",
        "king"
      ],
      [
        "ĠJo",
        "e"
      ],
      [
        "at",
        "ion"
      ],
      [
        "Ġcom",
        "ing"
      ],
      [
        "ak",
        "es"
      ],
      [
        "A",
        "s"
      ],
      [
        "Ġl",
        "ess"
      ],
      [
        "Ġc",
        "ool"
      ],
      [
        "Ġfi",
        "x"
      ],
      [
        "Mom",
        "my"
      ],
      [
        "Ġu",
        "sed"
      ],
      [
        "Ġl",
        "ady"
      ],
      [
        "Ġse",
        "en"
      ],
      [
        "Ġho",
        "pped"
      ],
      [
        "Ġd",
        "ark"
      ],
      [
        "Ġthan",
        "k"
      ],
      [
        "\"",
        "."
      ],
      [
        "Ġto",
        "p"
      ],
      [
        "m",
        "er"
      ],
      [
        "Ġsurpr",
        "ise"
      ],
      [
        "Ġha",
        "ir"
      ],
      [
        "ĠC",
        "an"
      ],
      [
        "ar",
        "ing"
      ],
      [
        "Ġdra",
        "w"
      ],
      [
        "Ġl",
        "ight"
      ],
      [
        "Ġf",
        "ull"
      ],
      [
        "Ġp",
        "rom"
      ],
      [
        "Ġc",
        "ra"
      ],
      [
        "Ġm",
        "um"
      ],
      [
        "ig",
        "n"
      ],
      [
        "ap",
        "er"
      ],
      [
        "Ġfun",
        "ny"
      ],
      [
        "Ġto",
        "uch"
      ],
      [
        "in",
        "s"
      ],
      [
        "re",
        "l"
      ],
      [
        "Ġsurpr",
        "ised"
      ],
      [
        "Ġd",
        "ro"
      ],
      [
        "Ġ",
        "-"
      ],
      [
        "Ġsp",
        "ot"
      ],
      [
        "ĠBen",
        "ny"
      ],
      [
        "ĠD",
        "o"
      ],
      [
        "Ġwor",
        "ked"
      ],
      [
        "Ġ",
        "ice"
      ],
      [
        "re",
        "n"
      ],
      [
        "Ġdo",
        "ing"
      ],
      [
        "Ġparent",
        "s"
      ],
      [
        "Ġtre",
        "es"
      ],
      [
        "Ġfro",
        "g"
      ],
      [
        "W",
        "ow"
      ],
      [
        "Ġsw",
        "ing"
      ],
      [
        "in",
        "ally"
      ],
      [
        "D",
        "on"
      ],
      [
        "ĠT",
        "hat"
      ],
      [
        "ĠI",
        "n"
      ],
      [
        "Ġs",
        "at"
      ],
      [
        "Ġpret",
        "end"
      ],
      [
        "one",
        "y"
      ],
      [
        "Ġcare",
        "fully"
      ],
      [
        "Ġre",
        "ad"
      ],
      [
        "Ġw",
        "ood"
      ],
      [
        "Ġt",
        "ight"
      ],
      [
        "Ġsl",
        "ow"
      ],
      [
        "Ġneed",
        "ed"
      ],
      [
        "Ġdelic",
        "ious"
      ],
      [
        "Ġho",
        "le"
      ],
      [
        "Ġm",
        "ouse"
      ],
      [
        "Ġp",
        "us"
      ],
      [
        "h",
        "y"
      ],
      [
        "Ġs",
        "et"
      ],
      [
        "Ġblock",
        "s"
      ],
      [
        "Ġsw",
        "im"
      ],
      [
        "Ġhe",
        "ld"
      ],
      [
        "ard",
        "s"
      ],
      [
        "Ġrememb",
        "ered"
      ],
      [
        "Ġco",
        "ld"
      ],
      [
        "Ġd",
        "ri"
      ],
      [
        "Ġlo",
        "st"
      ],
      [
        "Ġbeh",
        "ind"
      ],
      [
        "el",
        "y"
      ],
      [
        "c",
        "ess"
      ],
      [
        "Ġlook",
        "s"
      ],
      [
        "Ġrun",
        "ning"
      ],
      [
        "Ġher",
        "self"
      ],
      [
        "Ġsm",
        "ell"
      ],
      [
        "s",
        "w"
      ],
      [
        "Ġbutterf",
        "ly"
      ],
      [
        "Ġg",
        "i"
      ],
      [
        "Ġc",
        "ried"
      ],
      [
        "i",
        "ke"
      ],
      [
        "as",
        "k"
      ],
      [
        "Ġper",
        "f"
      ],
      [
        "Ġhapp",
        "ily"
      ],
      [
        "Ġnam",
        "e"
      ],
      [
        "Ġenjoy",
        "ed"
      ],
      [
        "Ġs",
        "leep"
      ],
      [
        "Ġb",
        "ag"
      ],
      [
        "Ġye",
        "ars"
      ],
      [
        "Ġw",
        "ished"
      ],
      [
        "Ġflo",
        "or"
      ],
      [
        "Ġan",
        "other"
      ],
      [
        "Ġar",
        "ri"
      ],
      [
        "Ġbu",
        "y"
      ],
      [
        "Ġwind",
        "ow"
      ],
      [
        "Ġmo",
        "ve"
      ],
      [
        "u",
        "l"
      ],
      [
        "Ġa",
        "ir"
      ],
      [
        "Ġt",
        "all"
      ],
      [
        "Ġless",
        "on"
      ],
      [
        "u",
        "ed"
      ],
      [
        "Ġcar",
        "s"
      ],
      [
        "Ġh",
        "ill"
      ],
      [
        "n",
        "er"
      ],
      [
        "ĠL",
        "ila"
      ],
      [
        "S",
        "ara"
      ],
      [
        "Ġsh",
        "o"
      ],
      [
        "s",
        "p"
      ],
      [
        "Ġfin",
        "ished"
      ],
      [
        "Ġchild",
        "ren"
      ],
      [
        "Ġli",
        "kes"
      ],
      [
        "Ġb",
        "ow"
      ],
      [
        "Ġp",
        "aper"
      ],
      [
        "en",
        "s"
      ],
      [
        "and",
        "y"
      ],
      [
        "ĠA",
        "fter"
      ],
      [
        "Ġho",
        "ld"
      ],
      [
        "Ġwr",
        "ong"
      ],
      [
        "re",
        "ed"
      ],
      [
        "F",
        "rom"
      ],
      [
        "re",
        "w"
      ],
      [
        "Ġarri",
        "ved"
      ],
      [
        "Ġle",
        "ft"
      ],
      [
        "u",
        "it"
      ],
      [
        "ĠD",
        "aisy"
      ],
      [
        "Ġunderst",
        "and"
      ],
      [
        "Ġclo",
        "se"
      ],
      [
        "Ġhe",
        "ar"
      ],
      [
        "Ġany",
        "thing"
      ],
      [
        "Ġcont",
        "in"
      ],
      [
        "Ġh",
        "un"
      ],
      [
        "Ġg",
        "ent"
      ],
      [
        "at",
        "ter"
      ],
      [
        "l",
        "f"
      ],
      [
        "Ġa",
        "ble"
      ],
      [
        "ĠS",
        "ally"
      ],
      [
        "Ġwa",
        "ll"
      ],
      [
        "ro",
        "ss"
      ],
      [
        "A",
        "nna"
      ],
      [
        "ĠThe",
        "re"
      ],
      [
        "Ġfriend",
        "ly"
      ],
      [
        "as",
        "ure"
      ],
      [
        "a",
        "v"
      ],
      [
        "Ġforg",
        "ot"
      ],
      [
        "H",
        "ell"
      ],
      [
        "Hell",
        "o"
      ],
      [
        "Ġd",
        "ream"
      ],
      [
        "Ġe",
        "l"
      ],
      [
        "Ġd",
        "ir"
      ],
      [
        "Ġg",
        "one"
      ],
      [
        "Ġw",
        "et"
      ],
      [
        "b",
        "o"
      ],
      [
        "on",
        "s"
      ],
      [
        "Ġf",
        "illed"
      ],
      [
        "ĠB",
        "illy"
      ],
      [
        "Ġcre",
        "at"
      ],
      [
        "Ġcook",
        "ies"
      ],
      [
        "Ġdin",
        "ner"
      ],
      [
        "Ġlaug",
        "h"
      ],
      [
        ".",
        "âĢĿ"
      ],
      [
        "ie",
        "ld"
      ],
      [
        "Ġh",
        "ot"
      ],
      [
        "Ġta",
        "ble"
      ],
      [
        "Ġbro",
        "ken"
      ],
      [
        "am",
        "a"
      ],
      [
        "um",
        "b"
      ],
      [
        "Ġel",
        "se"
      ],
      [
        "ĠTom",
        "my"
      ],
      [
        "Ġh",
        "id"
      ],
      [
        "c",
        "ed"
      ],
      [
        "r",
        "ot"
      ],
      [
        "Jo",
        "hn"
      ],
      [
        "Ġcolor",
        "s"
      ],
      [
        "Ġa",
        "rm"
      ],
      [
        "Ġfollow",
        "ed"
      ],
      [
        "Ġp",
        "ink"
      ],
      [
        "Ġbu",
        "ild"
      ],
      [
        "Ġmom",
        "ent"
      ],
      [
        "ĠE",
        "m"
      ],
      [
        "Ġwonder",
        "ful"
      ],
      [
        "Ġpu",
        "ppy"
      ],
      [
        "ou",
        "p"
      ],
      [
        "Ġm",
        "ar"
      ],
      [
        "Ġy",
        "es"
      ],
      [
        "e",
        "y"
      ],
      [
        "Ġcontin",
        "ued"
      ],
      [
        "Ġm",
        "ight"
      ],
      [
        "Ġfin",
        "ally"
      ],
      [
        "!",
        "âĢĿ"
      ],
      [
        "Ġen",
        "ough"
      ],
      [
        "a",
        "pp"
      ],
      [
        "in",
        "ed"
      ],
      [
        "ir",
        "rel"
      ],
      [
        "Ġperf",
        "ect"
      ],
      [
        "Ġstay",
        "ed"
      ],
      [
        "ĠN",
        "ow"
      ],
      [
        "Ġbook",
        "s"
      ],
      [
        "Ġmor",
        "ning"
      ],
      [
        "Ġc",
        "ream"
      ],
      [
        "Ġc",
        "ast"
      ],
      [
        "Ġj",
        "u"
      ],
      [
        "Ġfa",
        "ir"
      ],
      [
        "Ġdad",
        "dy"
      ],
      [
        "Ġsome",
        "one"
      ],
      [
        "Ġother",
        "s"
      ],
      [
        "Ġag",
        "reed"
      ],
      [
        "Ġtry",
        "ing"
      ],
      [
        "ro",
        "om"
      ],
      [
        "'",
        "ll"
      ],
      [
        "Ġf",
        "all"
      ],
      [
        "ic",
        "y"
      ],
      [
        "Ġget",
        "ting"
      ],
      [
        "Ġc",
        "ount"
      ],
      [
        "Ġmu",
        "s"
      ],
      [
        "Ġgra",
        "ndma"
      ],
      [
        "Ġba",
        "by"
      ],
      [
        "Ġsn",
        "ow"
      ],
      [
        "The",
        "n"
      ],
      [
        "Ġsqu",
        "irrel"
      ],
      [
        "Ġm",
        "other"
      ],
      [
        "o",
        "l"
      ],
      [
        "Ġlea",
        "ves"
      ],
      [
        "Ġfe",
        "w"
      ],
      [
        "as",
        "h"
      ],
      [
        "A",
        "t"
      ],
      [
        "h",
        "o"
      ],
      [
        "ri",
        "es"
      ],
      [
        "Ġbre",
        "ak"
      ],
      [
        "ĠTh",
        "is"
      ],
      [
        "Ġv",
        "is"
      ],
      [
        "Ġb",
        "ug"
      ],
      [
        "Ġclimb",
        "ed"
      ],
      [
        "an",
        "ce"
      ],
      [
        "at",
        "ed"
      ],
      [
        "Ġbr",
        "ought"
      ],
      [
        "Ġbe",
        "ach"
      ],
      [
        "Ġp",
        "lease"
      ],
      [
        "Ġm",
        "et"
      ],
      [
        "Ġde",
        "ep"
      ],
      [
        "J",
        "ack"
      ],
      [
        "l",
        "ing"
      ],
      [
        "i",
        "ch"
      ],
      [
        "Ġsomet",
        "imes"
      ],
      [
        "o",
        "om"
      ],
      [
        "ke",
        "y"
      ],
      [
        "Ġevery",
        "thing"
      ],
      [
        "Th",
        "is"
      ],
      [
        "l",
        "c"
      ],
      [
        "Ġf",
        "ight"
      ],
      [
        "Ġmus",
        "ic"
      ],
      [
        "Ġtra",
        "in"
      ],
      [
        "o",
        "s"
      ],
      [
        "Ġli",
        "on"
      ],
      [
        "Ġturn",
        "ed"
      ],
      [
        "Ġhun",
        "gry"
      ],
      [
        "Ġwas",
        "n"
      ],
      [
        "S",
        "am"
      ],
      [
        "d",
        "s"
      ],
      [
        "Ġs",
        "ong"
      ],
      [
        "Ġpicture",
        "s"
      ],
      [
        "or",
        "ing"
      ],
      [
        "Ġr",
        "ide"
      ],
      [
        "g",
        "on"
      ],
      [
        "Ġm",
        "akes"
      ],
      [
        "Ġjo",
        "y"
      ],
      [
        "z",
        "z"
      ],
      [
        "Ġcl",
        "ot"
      ],
      [
        "Ġpo",
        "l"
      ],
      [
        "e",
        "e"
      ],
      [
        "Ġlist",
        "ened"
      ],
      [
        "Ġse",
        "ar"
      ],
      [
        "Ġclot",
        "hes"
      ],
      [
        "H",
        "is"
      ],
      [
        "Ġsp",
        "ark"
      ],
      [
        "ĠW",
        "hat"
      ],
      [
        "ĠJ",
        "en"
      ],
      [
        "Ġsa",
        "il"
      ],
      [
        "ĠJ",
        "im"
      ],
      [
        "uck",
        "y"
      ],
      [
        "b",
        "ble"
      ],
      [
        "Ġpo",
        "in"
      ],
      [
        "Ġgr",
        "ow"
      ],
      [
        "a",
        "pped"
      ],
      [
        "Ġcom",
        "p"
      ],
      [
        "Ġt",
        "eddy"
      ],
      [
        "Ġ",
        "K"
      ],
      [
        "Ġwant",
        "s"
      ],
      [
        "Ġfly",
        "ing"
      ],
      [
        "m",
        "an"
      ],
      [
        "Ġpl",
        "an"
      ],
      [
        "Ġstr",
        "ange"
      ],
      [
        "Ġsc",
        "ary"
      ],
      [
        "r",
        "ow"
      ],
      [
        "sw",
        "er"
      ],
      [
        "op",
        "e"
      ],
      [
        "ĠT",
        "o"
      ],
      [
        "Ġamaz",
        "ed"
      ],
      [
        "Ġwa",
        "ited"
      ],
      [
        "Ġe",
        "le"
      ],
      [
        "Ġamaz",
        "ing"
      ],
      [
        "Ġp",
        "at"
      ],
      [
        "Ġtre",
        "at"
      ],
      [
        "O",
        "K"
      ],
      [
        "Ġf",
        "ur"
      ],
      [
        "Ġball",
        "oon"
      ],
      [
        "m",
        "ed"
      ],
      [
        "Ġle",
        "ave"
      ],
      [
        "is",
        "ter"
      ],
      [
        "Ġdan",
        "ger"
      ],
      [
        "Ġp",
        "i"
      ],
      [
        "Ġs",
        "uch"
      ],
      [
        "Ġp",
        "ie"
      ],
      [
        "Ġown",
        "er"
      ],
      [
        "Ġcast",
        "le"
      ],
      [
        "h",
        "one"
      ],
      [
        "Ġsp",
        "l"
      ],
      [
        "Ġwh",
        "ite"
      ],
      [
        "O",
        "h"
      ],
      [
        "Ġtal",
        "k"
      ],
      [
        "r",
        "ed"
      ],
      [
        "uff",
        "y"
      ],
      [
        "Ġprom",
        "ised"
      ],
      [
        "c",
        "le"
      ],
      [
        "e",
        "ver"
      ],
      [
        "Ġsh",
        "ared"
      ],
      [
        "Ġwood",
        "s"
      ],
      [
        "ĠM",
        "aybe"
      ],
      [
        "Ġn",
        "ap"
      ],
      [
        "Ġpull",
        "ed"
      ],
      [
        "ĠM",
        "olly"
      ],
      [
        "ĠA",
        "my"
      ],
      [
        "Ġp",
        "re"
      ],
      [
        "Ġvis",
        "it"
      ],
      [
        "Ġs",
        "it"
      ],
      [
        "ug",
        "g"
      ],
      [
        "an",
        "g"
      ],
      [
        "Ġcolor",
        "ful"
      ],
      [
        "th",
        "y"
      ],
      [
        "Ġmagic",
        "al"
      ],
      [
        "ot",
        "t"
      ],
      [
        "ct",
        "or"
      ],
      [
        "ig",
        "g"
      ],
      [
        "Ġr",
        "iver"
      ],
      [
        "Ġbe",
        "lie"
      ],
      [
        "Ġal",
        "one"
      ],
      [
        "Ġtow",
        "ards"
      ],
      [
        "u",
        "ally"
      ],
      [
        "en",
        "ce"
      ],
      [
        "Ġg",
        "u"
      ],
      [
        "Ġgr",
        "ate"
      ],
      [
        "Ġsmil",
        "es"
      ],
      [
        "Ġta",
        "il"
      ],
      [
        "Ġp",
        "en"
      ],
      [
        "am",
        "p"
      ],
      [
        "as",
        "ed"
      ],
      [
        "ow",
        "er"
      ],
      [
        "Ġh",
        "ide"
      ],
      [
        "Ġs",
        "ide"
      ],
      [
        "Ġh",
        "ig"
      ],
      [
        "Ġpain",
        "t"
      ],
      [
        "Ġs",
        "illy"
      ],
      [
        "Ġpr",
        "o"
      ],
      [
        "Ġgrate",
        "ful"
      ],
      [
        "u",
        "p"
      ],
      [
        "ain",
        "ed"
      ],
      [
        "Ġla",
        "nd"
      ],
      [
        "Ġmor",
        "al"
      ],
      [
        "et",
        "er"
      ],
      [
        "Ġp",
        "a"
      ],
      [
        "Ġro",
        "ll"
      ],
      [
        "Ġslow",
        "ly"
      ],
      [
        "s",
        "et"
      ],
      [
        "Ġsh",
        "ap"
      ],
      [
        "av",
        "y"
      ],
      [
        "Ġs",
        "ec"
      ],
      [
        "Ġf",
        "ield"
      ],
      [
        "Ġk",
        "ite"
      ],
      [
        "Ġsn",
        "ack"
      ],
      [
        "Ġmon",
        "ster"
      ],
      [
        "Ġs",
        "ister"
      ],
      [
        "Ġp",
        "et"
      ],
      [
        "Ġm",
        "in"
      ],
      [
        "Ġtre",
        "asure"
      ],
      [
        "Ġjo",
        "b"
      ],
      [
        "Ġfast",
        "er"
      ],
      [
        "Ġhelp",
        "ing"
      ],
      [
        "Ġwor",
        "ried"
      ],
      [
        "Ġqu",
        "i"
      ],
      [
        "ĠG",
        "ra"
      ],
      [
        "e",
        "ar"
      ],
      [
        "Ġmu",
        "st"
      ],
      [
        "Ġpart",
        "y"
      ],
      [
        "or",
        "m"
      ],
      [
        "Ġrememb",
        "er"
      ],
      [
        "Ġm",
        "oney"
      ],
      [
        "w",
        "l"
      ],
      [
        "Ġmo",
        "st"
      ],
      [
        "Ġli",
        "ving"
      ],
      [
        "le",
        "ss"
      ],
      [
        "Ġwe",
        "ar"
      ],
      [
        "Ġac",
        "c"
      ],
      [
        "e",
        "m"
      ],
      [
        "d",
        "er"
      ],
      [
        "z",
        "e"
      ],
      [
        "i",
        "re"
      ],
      [
        "Ġp",
        "ot"
      ],
      [
        "Ġfo",
        "x"
      ],
      [
        "i",
        "pped"
      ],
      [
        "Ġs",
        "ign"
      ],
      [
        "Ġc",
        "andy"
      ],
      [
        "Ġprin",
        "cess"
      ],
      [
        "Ġqui",
        "et"
      ],
      [
        "id",
        "ent"
      ],
      [
        "un",
        "ch"
      ],
      [
        "out",
        "h"
      ],
      [
        "Ġl",
        "ake"
      ],
      [
        "Ġcar",
        "rot"
      ],
      [
        "Ġcu",
        "p"
      ],
      [
        "Ġbe",
        "l"
      ],
      [
        "Ġevery",
        "where"
      ],
      [
        "Ġhig",
        "her"
      ],
      [
        "M",
        "ax"
      ],
      [
        "Ġcl",
        "oud"
      ],
      [
        "Ġbl",
        "ank"
      ],
      [
        "ask",
        "et"
      ],
      [
        "Ġrun",
        "s"
      ],
      [
        "Ġste",
        "pped"
      ],
      [
        "Ġm",
        "outh"
      ],
      [
        "am",
        "es"
      ],
      [
        "Ġbig",
        "ger"
      ],
      [
        "ĠA",
        "ll"
      ],
      [
        "Ġblank",
        "et"
      ],
      [
        "Ġto",
        "wn"
      ],
      [
        "Ġb",
        "asket"
      ],
      [
        "an",
        "c"
      ],
      [
        "Ġjo",
        "in"
      ],
      [
        "Ġclo",
        "sed"
      ],
      [
        "Ġb",
        "uck"
      ],
      [
        "Ġsc",
        "ream"
      ],
      [
        "Ġco",
        "ll"
      ],
      [
        "is",
        "es"
      ],
      [
        "Ġbro",
        "ke"
      ],
      [
        "o",
        "se"
      ],
      [
        "ĠDad",
        "dy"
      ],
      [
        "Ġdanger",
        "ous"
      ],
      [
        "Ġdoll",
        "s"
      ],
      [
        "or",
        "d"
      ],
      [
        "Ġpl",
        "ant"
      ],
      [
        "Ġwe",
        "lc"
      ],
      [
        "e",
        "ared"
      ],
      [
        "Ġre",
        "ach"
      ],
      [
        "Ġdan",
        "ce"
      ],
      [
        "Ġw",
        "on"
      ],
      [
        "ĠM",
        "r"
      ],
      [
        "Ġte",
        "ac"
      ],
      [
        "Ġhe",
        "avy"
      ],
      [
        "Ġwould",
        "n"
      ],
      [
        "Ġb",
        "ott"
      ],
      [
        "Ġch",
        "air"
      ],
      [
        "Ġask",
        "s"
      ],
      [
        "p",
        "h"
      ],
      [
        "O",
        "kay"
      ],
      [
        "b",
        "r"
      ],
      [
        "Ġc",
        "e"
      ],
      [
        "Ġst",
        "re"
      ],
      [
        "g",
        "s"
      ],
      [
        "ck",
        "et"
      ],
      [
        "Ġthink",
        "s"
      ],
      [
        "f",
        "ort"
      ],
      [
        "ec",
        "es"
      ],
      [
        "Ġpi",
        "eces"
      ],
      [
        "Ġeat",
        "ing"
      ],
      [
        "Ġp",
        "ack"
      ],
      [
        "Ġra",
        "ce"
      ],
      [
        "d",
        "e"
      ],
      [
        "Ġdis",
        "app"
      ],
      [
        "Ġac",
        "ross"
      ],
      [
        "Ġb",
        "ike"
      ],
      [
        "H",
        "i"
      ],
      [
        "Ġfr",
        "uit"
      ],
      [
        "Ġbelie",
        "ve"
      ],
      [
        "m",
        "ing"
      ],
      [
        "it",
        "ing"
      ],
      [
        "Ġ",
        "ve"
      ],
      [
        "Ġfar",
        "mer"
      ],
      [
        "Ġst",
        "uck"
      ],
      [
        "Ġne",
        "igh"
      ],
      [
        "Ġcry",
        "ing"
      ],
      [
        "Ġs",
        "uddenly"
      ],
      [
        "ph",
        "ant"
      ],
      [
        "ĠJ",
        "ill"
      ],
      [
        "Ġs",
        "oup"
      ],
      [
        "Ġb",
        "ar"
      ],
      [
        "Ġth",
        "rew"
      ],
      [
        "Ġneigh",
        "b"
      ],
      [
        "S",
        "ure"
      ],
      [
        "Ġg",
        "if"
      ],
      [
        "Ġdir",
        "ty"
      ],
      [
        "or",
        "ed"
      ],
      [
        "Ġacc",
        "ident"
      ],
      [
        "vent",
        "ually"
      ],
      [
        "Ġmon",
        "key"
      ],
      [
        "Ġele",
        "phant"
      ],
      [
        "i",
        "er"
      ],
      [
        "e",
        "ad"
      ],
      [
        "Ġhe",
        "al"
      ],
      [
        "pp",
        "ing"
      ],
      [
        "Ġw",
        "in"
      ],
      [
        "Ġsa",
        "me"
      ],
      [
        "Ġre",
        "m"
      ],
      [
        "Ġteac",
        "her"
      ],
      [
        "Ġp",
        "ers"
      ],
      [
        "Ġin",
        "st"
      ],
      [
        "Ġdra",
        "gon"
      ],
      [
        "Ġb",
        "en"
      ],
      [
        "Ġsp",
        "r"
      ],
      [
        "M",
        "aybe"
      ],
      [
        "i",
        "ble"
      ],
      [
        "Ġbr",
        "own"
      ],
      [
        "Ġgent",
        "le"
      ],
      [
        "Ġf",
        "ree"
      ],
      [
        "Ġwor",
        "ds"
      ],
      [
        "Ġup",
        "set"
      ],
      [
        "Ġbuck",
        "et"
      ],
      [
        "ch",
        "ool"
      ],
      [
        "Ġche",
        "ered"
      ],
      [
        "Ġlong",
        "er"
      ],
      [
        "F",
        "inally"
      ],
      [
        "ck",
        "ed"
      ],
      [
        "Ġbe",
        "e"
      ],
      [
        "Ġbl",
        "ack"
      ],
      [
        "ĠF",
        "l"
      ],
      [
        "Ġb",
        "ite"
      ],
      [
        "Ġh",
        "it"
      ],
      [
        "Ġm",
        "ark"
      ],
      [
        "Ġdo",
        "ctor"
      ],
      [
        "Ġpie",
        "ce"
      ],
      [
        "m",
        "ent"
      ],
      [
        "Ġwe",
        "ll"
      ],
      [
        "Ġcl",
        "apped"
      ],
      [
        "Ġal",
        "ong"
      ],
      [
        "W",
        "hy"
      ],
      [
        "Ġc",
        "aught"
      ],
      [
        "i",
        "x"
      ],
      [
        "Ġsa",
        "ng"
      ],
      [
        "Ġyou",
        "ng"
      ],
      [
        "Ġbow",
        "l"
      ],
      [
        "Ġbut",
        "t"
      ],
      [
        "Ġpl",
        "ac"
      ],
      [
        "Ġs",
        "chool"
      ],
      [
        "Ġy",
        "ard"
      ],
      [
        "Ġse",
        "a"
      ],
      [
        "Ġexpl",
        "ained"
      ],
      [
        "Ġc",
        "our"
      ],
      [
        "es",
        "e"
      ],
      [
        "Ġdro",
        "pped"
      ],
      [
        "bb",
        "y"
      ],
      [
        "s",
        "y"
      ],
      [
        "Ġstor",
        "ies"
      ],
      [
        "ĠM",
        "ama"
      ],
      [
        "Ġbr",
        "ing"
      ],
      [
        "Ġb",
        "ath"
      ],
      [
        "Ġsw",
        "ings"
      ],
      [
        "our",
        "n"
      ],
      [
        "w",
        "eet"
      ],
      [
        "Ġhe",
        "art"
      ],
      [
        "?",
        "âĢĿ"
      ],
      [
        "Ġw",
        "ings"
      ],
      [
        "Ġst",
        "u"
      ],
      [
        "Ġsm",
        "art"
      ],
      [
        "Ġdr",
        "ink"
      ],
      [
        "ĠEm",
        "ma"
      ],
      [
        "Ġju",
        "ice"
      ],
      [
        "Ġd",
        "ry"
      ],
      [
        "b",
        "er"
      ],
      [
        "Ġm",
        "ine"
      ],
      [
        "Ġfor",
        "get"
      ],
      [
        "Ġj",
        "ourn"
      ],
      [
        "Ġdro",
        "ve"
      ],
      [
        "Ġnear",
        "by"
      ],
      [
        "Ġcour",
        "se"
      ],
      [
        "aught",
        "er"
      ],
      [
        "Ġsec",
        "ret"
      ],
      [
        "Ġwelc",
        "ome"
      ],
      [
        "un",
        "g"
      ],
      [
        "Ġye",
        "ar"
      ],
      [
        "Ġ",
        "es"
      ],
      [
        "Ġto",
        "day"
      ],
      [
        "Ġwith",
        "out"
      ],
      [
        "Ġstre",
        "et"
      ],
      [
        "Ġhapp",
        "en"
      ],
      [
        "Ġcr",
        "ay"
      ],
      [
        "Ġpus",
        "hed"
      ],
      [
        "Ġj",
        "ar"
      ],
      [
        "Ġex",
        "p"
      ],
      [
        "Ġche",
        "ese"
      ],
      [
        "Ġturn",
        "s"
      ],
      [
        "Ġsing",
        "ing"
      ],
      [
        "Ġg",
        "ames"
      ],
      [
        "ra",
        "ct"
      ],
      [
        "Ġt",
        "iny"
      ],
      [
        "Ġa",
        "nt"
      ],
      [
        "ve",
        "l"
      ],
      [
        "Ġsm",
        "o"
      ],
      [
        "Ġpo",
        "cket"
      ],
      [
        "t",
        "o"
      ],
      [
        "Ġat",
        "t"
      ],
      [
        "Ġfair",
        "y"
      ],
      [
        "Ġhop",
        "ed"
      ],
      [
        "or",
        "row"
      ],
      [
        "Ġre",
        "sp"
      ],
      [
        "Ġsp",
        "oon"
      ],
      [
        "ĠF",
        "inally"
      ],
      [
        "Ġwo",
        "ke"
      ],
      [
        "a",
        "il"
      ],
      [
        "Ġc",
        "ow"
      ],
      [
        "Ġl",
        "on"
      ],
      [
        "itt",
        "ing"
      ],
      [
        "Ġhug",
        "s"
      ],
      [
        "Ġtw",
        "ins"
      ],
      [
        "is",
        "sed"
      ],
      [
        "Ġtr",
        "ou"
      ],
      [
        "Ġs",
        "uc"
      ],
      [
        "Ġin",
        "v"
      ],
      [
        "y",
        "ard"
      ],
      [
        "Ġf",
        "it"
      ],
      [
        "Ġst",
        "and"
      ],
      [
        "Ġno",
        "ises"
      ],
      [
        "Ġexpl",
        "oring"
      ],
      [
        "Ġdis",
        "co"
      ],
      [
        "Ġrock",
        "s"
      ],
      [
        "ount",
        "ain"
      ],
      [
        "e",
        "k"
      ],
      [
        "Ġl",
        "unch"
      ],
      [
        "Ġd",
        "aughter"
      ],
      [
        "ver",
        "ed"
      ],
      [
        "Ġsee",
        "med"
      ],
      [
        "Ġlon",
        "ely"
      ],
      [
        "Ġj",
        "e"
      ],
      [
        "ĠSam",
        "my"
      ],
      [
        "Ġapp",
        "le"
      ],
      [
        "ll",
        "o"
      ],
      [
        "Ġtow",
        "er"
      ],
      [
        "Ġback",
        "yard"
      ],
      [
        "Ġsh",
        "ook"
      ],
      [
        "b",
        "ow"
      ],
      [
        "re",
        "ad"
      ],
      [
        "Ġm",
        "iss"
      ],
      [
        "ou",
        "n"
      ],
      [
        "Ġc",
        "ir"
      ],
      [
        "Ġs",
        "u"
      ],
      [
        "fu",
        "sed"
      ],
      [
        "Ġsw",
        "am"
      ],
      [
        "Ġw",
        "ish"
      ],
      [
        "Ġke",
        "y"
      ],
      [
        "Ġ",
        "3"
      ],
      [
        "Ġst",
        "ars"
      ],
      [
        "Ġbus",
        "h"
      ],
      [
        "Ġth",
        "ough"
      ],
      [
        "Ġshap",
        "es"
      ],
      [
        "M",
        "ia"
      ],
      [
        "Ġp",
        "ar"
      ],
      [
        "Ġmo",
        "ved"
      ],
      [
        "Ġthr",
        "ow"
      ],
      [
        "Ġsho",
        "es"
      ],
      [
        "b",
        "s"
      ],
      [
        "ap",
        "e"
      ],
      [
        "t",
        "s"
      ],
      [
        "Ġre",
        "lie"
      ],
      [
        "Ġben",
        "ch"
      ],
      [
        "Ġta",
        "king"
      ],
      [
        "it",
        "y"
      ],
      [
        "itt",
        "ens"
      ],
      [
        "Ġadventure",
        "s"
      ],
      [
        "Ġw",
        "ise"
      ],
      [
        "ock",
        "ed"
      ],
      [
        "Ġo",
        "wl"
      ],
      [
        "sh",
        "ine"
      ],
      [
        "Ġshe",
        "ll"
      ],
      [
        "Ġbu",
        "bble"
      ],
      [
        "Ġw",
        "he"
      ],
      [
        "Ġne",
        "ck"
      ],
      [
        "Ġl",
        "ate"
      ],
      [
        "Ġwh",
        "ist"
      ],
      [
        "our",
        "s"
      ],
      [
        "Ġf",
        "ence"
      ],
      [
        "us",
        "h"
      ],
      [
        "Ġor",
        "ange"
      ],
      [
        "A",
        "nd"
      ],
      [
        "pp",
        "er"
      ],
      [
        "Ġcut",
        "e"
      ],
      [
        "u",
        "nt"
      ],
      [
        "in",
        "ing"
      ],
      [
        "Ġsp",
        "in"
      ],
      [
        "Ġcreat",
        "ure"
      ],
      [
        "Ġaccident",
        "ally"
      ],
      [
        "Ġc",
        "orn"
      ],
      [
        "ĠFl",
        "uffy"
      ],
      [
        "w",
        "ard"
      ],
      [
        "t",
        "en"
      ],
      [
        "urp",
        "le"
      ],
      [
        "Ġm",
        "at"
      ],
      [
        "il",
        "k"
      ],
      [
        "Ġli",
        "ft"
      ],
      [
        "Ġrain",
        "bow"
      ],
      [
        "Ġp",
        "hone"
      ],
      [
        "Ġst",
        "ar"
      ],
      [
        "ion",
        "s"
      ],
      [
        "ĠW",
        "ho"
      ],
      [
        "Ġs",
        "itting"
      ],
      [
        "Ġd",
        "ist"
      ],
      [
        "Ġon",
        "to"
      ],
      [
        "Ġarm",
        "s"
      ],
      [
        "Ġa",
        "f"
      ],
      [
        "id",
        "ge"
      ],
      [
        "Ġsun",
        "shine"
      ],
      [
        "Ġhe",
        "llo"
      ],
      [
        "ĠA",
        "n"
      ],
      [
        "Ġdri",
        "ver"
      ],
      [
        "f",
        "ish"
      ],
      [
        "g",
        "ged"
      ],
      [
        "Ġn",
        "est"
      ],
      [
        "Ġn",
        "aught"
      ],
      [
        "ĠJim",
        "my"
      ],
      [
        "Ġnaught",
        "y"
      ],
      [
        "ll",
        "a"
      ],
      [
        "Ġinst",
        "ead"
      ],
      [
        "Ġb",
        "ought"
      ],
      [
        "Ġcom",
        "es"
      ],
      [
        "Ġp",
        "op"
      ],
      [
        "Ġwonder",
        "ed"
      ],
      [
        "Ġe",
        "as"
      ],
      [
        "Ġlaug",
        "hing"
      ]
    ]
  }
}