{
  "version": "1.0",
  "truncation": null,
  "padding": null,
  "added_tokens": [
    {
      "id": 0,
      "content": "<pad>",
      "single_word": false,
      "lstrip": false,
      "rstrip": false,
      "normalized": false,
      "special": true
    },
    {
      "id": 1,
      "content": "<unk>",
      "single_word": false,
      "lstrip": false,
      "rstrip": false,
      "normalized": false,
      "special": true
    },
    {
      "id": 2,
      "content": "<bos>",
      "single_word": false,
      "lstrip": false,
      "rstrip": false,
      "normalized": false,
      "special": true
    },
    {
      "id": 3,
      "content": "<eos>",
      "single_word": false,
      "lstrip": false,
      "rstrip": false,
      "normalized": false,
      "special": true
    },
    {
      "id": 4,
      "content": "<doc>",
      "single_word": false,
      "lstrip": false,
      "rstrip": false,
      "normalized": false,
      "special": true
    }
  ],
  "normalizer": null,
  "pre_tokenizer": {
    "type": "ByteLevel",
    "add_prefix_space": false,
    "trim_offsets": true,
    "use_regex": true
  },
  "post_processor": null,
  "decoder": {
    "type": "ByteLevel",
    "add_prefix_space": true,
    "trim_offsets": true,
    "use_regex": true
  },
  "model": {
    "type": "BPE",
    "dropout": null,
    "unk_token": "<unk>",
    "continuing_subword_prefix": null,
    "end_of_word_suffix": null,
    "fuse_unk": false,
    "byte_fallback": false,
    "ignore_merges": false,
    "vocab": {
      "<pad>": 0,
      "<unk>": 1,
      "<bos>": 2,
      "<eos>": 3,
      "<doc>": 4,
      "!": 5,
      "\"": 6,
      "#": 7,
      "$": 8,
      "%": 9,
      "&": 10,
      "'": 11,
      "(": 12,
      ")": 13,
      "*": 14,
      "+": 15,
      ",": 16,
      "-": 17,
      ".": 18,
      "/": 19,
      "0": 20,
      "1": 21,
      "2": 22,
      "3": 23,
      "4": 24,
      "5": 25,
      "6": 26,
      "7": 27,
      "8": 28,
      "9": 29,
      ":": 30,
      ";": 31,
      "<": 32,
      "=": 33,
      ">": 34,
      "?": 35,
      "@": 36,
      "A": 37,
      "B": 38,
      "C": 39,
      "D": 40,
      "E": 41,
      "F": 42,
      "G": 43,
      "H": 44,
      "I": 45,
      "J": 46,
      "K": 47,
      "L": 48,
      "M": 49,
      "N": 50,
      "O": 51,
      "P": 52,
      "Q": 53,
      "R": 54,
      "S": 55,
      "T": 56,
      "U": 57,
      "V": 58,
      "W": 59,
      "X": 60,
      "Y": 61,
      "Z": 62,
      "[": 63,
      "\\": 64,
      "]": 65,
      "^": 66,
      "_": 67,
      "`": 68,
      "a": 69,
      "b": 70,
      "c": 71,
      "d": 72,
      "e": 73,
      "f": 74,
      "g": 75,
      "h": 76,
      "i": 77,
      "j": 78,
      "k": 79,
      "l": 80,
      "m": 81,
      "n": 82,
      "o": 83,
      "p": 84,
      "q": 85,
      "r": 86,
      "s": 87,
      "t": 88,
      "u": 89,
      "v": 90,
      "w": 91,
      "x": 92,
      "y": 93,
      "z": 94,
      "{": 95,
      "|": 96,
      "}": 97,
      "~": 98,
      "¡": 99,
      "¢": 100,
      "£": 101,
      "¤": 102,
      "¥": 103,
      "¦": 104,
      "§": 105,
      "¨": 106,
      "©": 107,
      "ª": 108,
      "«": 109,
      "¬": 110,
      "®": 111,
      "¯": 112,
      "°": 113,
      "±": 114,
      "²": 115,
      "³": 116,
      "´": 117,
      "µ": 118,
      "¶": 119,
      "·": 120,
      "¸": 121,
      "¹": 122,
      "º": 123,
      "»": 124,
      "¼": 125,
      "½": 126,
      "¾": 127,
      "¿": 128,
      "À": 129,
      "Á": 130,
      "Â": 131,
      "Ã": 132,
      "Ä": 133,
      "Å": 134,
      "Æ": 135,
      "Ç": 136,
      "È": 137,
      "É": 138,
      "Ê": 139,
      "Ë": 140,
      "Ì": 141,
      "Í": 142,
      "Î": 143,
      "Ï": 144,
      "Ð": 145,
      "Ñ": 146,
      "Ò": 147,
      "Ó": 148,
      "Ô": 149,
      "Õ": 150,
      "Ö": 151,
      "×": 152,
      "Ø": 153,
      "Ù": 154,
      "Ú": 155,
      "Û": 156,
      "Ü": 157,
      "Ý": 158,
      "Þ": 159,
      "ß": 160,
      "à": 161,
      "á": 162,
      "â": 163,
      "ã": 164,
      "ä": 165,
      "å": 166,
      "æ": 167,
      "ç": 168,
      "è": 169,
      "é": 170,
      "ê": 171,
      "ë": 172,
      "ì": 173,
      "í": 174,
      "î": 175,
      "ï": 176,
      "ð": 177,
      "ñ": 178,
      "ò": 179,
      "ó": 180,
      "ô": 181,
      "õ": 182,
      "ö": 183,
      "÷": 184,
      "ø": 185,
      "ù": 186,
      "ú": 187,
      "û": 188,
      "ü": 189,
      "ý": 190,
      "þ": 191,
      "ÿ": 192,
      "Ā": 193,
      "ā": 194,
      "Ă": 195,
      "ă": 196,
      "Ą": 197,
      "ą": 198,
      "Ć": 199,
      "ć": 200,
      "Ĉ": 201,
      "ĉ": 202,
      "Ċ": 203,
      "ċ": 204,
      "Č": 205,
      "č": 206,
      "Ď": 207,
      "ď": 208,
      "Đ": 209,
      "đ": 210,
      "Ē": 211,
      "ē": 212,
      "Ĕ": 213,
      "ĕ": 214,
      "Ė": 215,
      "ė": 216,
      "Ę": 217,
      "ę": 218,
      "Ě": 219,
      "ě": 220,
      "Ĝ": 221,
      "ĝ": 222,
      "Ğ": 223,
      "ğ": 224,
      "Ġ": 225,
      "ġ": 226,
      "Ģ": 227,
      "ģ": 228,
      "Ĥ": 229,
      "ĥ": 230,
      "Ħ": 231,
      "ħ": 232,
      "Ĩ": 233,
      "ĩ": 234,
      "Ī": 235,
      "ī": 236,
      "Ĭ": 237,
      "ĭ": 238,
      "Į": 239,
      "į": 240,
      "İ": 241,
      "ı": 242,
      "Ĳ": 243,
      "ĳ": 244,
      "Ĵ": 245,
      "ĵ": 246,
      "Ķ": 247,
      "ķ": 248,
      "ĸ": 249,
      "Ĺ": 250,
      "ĺ": 251,
      "Ļ": 252,
      "ļ": 253,
      "Ľ": 254,
      "ľ": 255,
      "Ŀ": 256,
      "ŀ": 257,
      "Ł": 258,
      "ł": 259,
      "Ń": 260,
      "he": 261,
      "Ġt": 262,
      "Ġa": 263,
      "The": 264,
      "Ġs": 265,
      "Ġw": 266,
      "nd": 267,
      "He": 268,
      "Ġthe": 269,
      "She": 270,
      "ly": 271,
      "ed": 272,
      "They": 273,
      "om": 274,
      "Ġand": 275,
      "in": 276,
      "ou": 277,
      "Ġto": 278,
      "Li": 279,
      "Ġb": 280,
      "ha": 281,
      "On": 282,
      "er": 283,
      "Lily": 284,
      "Ġwa": 285,
      "it": 286,
      "en": 287,
      "Ġf": 288,
      "im": 289,
      "re": 290,
      "Ġc": 291,
      "Ġl": 292,
      "is": 293,
      "ar": 294,
      "Ġhe": 295,
      "Ġd": 296,
      "on": 297,
      "ce": 298,
      "Ġwas": 299,
      "Ġm": 300,
      "Ġp": 301,
      "ay": 302,
      "It": 303,
      "my": 304,
      "ut": 305,
      "ing": 306,
      "Ġh": 307,
      "Tim": 308,
      "One": 309,
      "id": 310,
      "Ġg": 311,
      "Once": 312,
      "ll": 313,
      "an": 314,
      "Ġha": 315,
      "et": 316,
      "Ġsa": 317,
      "Ġn": 318,
      "or": 319,
      "le": 320,
      "hat": 321,
      "ot": 322,
      "ver": 323,
      "am": 324,
      "Tom": 325,
      "ck": 326,
      "ow": 327,
      "Ben": 328,
      "Ġit": 329,
      "But": 330,
      "es": 331,
      "Timmy": 332,
      "ir": 333,
      "Ġher": 334,
      "Ġo": 335,
      "ĠHe": 336,
      "very": 337,
      "oo": 338,
      "ĠShe": 339,
      "You": 340,
      "Ġin": 341,
      "ld": 342,
      "Mom": 343,
      "Ġe": 344,
      "Ġu": 345,
      "ad": 346,
      "ig": 347,
      "ĠThey": 348,
      "ke": 349,
      "at": 350,
      "ie": 351,
      "al": 352,
      "Ġr": 353,
      "Ġy": 354,
      "Ġsaid": 355,
      "ith": 356,
      "Ġbe": 357,
      "ve": 358,
      "pp": 359,
      "Ġst": 360,
      "Ġshe": 361,
      "Su": 362,
      "Ġ\"": 363,
      "ack": 364,
      "Ġwith": 365,
      "hen": 366,
      "Ġon": 367,
      "Ġof": 368,
      "Ġso": 369,
      "nn": 370,
      "Ġhis": 371,
      "ked": 372,
      "ter": 373,
      "Ġpl": 374,
      "Ġday": 375,
      "Ġyou": 376,
      "Ġthat": 377,
      "Ma": 378,
      "nt": 379,
      "se": 380,
      "Sam": 381,
      "Ġfr": 382,
      "st": 383,
      "Ġup": 384,
      "ĠThe": 385,
      "il": 386,
      "ent": 387,
      "Max": 388,
      "Ġhad": 389,
      "We": 390,
      "So": 391,
      "Ġplay": 392,
      "ara": 393,
      "Ġthey": 394,
      "itt": 395,
      "ĠLily": 396,
      "ome": 397,
      "Ġmom": 398,
      "ould": 399,
      "When": 400,
      "Ann": 401,
      "Ġfor": 402,
      "Sara": 403,
      "dd": 404,
      "Ġth": 405,
      "her": 406,
      "Jo": 407,
      "ch": 408,
      "'s": 409,
      "Anna": 410,
      "el": 411,
      "Ġhapp": 412,
      "out": 413,
      "Ġwant": 414,
      "Ġli": 415,
      "Every": 416,
      "ra": 417,
      "Fr": 418,
      "un": 419,
      "ime": 420,
      "ound": 421,
      "Ġvery": 422,
      "Ġtime": 423,
      "ry": 424,
      "Ġdo": 425,
      "Jack": 426,
      "Ġlitt": 427,
      "Ġlittle": 428,
      "Ġthere": 429,
      "Ġk": 430,
      "ook": 431,
      "ide": 432,
      "dden": 433,
      "ddenly": 434,
      "Ġne": 435,
      "Ġnot": 436,
      "Ġre": 437,
      "Mi": 438,
      "Her": 439,
      "ht": 440,
      "Ġhappy": 441,
      "Suddenly": 442,
      "Ġbig": 443,
      "From": 444,
      "Ġbut": 445,
      "ake": 446,
      "Ġsm": 447,
      "one": 448,
      "Ġsaw": 449,
      "ill": 450,
      "han": 451,
      "ĠIt": 452,
      "iend": 453,
      "Ġas": 454,
      "Ġan": 455,
      "Let": 456,
      "Ġfriend": 457,
      "ally": 458,
      "His": 459,
      "Ġis": 460,
      "ved": 461,
      "'t": 462,
      "ĠI": 463,
      "Mia": 464,
      "ore": 465,
      "ere": 466,
      ".\"": 467,
      "ob": 468,
      "ug": 469,
      "And": 470,
      "Ġwere": 471,
      "Ġsh": 472,
      "ec": 473,
      "Ġlo": 474,
      "ur": 475,
      "Then": 476,
      "Ġbo": 477,
      "la": 478,
      "um": 479,
      "ul": 480,
      "That": 481,
      "Ġhim": 482,
      "!\"": 483,
      "fter": 484,
      "Ġtoo": 485,
      "Ġgo": 486,
      "Ġupon": 487,
      "Mommy": 488,
      "irl": 489,
      "Ġj": 490,
      "What": 491,
      "Joh": 492,
      "Ġwanted": 493,
      "Ġse": 494,
      "all": 495,
      "Ġgirl": 496,
      "Ġout": 497,
      "way": 498,
      "ind": 499,
      "Yes": 500,
      "Ġsp": 501,
      "cy": 502,
      "Ġthem": 503,
      "Ġat": 504,
      "Ġcould": 505,
      "As": 506,
      "lp": 507,
      "ood": 508,
      "hank": 509,
      "After": 510,
      "Lu": 511,
      "ri": 512,
      "Ġdid": 513,
      "ful": 514,
      "John": 515,
      "Ġtheir": 516,
      "Can": 517,
      "Ġare": 518,
      "art": 519,
      "ark": 520,
      "Ġex": 521,
      "hing": 522,
      "Ġwh": 523,
      "ol": 524,
      "Ġwent": 525,
      "side": 526,
      "op": 527,
      "hed": 528,
      "Bob": 529,
      "round": 530,
      "Ġhave": 531,
      "Thank": 532,
      "Lucy": 533,
      "Ġnam": 534,
      "Ġall": 535,
      "ain": 536,
      "ic": 537,
      "No": 538,
      "ear": 539,
      "ard": 540,
      "ight": 541,
      "Ġkn": 542,
      "Ġhelp": 543,
      "Dad": 544,
      "own": 545,
      "Ġfriends": 546,
      "ny": 547,
      "Ġback": 548,
      "Ġcan": 549,
      "other": 550,
      "Wh": 551,
      "omet": 552,
      "Ġnamed": 553,
      "ice": 554,
      "?\"": 555,
      "get": 556,
      "ĠBen": 557,
      "Sp": 558,
      "Ġloved": 559,
      "ma": 560,
      "oug": 561,
      "ss": 562,
      "Th": 563,
      "iled": 564,
      "ĠTimmy": 565,
      "ick": 566,
      "elt": 567,
      "Ġal": 568,
      "Ġca": 569,
      "ĠOne": 570,
      "ane": 571,
      "Ġsc": 572,
      "dy": 573,
      "Ġfelt": 574,
      "ĠTom": 575,
      "Ġno": 576,
      "Sue": 577,
      "Ġsmiled": 578,
      "Sarah": 579,
      "gether": 580,
      "Ġasked": 581,
      "Ġtoy": 582,
      "Ġsay": 583,
      "ell": 584,
      "Ġloo": 585,
      "Ġman": 586,
      "Ġaround": 587,
      "ame": 588,
      "ust": 589,
      "Ġsome": 590,
      "Ġboy": 591,
      "Ġfun": 592,
      "Ġlooked": 593,
      "Spot": 594,
      "Ġcl": 595,
      "This": 596,
      "Jane": 597,
      "Ġwould": 598,
      "ird": 599,
      "Ġbr": 600,
      "ong": 601,
      "Ġlike": 602,
      "Ġstart": 603,
      "Ġme": 604,
      "Ġsee": 605,
      "ure": 606,
      "Ġro": 607,
      "Do": 608,
      "Ġbird": 609,
      "Ġsomet": 610,
      "Ġpr": 611,
      "Ġfa": 612,
      "Ġwor": 613,
      "Everyone": 614,
      "Ġag": 615,
      "Ġaway": 616,
      "ings": 617,
      "ile": 618,
      "Look": 619,
      "be": 620,
      "Ġwhat": 621,
      "ade": 622,
      "Da": 623,
      "Ġtre": 624,
      "âĢ": 625,
      "Ġran": 626,
      "Ġstarted": 627,
      "May": 628,
      "ab": 629,
      "Ġmake": 630,
      "ited": 631,
      "illy": 632,
      "ĠBut": 633,
      "if": 634,
      "Joe": 635,
      "oud": 636,
      "Ġmade": 637,
      "Ġtogether": 638,
      "Ġsomething": 639,
      "Ġfe": 640,
      "Ġexc": 641,
      "Don": 642,
      "Ġpark": 643,
      "uck": 644,
      "Ġcar": 645,
      "Ġnew": 646,
      "Lila": 647,
      "Ġsad": 648,
      ",\"": 649,
      "us": 650,
      "Ġput": 651,
      "Maybe": 652,
      "Fin": 653,
      "Ġwe": 654,
      "est": 655,
      "Ġfrom": 656,
      "Ġlook": 657,
      "ep": 658,
      "ĠYou": 659,
      "ge": 660,
      "Ġthen": 661,
      "Ġhome": 662,
      "Ġwhen": 663,
      "Ġagain": 664,
      "qu": 665,
      "Ġother": 666,
      "Ġfound": 667,
      "Ġscar": 668,
      "lu": 669,
      "ach": 670,
      "Ġdec": 671,
      "olly": 672,
      "isy": 673,
      "ily": 674,
      "Ġwho": 675,
      "ak": 676,
      "Ġhug": 677,
      "In": 678,
      "Ġla": 679,
      "Ġgood": 680,
      "here": 681,
      "pped": 682,
      "Ġsays": 683,
      "ried": 684,
      "Ġwal": 685,
      "Now": 686,
      "Ġget": 687,
      "ous": 688,
      "Ġab": 689,
      "Ġexcited": 690,
      "Sally": 691,
      "ought": 692,
      "Ġplaying": 693,
      "Ġgot": 694,
      "Billy": 695,
      "Daisy": 696,
      "Ġsw": 697,
      "ided": 698,
      "Ġthings": 699,
      "nny": 700,
      "Ġdecided": 701,
      "Ġevery": 702,
      "At": 703,
      "Ġcame": 704,
      "Wow": 705,
      "Ġbec": 706,
      "Finally": 707,
      "Ġliked": 708,
      "as": 709,
      "Em": 710,
      "ive": 711,
      "Ġsha": 712,
      "llo": 713,
      "Ġdown": 714,
      "Ġdog": 715,
      "Benny": 716,
      "Ġscared": 717,
      "Ġv": 718,
      "by": 719,
      "Tommy": 720,
      "Jim": 721,
      "ways": 722,
      "Molly": 723,
      "ave": 724,
      "ven": 725,
      "uch": 726,
      "Ġone": 727,
      "low": 728,
      "ĠTim": 729,
      "pl": 730,
      "Ġfind": 731,
      "ist": 732,
      "Ġdidn": 733,
      "Ġkne": 734,
      "ouse": 735,
      "em": 736,
      "Ġcare": 737,
      "Ġmommy": 738,
      "Ġdad": 739,
      "Ġalways": 740,
      "Ġfeel": 741,
      "rand": 742,
      "Ġyour": 743,
      "ers": 744,
      "orry": 745,
      "Ġoutside": 746,
      "Ġke": 747,
      "Hello": 748,
      "Ġlot": 749,
      "Jen": 750,
      "There": 751,
      "Ġtook": 752,
      "nder": 753,
      "our": 754,
      "Ġabout": 755,
      "ag": 756,
      "ite": 757,
      "ned": 758,
      "os": 759,
      "kay": 760,
      "ise": 761,
      "Amy": 762,
      "ase": 763,
      "Ġtree": 764,
      "ant": 765,
      "eci": 766,
      "ff": 767,
      "Ġmy": 768,
      "Mum": 769,
      "ate": 770,
      "Ġtoys": 771,
      "Ġlear": 772,
      "ink": 773,
      "use": 774,
      "ched": 775,
      "Ġthought": 776,
      "ened": 777,
      "Ġknew": 778,
      "ess": 779,
      "Ġball": 780,
      "Ġle": 781,
      "ret": 782,
      "Ġmore": 783,
      "Ġold": 784,
      "eet": 785,
      "to": 786,
      "ged": 787,
      "ĠMax": 788,
      "Ġbu": 789,
      "ty": 790,
      "Ġwill": 791,
      "ecial": 792,
      "Ġspecial": 793,
      "ĠSam": 794,
      "ap": 795,
      "Ġtake": 796,
      "To": 797,
      "Ġknow": 798,
      "Ġlaug": 799,
      "Ġco": 800,
      "ama": 801,
      "ause": 802,
      "Why": 803,
      "Ġcat": 804,
      "Mar": 805,
      "Ġpe": 806,
      "Ġtr": 807,
      "Ġhow": 808,
      "Mama": 809,
      "ish": 810,
      "Ġmuch": 811,
      "Ġany": 812,
      "ort": 813,
      "ump": 814,
      "ro": 815,
      "Ġho": 816,
      "lease": 817,
      "Ġthan": 818,
      "bb": 819,
      "Ġen": 820,
      "vent": 821,
      "Ġshow": 822,
      "Daddy": 823,
      "Ġcouldn": 824,
      "Soon": 825,
      "Ġhouse": 826,
      "Ġtried": 827,
      "Ġinto": 828,
      "Ġover": 829,
      "Oh": 830,
      "lo": 831,
      "ion": 832,
      "Ġcareful": 833,
      "Ġsk": 834,
      "Ġeat": 835,
      "Ġtw": 836,
      "Come": 837,
      "Ġpo": 838,
      "Ġinside": 839,
      "Ġmo": 840,
      "Ġwalk": 841,
      "Ġhand": 842,
      "Ġgra": 843,
      "Ġif": 844,
      "Jill": 845,
      "Ġqu": 846,
      "Ġtold": 847,
      "Ġgre": 848,
      "Grand": 849,
      "All": 850,
      "Ġproud": 851,
      "Mr": 852,
      "Ġnever": 853,
      "Ġbecause": 854,
      "Ġsorry": 855,
      "day": 856,
      "ious": 857,
      "Ġop": 858,
      "Ġgave": 859,
      "Ġbox": 860,
      "Ġor": 861,
      "Ġplayed": 862,
      "Ġthis": 863,
      "Ġch": 864,
      "Ġheard": 865,
      "lf": 866,
      "ace": 867,
      "les": 868,
      "ough": 869,
      "Ġroom": 870,
      "ine": 871,
      "Ġwater": 872,
      "Ġpick": 873,
      "ater": 874,
      "oth": 875,
      "etter": 876,
      "oy": 877,
      "Who": 878,
      "Ġjust": 879,
      "Ġhugged": 880,
      "Ġoff": 881,
      "wer": 882,
      "Ġpu": 883,
      "Ġpret": 884,
      "ĠMom": 885,
      "Ġeach": 886,
      "ntil": 887,
      "Ġstr": 888,
      "fe": 889,
      "Ġlong": 890,
      "Ġcom": 891,
      "Ġsun": 892,
      "Just": 893,
      "ĠWe": 894,
      "Sure": 895,
      "St": 896,
      "Ġbear": 897,
      "lue": 898,
      "urt": 899,
      "iz": 900,
      "ber": 901,
      "Ġneed": 902,
      "Ġwat": 903,
      "Emma": 904,
      "Ġnice": 905,
      "Ġuntil": 906,
      "Ġsmall": 907,
      "ving": 908,
      "Okay": 909,
      "ild": 910,
      "ns": 911,
      "Ġtry": 912,
      "Jimmy": 913,
      "Hi": 914,
      "ĠB": 915,
      "Ġlearned": 916,
      "ĠAnna": 917,
      "Ġkind": 918,
      "Please": 919,
      "ens": 920,
      "Ġmany": 921,
      "Ġbetter": 922,
      "Ġhar": 923,
      "'m": 924,
      "ady": 925,
      "gry": 926,
      "Ġfo": 927,
      "urp": 928,
      "ft": 929,
      "Ġim": 930,
      "ĠJack": 931,
      "Ġend": 932,
      "Ġsn": 933,
      "imal": 934,
      "Ġanimal": 935,
      "and": 936,
      "ies": 937,
      "ip": 938,
      "Ġcle": 939,
      "Tw": 940,
      "pt": 941,
      "aut": 942,
      "ose": 943,
      "Ġgr": 944,
      "ople": 945,
      "ffy": 946,
      "Ġexpl": 947,
      "ream": 948,
      "luffy": 949,
      "Ġche": 950,
      "Ġbeaut": 951,
      "xt": 952,
      "Ġjump": 953,
      "eddy": 954,
      "Ġad": 955,
      "ĠHer": 956,
      "Ġsafe": 957,
      "Ġeven": 958,
      "Ġbest": 959,
      "Ġflow": 960,
      "Ġthanked": 961,
      "Ġcall": 962,
      "Ġlots": 963,
      "Ġlaughed": 964,
      "ves": 965,
      "fore": 966,
      "Mary": 967,
      "Grandma": 968,
      "Ġbra": 969,
      "Ġsl": 970,
      "self": 971,
      "Ġby": 972,
      "Ġway": 973,
      "iny": 974,
      "Ġfam": 975,
      "ast": 976,
      "Ġus": 977,
      "iful": 978,
      "Ġgard": 979,
      "Ġbeautiful": 980,
      "Ġgarden": 981,
      "igh": 982,
      "Go": 983,
      "Ġloud": 984,
      "Later": 985,
      "Ġsky": 986,
      "where": 987,
      "Ġsu": 988,
      "Ġdon": 989,
      "ect": 990,
      "lew": 991,
      "ct": 992,
      "Ġlove": 993,
      "Fluffy": 994,
      "âĢĿ": 995,
      "Ġfi": 996,
      "âĢľ": 997,
      "Be": 998,
      "ĠThen": 999,
      "Ġrun": 1000,
      "Tweet": 1001,
      "thing": 1002,
      "iss": 1003,
      "Ġsmile": 1004,
      "imes": 1005,
      "rm": 1006,
      "Ġcome": 1007,
      "ĠMia": 1008,
      "ool": 1009,
      "ĠAnd": 1010,
      "ĠFrom": 1011,
      "Ġunder": 1012,
      "Ġhard": 1013,
      "Ell": 1014,
      "og": 1015,
      "Ġstay": 1016,
      "Ġlist": 1017,
      "Al": 1018,
      "hes": 1019,
      "zz": 1020,
      "ĠSo": 1021,
      "ree": 1022,
      "Ġstill": 1023,
      "Pet": 1024,
      "Ġclos": 1025,
      "Ġhurt": 1026,
      "How": 1027,
      "ĠHis": 1028,
      "Ġhas": 1029,
      "Ġimp": 1030,
      "Ġboth": 1031,
      "Ġfamily": 1032,
      "able": 1033,
      "Ġpeople": 1034,
      "Ġanimals": 1035,
      "Ġcol": 1036,
      "Ġred": 1037,
      "Ġbrave": 1038,
      "Ġlived": 1039,
      "Ġwalked": 1040,
      "Sammy": 1041,
      "With": 1042,
      "Ġru": 1043,
      "Ġrem": 1044,
      "sh": 1045,
      "Ġfu": 1046,
      "ress": 1047,
      "My": 1048,
      "Jenny": 1049,
      "ĠEvery": 1050,
      "ĠWhen": 1051,
      "Ġsurp": 1052,
      "Ġsurpr": 1053,
      "Ġtwo": 1054,
      "Ġbad": 1055,
      "Ġlet": 1056,
      "ished": 1057,
      "ppy": 1058,
      "ac": 1059,
      "Ġshould": 1060,
      "ĠâĢľ": 1061,
      "Ġfore": 1062,
      "led": 1063,
      "ee": 1064,
      "ang": 1065,
      "ittens": 1066,
      "Ġkept": 1067,
      "Ġbook": 1068,
      "Ġstor": 1069,
      "Their": 1070,
      "ised": 1071,
      "Inside": 1072,
      "Ġfin": 1073,
      "Ġflew": 1074,
      "Ġfly": 1075,
      "Ġits": 1076,
      "ons": 1077,
      "Mittens": 1078,
      "ied": 1079,
      "Ġclean": 1080,
      "Ġpic": 1081,
      "Bu": 1082,
      "Ġwo": 1083,
      "Ġtur": 1084,
      "Ġgoing": 1085,
      "tle": 1086,
      "bit": 1087,
      "Ġcalled": 1088,
      "orn": 1089,
      "Ġangry": 1090,
      "Ġshare": 1091,
      "Jake": 1092,
      "iff": 1093,
      "Ġide": 1094,
      "Ġsoon": 1095,
      "Ġpretty": 1096,
      "abbit": 1097,
      "Ġrock": 1098,
      "Ġcon": 1099,
      "Re": 1100,
      "Ġground": 1101,
      "ember": 1102,
      "Of": 1103,
      "th": 1104,
      "Ġwind": 1105,
      "irst": 1106,
      "Ġreal": 1107,
      "Emily": 1108,
      "Ġcry": 1109,
      "Ġadvent": 1110,
      "so": 1111,
      "Ġdoll": 1112,
      "Ġalso": 1113,
      "Ġidea": 1114,
      "ail": 1115,
      "aking": 1116,
      "Ġopened": 1117,
      "Good": 1118,
      "Ġte": 1119,
      "Ġshiny": 1120,
      "Ans": 1121,
      "Answer": 1122,
      "Ġbefore": 1123,
      "Ġey": 1124,
      "ever": 1125,
      "Ġfast": 1126,
      "Ġsto": 1127,
      "Ġexplore": 1128,
      "dded": 1129,
      "Ġfeeling": 1130,
      "Ġwhile": 1131,
      "Ġnow": 1132,
      "joy": 1133,
      "Ġdoor": 1134,
      "Ġkeep": 1135,
      "Ġcha": 1136,
      "Ġwalking": 1137,
      "Hey": 1138,
      "Ġnoise": 1139,
      "Ġcolor": 1140,
      "lie": 1141,
      "Ġbed": 1142,
      "Ġwork": 1143,
      "Ġdra": 1144,
      "ndy": 1145,
      "imb": 1146,
      "Ġfar": 1147,
      "Ġpicked": 1148,
      "Ġplace": 1149,
      "Ġdel": 1150,
      "Ġface": 1151,
      "Ġbeing": 1152,
      "Ġwr": 1153,
      "âĢĻ": 1154,
      "Ġfood": 1155,
      "ia": 1156,
      "Ġclimb": 1157,
      "Ġdiff": 1158,
      "end": 1159,
      "Ġthr": 1160,
      "Ġblue": 1161,
      "Ġthink": 1162,
      "Ġun": 1163,
      "ĠSara": 1164,
      "Ġnext": 1165,
      "iced": 1166,
      "Ġadventure": 1167,
      "Ġlooking": 1168,
      "Ġdis": 1169,
      "ella": 1170,
      "Ġquick": 1171,
      "ĠLucy": 1172,
      "Somet": 1173,
      "bye": 1174,
      "Are": 1175,
      "Mark": 1176,
      "Ġnodded": 1177,
      "ture": 1178,
      "aby": 1179,
      "Ġforest": 1180,
      "Ġeyes": 1181,
      "ted": 1182,
      "Ġyell": 1183,
      "ized": 1184,
      "Ġpicture": 1185,
      "Ġown": 1186,
      "Together": 1187,
      "ĠSuddenly": 1188,
      "Ġwait": 1189,
      "gan": 1190,
      "itty": 1191,
      "ummy": 1192,
      "Ġimport": 1193,
      "Ġtra": 1194,
      "Ġgreat": 1195,
      "Ġtow": 1196,
      "Ġstopped": 1197,
      "ĠBob": 1198,
      "llow": 1199,
      "Ġrain": 1200,
      "Ġgive": 1201,
      "Ġnear": 1202,
      "Ġenjoy": 1203,
      "Ġapp": 1204,
      "Some": 1205,
      "Ġimportant": 1206,
      "Ġremember": 1207,
      "Ġquickly": 1208,
      "Ġrabbit": 1209,
      "Ġpar": 1210,
      "Where": 1211,
      "sa": 1212,
      "Ġever": 1213,
      "Ġfish": 1214,
      "oice": 1215,
      "Ġafter": 1216,
      "Le": 1217,
      "ually": 1218,
      "Ġtruck": 1219,
      "Ġbre": 1220,
      "bbed": 1221,
      "Ġrepl": 1222,
      "ents": 1223,
      "Ġbro": 1224,
      "Ġreplied": 1225,
      "Ġcook": 1226,
      "Ġnoticed": 1227,
      "ting": 1228,
      "ath": 1229,
      "Ġhands": 1230,
      "ina": 1231,
      "Ġslide": 1232,
      "Kitty": 1233,
      "ttle": 1234,
      "Little": 1235,
      "Mummy": 1236,
      "Ġlisten": 1237,
      "ble": 1238,
      "Ġac": 1239,
      "maz": 1240,
      "Ġshowed": 1241,
      "Ġeveryone": 1242,
      "Ġcur": 1243,
      "Ġdiffer": 1244,
      "Ġshar": 1245,
      "age": 1246,
      "Ġsound": 1247,
      "Ġsure": 1248,
      "Ġask": 1249,
      "Alice": 1250,
      "Ġright": 1251,
      "Ġstrong": 1252,
      "Ġshout": 1253,
      "Ġamaz": 1254,
      "Ġtal": 1255,
      "Ġhead": 1256,
      "Ġbeen": 1257,
      "Ġbecame": 1258,
      "leep": 1259,
      "Ġblo": 1260,
      "Ġtou": 1261,
      "Ġbl": 1262,
      "Ġmean": 1263,
      "ank": 1264,
      "Ġvoice": 1265,
      "rown": 1266,
      "Ġwonder": 1267,
      "Lisa": 1268,
      "While": 1269,
      "Ġchild": 1270,
      "Ġwatched": 1271,
      "Ġyear": 1272,
      "ĠSue": 1273,
      "Ġwhere": 1274,
      "Ġdress": 1275,
      "Sus": 1276,
      "zy": 1277,
      "Ġwatch": 1278,
      "ĠT": 1279,
      "Lo": 1280,
      "Ġdifferent": 1281,
      "Sometimes": 1282,
      "Ġhigh": 1283,
      "Ġbit": 1284,
      "Ġboat": 1285,
      "Ġokay": 1286,
      "Ġgoodbye": 1287,
      "ventually": 1288,
      "Ġar": 1289,
      "Ġsqu": 1290,
      "Ġstore": 1291,
      "ue": 1292,
      "Ġnight": 1293,
      "Ġcloser": 1294,
      "Ġde": 1295,
      "ucky": 1296,
      "cks": 1297,
      "Even": 1298,
      "ĠMommy": 1299,
      "Ġfollow": 1300,
      "Ġuse": 1301,
      "ush": 1302,
      "Ġfav": 1303,
      "Ġflowers": 1304,
      "ired": 1305,
      "Ġpa": 1306,
      "Ġgrabbed": 1307,
      "ined": 1308,
      "Ġstick": 1309,
      "Ġforg": 1310,
      "ĠSpot": 1311,
      "Peter": 1312,
      "Ġmag": 1313,
      "If": 1314,
      "Ġcake": 1315,
      "akes": 1316,
      "Ġwarm": 1317,
      "Ġbright": 1318,
      "Ġjumped": 1319,
      "Ġdan": 1320,
      "more": 1321,
      "Ġanymore": 1322,
      "Ġbutter": 1323,
      "ĠSarah": 1324,
      "Ġam": 1325,
      "Ġgl": 1326,
      "Ġtell": 1327,
      "Ġcurious": 1328,
      "ĠA": 1329,
      "Ġfell": 1330,
      "Johnny": 1331,
      "Stop": 1332,
      "kes": 1333,
      "Ġthree": 1334,
      "Ch": 1335,
      "Ġour": 1336,
      "ached": 1337,
      "ope": 1338,
      "pa": 1339,
      "inn": 1340,
      "Ġbirds": 1341,
      "Ġcont": 1342,
      "Everywhere": 1343,
      "Give": 1344,
      "ĠJane": 1345,
      "ince": 1346,
      "Ġfirst": 1347,
      "Ġhelped": 1348,
      "Ġpull": 1349,
      "Ġpie": 1350,
      "Ġyellow": 1351,
      "Ella": 1352,
      "Bella": 1353,
      "itc": 1354,
      "ĠR": 1355,
      "Here": 1356,
      "Ġhat": 1357,
      "Ġcla": 1358,
      "ĠEveryone": 1359,
      "Ġkid": 1360,
      "oon": 1361,
      "Ġlearn": 1362,
      "Ġrealized": 1363,
      "ount": 1364,
      "Ġz": 1365,
      "ster": 1366,
      "Ġbrother": 1367,
      "Ġdr": 1368,
      "Ġstop": 1369,
      "Ġdoes": 1370,
      "Ġper": 1371,
      "ught": 1372,
      "Ġate": 1373,
      "har": 1374,
      "Ġhappened": 1375,
      "Ġsweet": 1376,
      "Ġgreen": 1377,
      "Ġfavor": 1378,
      "Ġkitc": 1379,
      "Ġkitchen": 1380,
      "Ġreally": 1381,
      "Ġgrass": 1382,
      "Ġfavorite": 1383,
      "ĠAs": 1384,
      "Ġyummy": 1385,
      "Ġbegan": 1386,
      "Ġrest": 1387,
      "Ġpain": 1388,
      "Ġreached": 1389,
      "ey": 1390,
      "Leo": 1391,
      "mer": 1392,
      "Teddy": 1393,
      "Ġflo": 1394,
      "Ġhear": 1395,
      "Ġready": 1396,
      "Ġlea": 1397,
      "Ġunderst": 1398,
      "'re": 1399,
      "Susie": 1400,
      "Ġsing": 1401,
      "Ġhere": 1402,
      "ange": 1403,
      "Ġstory": 1404,
      "Ġworld": 1405,
      "Ġcre": 1406,
      "Ġtri": 1407,
      "Ġonly": 1408,
      "iver": 1409,
      "Ġglad": 1410,
      "Help": 1411,
      "ather": 1412,
      "up": 1413,
      "Ġsand": 1414,
      "Ġthrough": 1415,
      "ards": 1416,
      "Ġcr": 1417,
      "Ġbunny": 1418,
      "ph": 1419,
      "Sorry": 1420,
      "rel": 1421,
      "Ġflower": 1422,
      "Ġhimself": 1423,
      "Ġfire": 1424,
      "Me": 1425,
      "ĠJohn": 1426,
      "Ġdelic": 1427,
      "Ġtired": 1428,
      "Ġhaving": 1429,
      "Ġsoft": 1430,
      "Ġmess": 1431,
      "Ġbutterf": 1432,
      "Today": 1433,
      "Ġdone": 1434,
      "ĠLet": 1435,
      "Ġthing": 1436,
      "ation": 1437,
      "Ġste": 1438,
      "Ġwhy": 1439,
      "Ġcut": 1440,
      "oney": 1441,
      "Ġtast": 1442,
      "Ġpart": 1443,
      "ets": 1444,
      "ins": 1445,
      "Ġmagic": 1446,
      "Ġwaved": 1447,
      "Ġshouted": 1448,
      "Ġworry": 1449,
      "Ġduck": 1450,
      "Ġgrand": 1451,
      "Ġgame": 1452,
      "Ġsho": 1453,
      "Ġkids": 1454,
      "Ġsees": 1455,
      "Ġexp": 1456,
      "illed": 1457,
      "ered": 1458,
      "Eventually": 1459,
      "Ġpiece": 1460,
      "Lola": 1461,
      "gg": 1462,
      "Ġpond": 1463,
      "Ġmaking": 1464,
      "Ġcatch": 1465,
      "Ġthank": 1466,
      "Ġcoming": 1467,
      "key": 1468,
      "ĠDad": 1469,
      "Ġless": 1470,
      "Ġcool": 1471,
      "Ġfix": 1472,
      "Ġused": 1473,
      "Ġlady": 1474,
      "Ġseen": 1475,
      "ĠP": 1476,
      "Ġstar": 1477,
      "Ġhopped": 1478,
      "Ġdark": 1479,
      "owl": 1480,
      "\".": 1481,
      "ĠJoe": 1482,
      "Ġtop": 1483,
      "Mandy": 1484,
      "Ġsurprise": 1485,
      "ĠCan": 1486,
      "lex": 1487,
      "Ġprom": 1488,
      "aper": 1489,
      "Ġcra": 1490,
      "Ġmum": 1491,
      "Ġfull": 1492,
      "hind": 1493,
      "Ġopen": 1494,
      "Ġfunny": 1495,
      "med": 1496,
      "Ġtouch": 1497,
      "End": 1498,
      "Nem": 1499,
      "Will": 1500,
      "Nemo": 1501,
      "Ġsurprised": 1502,
      "Ġdro": 1503,
      "Ġ-": 1504,
      "Ġhair": 1505,
      "Ġjo": 1506,
      "Ġspot": 1507,
      "ĠBenny": 1508,
      "Ġperf": 1509,
      "Ġice": 1510,
      "ĠDo": 1511,
      "Ġworked": 1512,
      "Ġdoing": 1513,
      "Ġparents": 1514,
      "Ġlight": 1515,
      "Ġfrog": 1516,
      "Ġtrees": 1517,
      "ng": 1518,
      "Ġclose": 1519,
      "Ġtalk": 1520,
      "Ġswing": 1521,
      "Brown": 1522,
      "ĠThat": 1523,
      "Ġwear": 1524,
      "Ġhun": 1525,
      "Ellie": 1526,
      "Ġsat": 1527,
      "Ġpretend": 1528,
      "ike": 1529,
      "cked": 1530,
      "ony": 1531,
      "ead": 1532,
      "co": 1533,
      "Ġcarefully": 1534,
      "Ġread": 1535,
      "Ġwood": 1536,
      "ren": 1537,
      "stead": 1538,
      "Ġrunn": 1539,
      "Ġslow": 1540,
      "Ġneeded": 1541,
      "ĠIn": 1542,
      "Dave": 1543,
      "Ġdelicious": 1544,
      "Ġhole": 1545,
      "Ġmouse": 1546,
      "Rex": 1547,
      "Ġblocks": 1548,
      "Ġswim": 1549,
      "ask": 1550,
      "Ġheld": 1551,
      "Ġremembered": 1552,
      "Ġcold": 1553,
      "Ġset": 1554,
      "Ġdri": 1555,
      "Your": 1556,
      "igg": 1557,
      "Ġbehind": 1558,
      "Ġlost": 1559,
      "ĠS": 1560,
      "Ġlooks": 1561,
      "Ġrunning": 1562,
      "Ġherself": 1563,
      "Ġbutterfly": 1564,
      "Ġgi": 1565,
      "Ġtight": 1566,
      "Ġcried": 1567,
      "Ge": 1568,
      "Ow": 1569,
      "llie": 1570,
      "Ġhappily": 1571,
      "Ġname": 1572,
      "Ġenjoyed": 1573,
      "Ġsleep": 1574,
      "Ġbag": 1575,
      "Ġyears": 1576,
      "Geor": 1577,
      "Ġwished": 1578,
      "arry": 1579,
      "Ġfloor": 1580,
      "Ġanother": 1581,
      "Ġarri": 1582,
      "ire": 1583,
      "Ġbuy": 1584,
      "Mrs": 1585,
      "Ġwindow": 1586,
      "Ġmove": 1587,
      "Ġair": 1588,
      "ient": 1589,
      "Ġtall": 1590,
      "Ġcars": 1591,
      "ued": 1592,
      "Bobby": 1593,
      "Well": 1594,
      "Ġhill": 1595,
      "Tweety": 1596,
      "Ġlaugh": 1597,
      "irrel": 1598,
      "ames": 1599,
      "Ġdraw": 1600,
      "George": 1601,
      "Ġfinished": 1602,
      "inner": 1603,
      "Ġlesson": 1604,
      "rew": 1605,
      "Ġchildren": 1606,
      "Pete": 1607,
      "Ġlikes": 1608,
      "Ġpaper": 1609,
      "ugg": 1610,
      "reed": 1611,
      "ĠAfter": 1612,
      "Ġhold": 1613,
      "Ġwrong": 1614,
      "cle": 1615,
      "Ġprince": 1616,
      "Ne": 1617,
      "Ġarrived": 1618,
      "ĠDaisy": 1619,
      "Ġunderstand": 1620,
      "room": 1621,
      "Ġbus": 1622,
      "Ġanything": 1623,
      "bo": 1624,
      "Ġcontin": 1625,
      "Ġleft": 1626,
      "ross": 1627,
      "Ġgent": 1628,
      "ign": 1629,
      "Ġable": 1630,
      "Ġwall": 1631,
      "ud": 1632,
      "rot": 1633,
      "Ġhop": 1634,
      "oral": 1635,
      "asure": 1636,
      "ken": 1637,
      "atter": 1638,
      "ield": 1639,
      "Ġfriendly": 1640,
      "ĠJ": 1641,
      "ĠSally": 1642,
      "Ġforgot": 1643,
      "Ġel": 1644,
      "ĠC": 1645,
      "Ġdir": 1646,
      "Ġdream": 1647,
      "Ġgone": 1648,
      "ated": 1649,
      "anger": 1650,
      "oby": 1651,
      "Ġwet": 1652,
      "See": 1653,
      "Ġfilled": 1654,
      "come": 1655,
      "Ġcookies": 1656,
      "Ġdinner": 1657,
      ".âĢĿ": 1658,
      "Ġhot": 1659,
      "Ġbroken": 1660,
      "Rose": 1661,
      "Ġelse": 1662,
      "Ġhid": 1663,
      "atch": 1664,
      "Dan": 1665,
      "Ducky": 1666,
      "uit": 1667,
      "oup": 1668,
      "Ġres": 1669,
      "Ġcolors": 1670,
      "Ġarm": 1671,
      "Ġfollowed": 1672,
      "Ġpink": 1673,
      "Ġbuild": 1674,
      "Ġfl": 1675,
      "Ġtable": 1676,
      "Ġwonderful": 1677,
      "phie": 1678,
      "Ġpuppy": 1679,
      "fort": 1680,
      "Ġyes": 1681,
      "Ġcontinued": 1682,
      "Ġmight": 1683,
      "Ġmorn": 1684,
      "Ġfinally": 1685,
      "Next": 1686,
      "!âĢĿ": 1687,
      "Ġra": 1688,
      "Ġenough": 1689,
      "Ġperfect": 1690,
      "ĠBilly": 1691,
      "Ġstayed": 1692,
      "ĠNow": 1693,
      "Ġbooks": 1694,
      "Blue": 1695,
      "row": 1696,
      "Ġmorning": 1697,
      "Ġcast": 1698,
      "Ġfair": 1699,
      "Ġdaddy": 1700,
      "Ġsomeone": 1701,
      "na": 1702,
      "ĠThere": 1703,
      "Bear": 1704,
      "av": 1705,
      "icy": 1706,
      "Mike": 1707,
      "Ġothers": 1708,
      "Ġagreed": 1709,
      "Ġtrying": 1710,
      "ĠLila": 1711,
      "'ll": 1712,
      "Ġmus": 1713,
      "Ġfall": 1714,
      "Ġgetting": 1715,
      "Ġcream": 1716,
      "Ġgrandma": 1717,
      "ich": 1718,
      "Ġbaby": 1719,
      "Ġbar": 1720,
      "Ġsnow": 1721,
      "ĠM": 1722,
      "Ġsquirrel": 1723,
      "Ġmother": 1724,
      "ddy": 1725,
      "Ġcreat": 1726,
      "Ha": 1727,
      "Ġleaves": 1728,
      "Ġfew": 1729,
      "Ġbreak": 1730,
      "ĠThis": 1731,
      "Ġvis": 1732,
      "Would": 1733,
      "Ġbug": 1734,
      "Ġclimbed": 1735,
      "ries": 1736,
      "ence": 1737,
      "Ġbrought": 1738,
      "Ġbeach": 1739,
      "Ġplease": 1740,
      "Ġmet": 1741,
      "Ġdeep": 1742,
      "ĠTommy": 1743,
      "erry": 1744,
      "Ġmoment": 1745,
      "gon": 1746,
      "pping": 1747,
      "Ġsometimes": 1748,
      "man": 1749,
      "Ġeverything": 1750,
      "Ġmusic": 1751,
      "oring": 1752,
      "Ġtrain": 1753,
      "Ġlion": 1754,
      "Ġturned": 1755,
      "Ġhungry": 1756,
      "Ġfight": 1757,
      "Ġwasn": 1758,
      "ced": 1759,
      "Ġsong": 1760,
      "Ġmiss": 1761,
      "Ġpictures": 1762,
      "Alex": 1763,
      "Ġride": 1764,
      "ds": 1765,
      "ger": 1766,
      "Ġmakes": 1767,
      "Ġjoy": 1768,
      "Ġpol": 1769,
      "Ġclot": 1770,
      "Andy": 1771,
      "Ġfla": 1772,
      "Ġlistened": 1773,
      "ix": 1774,
      "mb": 1775,
      "Ġsear": 1776,
      "ling": 1777,
      "Ġclothes": 1778,
      "Char": 1779,
      "Ġspark": 1780,
      "ĠWhat": 1781,
      "Ġsmell": 1782,
      "ister": 1783,
      "Toby": 1784,
      "de": 1785,
      "Baby": 1786,
      "Ġpoin": 1787,
      "enny": 1788,
      "Ġteddy": 1789,
      "Tweetie": 1790,
      "Bobo": 1791,
      "Ġwants": 1792,
      "Ġflying": 1793,
      "Ġplan": 1794,
      "Ġstrange": 1795,
      "Brownie": 1796,
      "pper": 1797,
      "Ġju": 1798,
      "Ġscary": 1799,
      "ushed": 1800,
      "Sophie": 1801,
      "Grandpa": 1802,
      "Ġcount": 1803,
      "Ġamazed": 1804,
      "Ġwaited": 1805,
      "Ġele": 1806,
      "Ġamazing": 1807,
      "aught": 1808,
      "Un": 1809,
      "Ġtreat": 1810,
      "OK": 1811,
      "lly": 1812,
      "ctor": 1813,
      "Bill": 1814,
      "Ho": 1815,
      "Luck": 1816,
      "Ġleave": 1817,
      "By": 1818,
      "Ġdanger": 1819,
      "Pe": 1820,
      "Ġsuch": 1821,
      "Ġowner": 1822,
      "Ġcastle": 1823,
      "Harry": 1824,
      "Kim": 1825,
      "Ġmar": 1826,
      "Ġwhite": 1827,
      "thy": 1828,
      "bbles": 1829,
      "pes": 1830,
      "Ġpromised": 1831,
      "Ġshared": 1832,
      "Ġwoods": 1833,
      "ĠMaybe": 1834,
      "Whenever": 1835,
      "Ġnap": 1836,
      "Ġpulled": 1837,
      "onster": 1838,
      "Ġfur": 1839,
      "Ġpre": 1840,
      "Ġvisit": 1841,
      "Ġsit": 1842,
      "ateful": 1843,
      "Ġcolorful": 1844,
      "Ġmagical": 1845,
      "ĠAmy": 1846,
      "Ab": 1847,
      "Ġriver": 1848,
      "Ġbelie": 1849,
      "Ġalone": 1850,
      "Ġtowards": 1851,
      "Ġmonster": 1852,
      "Ġstu": 1853,
      "Joey": 1854,
      "avy": 1855,
      "Maria": 1856,
      "Ġtail": 1857,
      "Ġgrateful": 1858,
      "Ġsmiles": 1859,
      "oom": 1860,
      "Ġgu": 1861,
      "Ġhide": 1862,
      "ord": 1863,
      "Ġside": 1864,
      "Ġhig": 1865,
      "Ġpaint": 1866,
      "Ġsilly": 1867,
      "imi": 1868,
      "zzy": 1869,
      "ones": 1870,
      "ance": 1871,
      "Ġland": 1872,
      "Ġmoral": 1873,
      "less": 1874,
      "iet": 1875,
      "set": 1876,
      "Ġda": 1877,
      "Ġroll": 1878,
      "Ġslowly": 1879,
      "Tony": 1880,
      "Ġsec": 1881,
      "Ġpass": 1882,
      "ert": 1883,
      "Ġfield": 1884,
      "Ġkite": 1885,
      "ze": 1886,
      "elly": 1887,
      "Ġsnack": 1888,
      "used": 1889,
      "Ġsister": 1890,
      "hone": 1891,
      "Ġjob": 1892,
      "Ġfaster": 1893,
      "Ġtreasure": 1894,
      "Ġhelping": 1895,
      "Ġworried": 1896,
      "amp": 1897,
      "Ġquiet": 1898,
      "unch": 1899,
      "Ġgrow": 1900,
      "Gra": 1901,
      "Not": 1902,
      "Ġparty": 1903,
      "etsy": 1904,
      "Ġmin": 1905,
      "Ġmoney": 1906,
      "Ġmost": 1907,
      "orm": 1908,
      "Ġliving": 1909,
      "Thanks": 1910,
      "Ġmust": 1911,
      "Ġexcit": 1912,
      "Ġacc": 1913,
      "ork": 1914,
      "oun": 1915,
      "Ġexpla": 1916,
      "ary": 1917,
      "Is": 1918,
      "Ġpot": 1919,
      "Ġfox": 1920,
      "ipped": 1921,
      "app": 1922,
      "iling": 1923,
      "Ġcandy": 1924,
      "Ġprincess": 1925,
      "Red": 1926,
      "Fred": 1927,
      "Ġcup": 1928,
      "Ġlake": 1929,
      "Ġcarrot": 1930,
      "outh": 1931,
      "Ġeverywhere": 1932,
      "asket": 1933,
      "Ġhigher": 1934,
      "der": 1935,
      "Ġblank": 1936,
      "nry": 1937,
      "me": 1938,
      "ĠAll": 1939,
      "Ġruns": 1940,
      "Ġstepped": 1941,
      "Miss": 1942,
      "Sn": 1943,
      "Ġmouth": 1944,
      "Ġbigger": 1945,
      "ĠMolly": 1946,
      "Ġjoin": 1947,
      "Yay": 1948,
      "Ġclosed": 1949,
      "Ġdance": 1950,
      "Ġbuck": 1951,
      "onkey": 1952,
      "Ġscream": 1953,
      "Ġcoll": 1954,
      "ises": 1955,
      "Ġbroke": 1956,
      "Ġpet": 1957,
      "hant": 1958,
      "Ġans": 1959,
      "Ġturn": 1960,
      "Ġdangerous": 1961,
      "eth": 1962,
      "eared": 1963,
      "Ġbran": 1964,
      "Ġdolls": 1965,
      "Ġwel": 1966,
      "Ġbasket": 1967,
      "Ġplant": 1968,
      "Ġspla": 1969,
      "ĠDaddy": 1970,
      "Ġreach": 1971,
      "Cl": 1972,
      "Ġwon": 1973,
      "Ġcloud": 1974,
      "Charlie": 1975,
      "Ġteac": 1976,
      "Ġheavy": 1977,
      "Ġwouldn": 1978,
      "Ġtown": 1979,
      "Ġbot": 1980,
      "phant": 1981,
      "Ste": 1982,
      "Ġchair": 1983,
      "Ġasks": 1984,
      "Ġrace": 1985,
      "God": 1986,
      "Ġear": 1987,
      "br": 1988,
      "Ġthinks": 1989,
      "una": 1990,
      "Ġpieces": 1991,
      "red": 1992,
      "Ġeating": 1993,
      "Ġpack": 1994,
      "Everything": 1995,
      "Ġdisapp": 1996,
      "Ġacross": 1997,
      "ier": 1998,
      "Ġbike": 1999,
      "apa": 2000,
      "Before": 2001,
      "Ġfruit": 2002,
      "Ġbelieve": 2003,
      "Ġve": 2004,
      "Ġfarmer": 2005,
      "ese": 2006,
      "ost": 2007,
      "ĠF": 2008,
      "Ġstuck": 2009,
      "are": 2010,
      "Millie": 2011,
      "Ġanswer": 2012,
      "Ġchan": 2013,
      "Ġneigh": 2014,
      "Ġcrying": 2015,
      "Ġsuddenly": 2016,
      "ory": 2017,
      "ored": 2018,
      "Grace": 2019,
      "Ġsoup": 2020,
      "ident": 2021,
      "Ġthrew": 2022,
      "ately": 2023,
      "Ġneighb": 2024,
      "oc": 2025,
      "Ġgif": 2026,
      "cket": 2027,
      "ung": 2028,
      "Buddy": 2029,
      "Ġdirty": 2030,
      "Ġyoung": 2031,
      "Ġmonkey": 2032,
      "Ġelephant": 2033,
      "Ġkiss": 2034,
      "Mimi": 2035,
      "ub": 2036,
      "althy": 2037,
      "chool": 2038,
      "Bunny": 2039,
      "ney": 2040,
      "ray": 2041,
      "Ġdrink": 2042,
      "Ġfree": 2043,
      "Ġsame": 2044,
      "Ġteacher": 2045,
      "ible": 2046,
      "Ġpers": 2047
    },
    "merges": [
      [
        "h",
        "e"
      ],
      [
        "Ġ",
        "t"
      ],
      [
        "Ġ",
        "a"
      ],
      [
        "T",
        "he"
      ],
      [
        "Ġ",
        "s"
      ],
      [
        "Ġ",
        "w"
      ],
      [
        "n",
        "d"
      ],
      [
        "H",
        "e"
      ],
      [
        "Ġt",
        "he"
      ],
      [
        "S",
        "he"
      ],
      [
        "l",
        "y"
      ],
      [
        "e",
        "d"
      ],
      [
        "The",
        "y"
      ],
      [
        "o",
        "m"
      ],
      [
        "Ġa",
        "nd"
      ],
      [
        "i",
        "n"
      ],
      [
        "o",
        "u"
      ],
      [
        "Ġt",
        "o"
      ],
      [
        "L",
        "i"
      ],
      [
        "Ġ",
        "b"
      ],
      [
        "h",
        "a"
      ],
      [
        "O",
        "n"
      ],
      [
        "e",
        "r"
      ],
      [
        "Li",
        "ly"
      ],
      [
        "Ġw",
        "a"
      ],
      [
        "i",
        "t"
      ],
      [
        "e",
        "n"
      ],
      [
        "Ġ",
        "f"
      ],
      [
        "i",
        "m"
      ],
      [
        "r",
        "e"
      ],
      [
        "Ġ",
        "c"
      ],
      [
        "Ġ",
        "l"
      ],
      [
        "i",
        "s"
      ],
      [
        "a",
        "r"
      ],
      [
        "Ġ",
        "he"
      ],
      [
        "Ġ",
        "d"
      ],
      [
        "o",
        "n"
      ],
      [
        "c",
        "e"
      ],
      [
        "Ġwa",
        "s"
      ],
      [
        "Ġ",
        "m"
      ],
      [
        "Ġ",
        "p"
      ],
      [
        "a",
        "y"
      ],
      [
        "I",
        "t"
      ],
      [
        "m",
        "y"
      ],
      [
        "u",
        "t"
      ],
      [
        "in",
        "g"
      ],
      [
        "Ġ",
        "h"
      ],
      [
        "T",
        "im"
      ],
      [
        "On",
        "e"
      ],
      [
        "i",
        "d"
      ],
      [
        "Ġ",
        "g"
      ],
      [
        "On",
        "ce"
      ],
      [
        "l",
        "l"
      ],
      [
        "a",
        "n"
      ],
      [
        "Ġ",
        "ha"
      ],
      [
        "e",
        "t"
      ],
      [
        "Ġs",
        "a"
      ],
      [
        "Ġ",
        "n"
      ],
      [
        "o",
        "r"
      ],
      [
        "l",
        "e"
      ],
      [
        "ha",
        "t"
      ],
      [
        "o",
        "t"
      ],
      [
        "v",
        "er"
      ],
      [
        "a",
        "m"
      ],
      [
        "T",
        "om"
      ],
      [
        "c",
        "k"
      ],
      [
        "o",
        "w"
      ],
      [
        "B",
        "en"
      ],
      [
        "Ġ",
        "it"
      ],
      [
        "B",
        "ut"
      ],
      [
        "e",
        "s"
      ],
      [
        "Tim",
        "my"
      ],
      [
        "i",
        "r"
      ],
      [
        "Ġhe",
        "r"
      ],
      [
        "Ġ",
        "o"
      ],
      [
        "Ġ",
        "He"
      ],
      [
        "ver",
        "y"
      ],
      [
        "o",
        "o"
      ],
      [
        "Ġ",
        "She"
      ],
      [
        "Y",
        "ou"
      ],
      [
        "Ġ",
        "in"
      ],
      [
        "l",
        "d"
      ],
      [
        "M",
        "om"
      ],
      [
        "Ġ",
        "e"
      ],
      [
        "Ġ",
        "u"
      ],
      [
        "a",
        "d"
      ],
      [
        "i",
        "g"
      ],
      [
        "Ġ",
        "They"
      ],
      [
        "k",
        "e"
      ],
      [
        "a",
        "t"
      ],
      [
        "i",
        "e"
      ],
      [
        "a",
        "l"
      ],
      [
        "Ġ",
        "r"
      ],
      [
        "Ġ",
        "y"
      ],
      [
        "Ġsa",
        "id"
      ],
      [
        "it",
        "h"
      ],
      [
        "Ġb",
        "e"
      ],
      [
        "v",
        "e"
      ],
      [
        "p",
        "p"
      ],
      [
        "Ġs",
        "t"
      ],
      [
        "Ġs",
        "he"
      ],
      [
        "S",
        "u"
      ],
      [
        "Ġ",
        "\""
      ],
      [
        "a",
        "ck"
      ],
      [
        "Ġw",
        "ith"
      ],
      [
        "he",
        "n"
      ],
      [
        "Ġ",
        "on"
      ],
      [
        "Ġo",
        "f"
      ],
      [
        "Ġs",
        "o"
      ],
      [
        "n",
        "n"
      ],
      [
        "Ġh",
        "is"
      ],
      [
        "k",
        "ed"
      ],
      [
        "t",
        "er"
      ],
      [
        "Ġp",
        "l"
      ],
      [
        "Ġd",
        "ay"
      ],
      [
        "Ġy",
        "ou"
      ],
      [
        "Ġt",
        "hat"
      ],
      [
        "M",
        "a"
      ],
      [
        "n",
        "t"
      ],
      [
        "s",
        "e"
      ],
      [
        "S",
        "am"
      ],
      [
        "Ġf",
        "r"
      ],
      [
        "s",
        "t"
      ],
      [
        "Ġu",
        "p"
      ],
      [
        "Ġ",
        "The"
      ],
      [
        "i",
        "l"
      ],
      [
        "en",
        "t"
      ],
      [
        "Ma",
        "x"
      ],
      [
        "Ġha",
        "d"
      ],
      [
        "W",
        "e"
      ],
      [
        "S",
        "o"
      ],
      [
        "Ġpl",
        "ay"
      ],
      [
        "ar",
        "a"
      ],
      [
        "Ġthe",
        "y"
      ],
      [
        "it",
        "t"
      ],
      [
        "Ġ",
        "Lily"
      ],
      [
        "om",
        "e"
      ],
      [
        "Ġm",
        "om"
      ],
      [
        "ou",
        "ld"
      ],
      [
        "W",
        "hen"
      ],
      [
        "A",
        "nn"
      ],
      [
        "Ġf",
        "or"
      ],
      [
        "S",
        "ara"
      ],
      [
        "d",
        "d"
      ],
      [
        "Ġt",
        "h"
      ],
      [
        "he",
        "r"
      ],
      [
        "J",
        "o"
      ],
      [
        "c",
        "h"
      ],
      [
        "'",
        "s"
      ],
      [
        "Ann",
        "a"
      ],
      [
        "e",
        "l"
      ],
      [
        "Ġha",
        "pp"
      ],
      [
        "ou",
        "t"
      ],
      [
        "Ġwa",
        "nt"
      ],
      [
        "Ġl",
        "i"
      ],
      [
        "E",
        "very"
      ],
      [
        "r",
        "a"
      ],
      [
        "F",
        "r"
      ],
      [
        "u",
        "n"
      ],
      [
        "im",
        "e"
      ],
      [
        "ou",
        "nd"
      ],
      [
        "Ġ",
        "very"
      ],
      [
        "Ġt",
        "ime"
      ],
      [
        "r",
        "y"
      ],
      [
        "Ġd",
        "o"
      ],
      [
        "J",
        "ack"
      ],
      [
        "Ġl",
        "itt"
      ],
      [
        "Ġlitt",
        "le"
      ],
      [
        "Ġthe",
        "re"
      ],
      [
        "Ġ",
        "k"
      ],
      [
        "oo",
        "k"
      ],
      [
        "id",
        "e"
      ],
      [
        "dd",
        "en"
      ],
      [
        "dden",
        "ly"
      ],
      [
        "Ġn",
        "e"
      ],
      [
        "Ġn",
        "ot"
      ],
      [
        "Ġ",
        "re"
      ],
      [
        "M",
        "i"
      ],
      [
        "He",
        "r"
      ],
      [
        "h",
        "t"
      ],
      [
        "Ġhapp",
        "y"
      ],
      [
        "Su",
        "ddenly"
      ],
      [
        "Ġb",
        "ig"
      ],
      [
        "Fr",
        "om"
      ],
      [
        "Ġb",
        "ut"
      ],
      [
        "a",
        "ke"
      ],
      [
        "Ġs",
        "m"
      ],
      [
        "on",
        "e"
      ],
      [
        "Ġsa",
        "w"
      ],
      [
        "i",
        "ll"
      ],
      [
        "ha",
        "n"
      ],
      [
        "Ġ",
        "It"
      ],
      [
        "ie",
        "nd"
      ],
      [
        "Ġa",
        "s"
      ],
      [
        "Ġa",
        "n"
      ],
      [
        "L",
        "et"
      ],
      [
        "Ġfr",
        "iend"
      ],
      [
        "al",
        "ly"
      ],
      [
        "H",
        "is"
      ],
      [
        "Ġ",
        "is"
      ],
      [
        "v",
        "ed"
      ],
      [
        "'",
        "t"
      ],
      [
        "Ġ",
        "I"
      ],
      [
        "Mi",
        "a"
      ],
      [
        "o",
        "re"
      ],
      [
        "er",
        "e"
      ],
      [
        ".",
        "\""
      ],
      [
        "o",
        "b"
      ],
      [
        "u",
        "g"
      ],
      [
        "A",
        "nd"
      ],
      [
        "Ġw",
        "ere"
      ],
      [
        "Ġs",
        "h"
      ],
      [
        "e",
        "c"
      ],
      [
        "Ġl",
        "o"
      ],
      [
        "u",
        "r"
      ],
      [
        "The",
        "n"
      ],
      [
        "Ġb",
        "o"
      ],
      [
        "l",
        "a"
      ],
      [
        "u",
        "m"
      ],
      [
        "u",
        "l"
      ],
      [
        "T",
        "hat"
      ],
      [
        "Ġh",
        "im"
      ],
      [
        "!",
        "\""
      ],
      [
        "f",
        "ter"
      ],
      [
        "Ġto",
        "o"
      ],
      [
        "Ġg",
        "o"
      ],
      [
        "Ġup",
        "on"
      ],
      [
        "Mom",
        "my"
      ],
      [
        "ir",
        "l"
      ],
      [
        "Ġ",
        "j"
      ],
      [
        "W",
        "hat"
      ],
      [
        "Jo",
        "h"
      ],
      [
        "Ġwant",
        "ed"
      ],
      [
        "Ġs",
        "e"
      ],
      [
        "a",
        "ll"
      ],
      [
        "Ġg",
        "irl"
      ],
      [
        "Ġ",
        "out"
      ],
      [
        "w",
        "ay"
      ],
      [
        "i",
        "nd"
      ],
      [
        "Y",
        "es"
      ],
      [
        "Ġs",
        "p"
      ],
      [
        "c",
        "y"
      ],
      [
        "Ġthe",
        "m"
      ],
      [
        "Ġa",
        "t"
      ],
      [
        "Ġc",
        "ould"
      ],
      [
        "A",
        "s"
      ],
      [
        "l",
        "p"
      ],
      [
        "oo",
        "d"
      ],
      [
        "han",
        "k"
      ],
      [
        "A",
        "fter"
      ],
      [
        "L",
        "u"
      ],
      [
        "r",
        "i"
      ],
      [
        "Ġd",
        "id"
      ],
      [
        "f",
        "ul"
      ],
      [
        "Joh",
        "n"
      ],
      [
        "Ġthe",
        "ir"
      ],
      [
        "C",
        "an"
      ],
      [
        "Ġa",
        "re"
      ],
      [
        "ar",
        "t"
      ],
      [
        "ar",
        "k"
      ],
      [
        "Ġe",
        "x"
      ],
      [
        "h",
        "ing"
      ],
      [
        "Ġw",
        "h"
      ],
      [
        "o",
        "l"
      ],
      [
        "Ġw",
        "ent"
      ],
      [
        "s",
        "ide"
      ],
      [
        "o",
        "p"
      ],
      [
        "he",
        "d"
      ],
      [
        "B",
        "ob"
      ],
      [
        "r",
        "ound"
      ],
      [
        "Ġha",
        "ve"
      ],
      [
        "T",
        "hank"
      ],
      [
        "Lu",
        "cy"
      ],
      [
        "Ġn",
        "am"
      ],
      [
        "Ġa",
        "ll"
      ],
      [
        "a",
        "in"
      ],
      [
        "i",
        "c"
      ],
      [
        "N",
        "o"
      ],
      [
        "e",
        "ar"
      ],
      [
        "ar",
        "d"
      ],
      [
        "ig",
        "ht"
      ],
      [
        "Ġk",
        "n"
      ],
      [
        "Ġhe",
        "lp"
      ],
      [
        "D",
        "ad"
      ],
      [
        "ow",
        "n"
      ],
      [
        "Ġfriend",
        "s"
      ],
      [
        "n",
        "y"
      ],
      [
        "Ġb",
        "ack"
      ],
      [
        "Ġc",
        "an"
      ],
      [
        "ot",
        "her"
      ],
      [
        "W",
        "h"
      ],
      [
        "om",
        "et"
      ],
      [
        "Ġnam",
        "ed"
      ],
      [
        "i",
        "ce"
      ],
      [
        "?",
        "\""
      ],
      [
        "g",
        "et"
      ],
      [
        "Ġ",
        "Ben"
      ],
      [
        "S",
        "p"
      ],
      [
        "Ġlo",
        "ved"
      ],
      [
        "m",
        "a"
      ],
      [
        "ou",
        "g"
      ],
      [
        "s",
        "s"
      ],
      [
        "T",
        "h"
      ],
      [
        "il",
        "ed"
      ],
      [
        "Ġ",
        "Timmy"
      ],
      [
        "i",
        "ck"
      ],
      [
        "el",
        "t"
      ],
      [
        "Ġa",
        "l"
      ],
      [
        "Ġc",
        "a"
      ],
      [
        "Ġ",
        "One"
      ],
      [
        "an",
        "e"
      ],
      [
        "Ġs",
        "c"
      ],
      [
        "d",
        "y"
      ],
      [
        "Ġf",
        "elt"
      ],
      [
        "Ġ",
        "Tom"
      ],
      [
        "Ġn",
        "o"
      ],
      [
        "Su",
        "e"
      ],
      [
        "Ġsm",
        "iled"
      ],
      [
        "Sara",
        "h"
      ],
      [
        "get",
        "her"
      ],
      [
        "Ġas",
        "ked"
      ],
      [
        "Ġto",
        "y"
      ],
      [
        "Ġs",
        "ay"
      ],
      [
        "e",
        "ll"
      ],
      [
        "Ġl",
        "oo"
      ],
      [
        "Ġm",
        "an"
      ],
      [
        "Ġa",
        "round"
      ],
      [
        "am",
        "e"
      ],
      [
        "u",
        "st"
      ],
      [
        "Ġs",
        "ome"
      ],
      [
        "Ġbo",
        "y"
      ],
      [
        "Ġf",
        "un"
      ],
      [
        "Ġloo",
        "ked"
      ],
      [
        "Sp",
        "ot"
      ],
      [
        "Ġc",
        "l"
      ],
      [
        "Th",
        "is"
      ],
      [
        "J",
        "ane"
      ],
      [
        "Ġw",
        "ould"
      ],
      [
        "ir",
        "d"
      ],
      [
        "Ġb",
        "r"
      ],
      [
        "on",
        "g"
      ],
      [
        "Ġli",
        "ke"
      ],
      [
        "Ġst",
        "art"
      ],
      [
        "Ġm",
        "e"
      ],
      [
        "Ġse",
        "e"
      ],
      [
        "u",
        "re"
      ],
      [
        "Ġr",
        "o"
      ],
      [
        "D",
        "o"
      ],
      [
        "Ġb",
        "ird"
      ],
      [
        "Ġs",
        "omet"
      ],
      [
        "Ġp",
        "r"
      ],
      [
        "Ġf",
        "a"
      ],
      [
        "Ġw",
        "or"
      ],
      [
        "Every",
        "one"
      ],
      [
        "Ġa",
        "g"
      ],
      [
        "Ġa",
        "way"
      ],
      [
        "ing",
        "s"
      ],
      [
        "i",
        "le"
      ],
      [
        "L",
        "ook"
      ],
      [
        "b",
        "e"
      ],
      [
        "Ġw",
        "hat"
      ],
      [
        "ad",
        "e"
      ],
      [
        "D",
        "a"
      ],
      [
        "Ġt",
        "re"
      ],
      [
        "â",
        "Ģ"
      ],
      [
        "Ġr",
        "an"
      ],
      [
        "Ġstart",
        "ed"
      ],
      [
        "M",
        "ay"
      ],
      [
        "a",
        "b"
      ],
      [
        "Ġm",
        "ake"
      ],
      [
        "it",
        "ed"
      ],
      [
        "il",
        "ly"
      ],
      [
        "Ġ",
        "But"
      ],
      [
        "i",
        "f"
      ],
      [
        "Jo",
        "e"
      ],
      [
        "ou",
        "d"
      ],
      [
        "Ġm",
        "ade"
      ],
      [
        "Ġto",
        "gether"
      ],
      [
        "Ġsomet",
        "hing"
      ],
      [
        "Ġf",
        "e"
      ],
      [
        "Ġex",
        "c"
      ],
      [
        "D",
        "on"
      ],
      [
        "Ġp",
        "ark"
      ],
      [
        "u",
        "ck"
      ],
      [
        "Ġc",
        "ar"
      ],
      [
        "Ġne",
        "w"
      ],
      [
        "Li",
        "la"
      ],
      [
        "Ġsa",
        "d"
      ],
      [
        ",",
        "\""
      ],
      [
        "u",
        "s"
      ],
      [
        "Ġp",
        "ut"
      ],
      [
        "May",
        "be"
      ],
      [
        "F",
        "in"
      ],
      [
        "Ġw",
        "e"
      ],
      [
        "es",
        "t"
      ],
      [
        "Ġfr",
        "om"
      ],
      [
        "Ġl",
        "ook"
      ],
      [
        "e",
        "p"
      ],
      [
        "Ġ",
        "You"
      ],
      [
        "g",
        "e"
      ],
      [
        "Ġthe",
        "n"
      ],
      [
        "Ġh",
        "ome"
      ],
      [
        "Ġw",
        "hen"
      ],
      [
        "Ġag",
        "ain"
      ],
      [
        "q",
        "u"
      ],
      [
        "Ġ",
        "other"
      ],
      [
        "Ġf",
        "ound"
      ],
      [
        "Ġsc",
        "ar"
      ],
      [
        "l",
        "u"
      ],
      [
        "a",
        "ch"
      ],
      [
        "Ġd",
        "ec"
      ],
      [
        "ol",
        "ly"
      ],
      [
        "is",
        "y"
      ],
      [
        "i",
        "ly"
      ],
      [
        "Ġwh",
        "o"
      ],
      [
        "a",
        "k"
      ],
      [
        "Ġh",
        "ug"
      ],
      [
        "I",
        "n"
      ],
      [
        "Ġl",
        "a"
      ],
      [
        "Ġg",
        "ood"
      ],
      [
        "he",
        "re"
      ],
      [
        "pp",
        "ed"
      ],
      [
        "Ġsay",
        "s"
      ],
      [
        "ri",
        "ed"
      ],
      [
        "Ġwa",
        "l"
      ],
      [
        "N",
        "ow"
      ],
      [
        "Ġg",
        "et"
      ],
      [
        "ou",
        "s"
      ],
      [
        "Ġa",
        "b"
      ],
      [
        "Ġexc",
        "ited"
      ],
      [
        "S",
        "ally"
      ],
      [
        "oug",
        "ht"
      ],
      [
        "Ġplay",
        "ing"
      ],
      [
        "Ġg",
        "ot"
      ],
      [
        "B",
        "illy"
      ],
      [
        "Da",
        "isy"
      ],
      [
        "Ġs",
        "w"
      ],
      [
        "id",
        "ed"
      ],
      [
        "Ġth",
        "ings"
      ],
      [
        "nn",
        "y"
      ],
      [
        "Ġdec",
        "ided"
      ],
      [
        "Ġe",
        "very"
      ],
      [
        "A",
        "t"
      ],
      [
        "Ġc",
        "ame"
      ],
      [
        "W",
        "ow"
      ],
      [
        "Ġbe",
        "c"
      ],
      [
        "Fin",
        "ally"
      ],
      [
        "Ġli",
        "ked"
      ],
      [
        "a",
        "s"
      ],
      [
        "E",
        "m"
      ],
      [
        "i",
        "ve"
      ],
      [
        "Ġs",
        "ha"
      ],
      [
        "ll",
        "o"
      ],
      [
        "Ġd",
        "own"
      ],
      [
        "Ġdo",
        "g"
      ],
      [
        "Ben",
        "ny"
      ],
      [
        "Ġscar",
        "ed"
      ],
      [
        "Ġ",
        "v"
      ],
      [
        "b",
        "y"
      ],
      [
        "Tom",
        "my"
      ],
      [
        "J",
        "im"
      ],
      [
        "way",
        "s"
      ],
      [
        "M",
        "olly"
      ],
      [
        "a",
        "ve"
      ],
      [
        "v",
        "en"
      ],
      [
        "u",
        "ch"
      ],
      [
        "Ġon",
        "e"
      ],
      [
        "l",
        "ow"
      ],
      [
        "Ġ",
        "Tim"
      ],
      [
        "p",
        "l"
      ],
      [
        "Ġf",
        "ind"
      ],
      [
        "is",
        "t"
      ],
      [
        "Ġdid",
        "n"
      ],
      [
        "Ġkn",
        "e"
      ],
      [
        "ou",
        "se"
      ],
      [
        "e",
        "m"
      ],
      [
        "Ġca",
        "re"
      ],
      [
        "Ġmom",
        "my"
      ],
      [
        "Ġd",
        "ad"
      ],
      [
        "Ġal",
        "ways"
      ],
      [
        "Ġfe",
        "el"
      ],
      [
        "ra",
        "nd"
      ],
      [
        "Ġyou",
        "r"
      ],
      [
        "er",
        "s"
      ],
      [
        "or",
        "ry"
      ],
      [
        "Ġout",
        "side"
      ],
      [
        "Ġ",
        "ke"
      ],
      [
        "He",
        "llo"
      ],
      [
        "Ġl",
        "ot"
      ],
      [
        "J",
        "en"
      ],
      [
        "The",
        "re"
      ],
      [
        "Ġtoo",
        "k"
      ],
      [
        "nd",
        "er"
      ],
      [
        "ou",
        "r"
      ],
      [
        "Ġab",
        "out"
      ],
      [
        "a",
        "g"
      ],
      [
        "it",
        "e"
      ],
      [
        "n",
        "ed"
      ],
      [
        "o",
        "s"
      ],
      [
        "k",
        "ay"
      ],
      [
        "is",
        "e"
      ],
      [
        "A",
        "my"
      ],
      [
        "a",
        "se"
      ],
      [
        "Ġtre",
        "e"
      ],
      [
        "an",
        "t"
      ],
      [
        "ec",
        "i"
      ],
      [
        "f",
        "f"
      ],
      [
        "Ġm",
        "y"
      ],
      [
        "M",
        "um"
      ],
      [
        "at",
        "e"
      ],
      [
        "Ġtoy",
        "s"
      ],
      [
        "Ġl",
        "ear"
      ],
      [
        "in",
        "k"
      ],
      [
        "u",
        "se"
      ],
      [
        "c",
        "hed"
      ],
      [
        "Ġth",
        "ought"
      ],
      [
        "en",
        "ed"
      ],
      [
        "Ġkne",
        "w"
      ],
      [
        "es",
        "s"
      ],
      [
        "Ġb",
        "all"
      ],
      [
        "Ġl",
        "e"
      ],
      [
        "re",
        "t"
      ],
      [
        "Ġm",
        "ore"
      ],
      [
        "Ġo",
        "ld"
      ],
      [
        "e",
        "et"
      ],
      [
        "t",
        "o"
      ],
      [
        "g",
        "ed"
      ],
      [
        "Ġ",
        "Max"
      ],
      [
        "Ġb",
        "u"
      ],
      [
        "t",
        "y"
      ],
      [
        "Ġw",
        "ill"
      ],
      [
        "eci",
        "al"
      ],
      [
        "Ġsp",
        "ecial"
      ],
      [
        "Ġ",
        "Sam"
      ],
      [
        "a",
        "p"
      ],
      [
        "Ġt",
        "ake"
      ],
      [
        "T",
        "o"
      ],
      [
        "Ġkn",
        "ow"
      ],
      [
        "Ġla",
        "ug"
      ],
      [
        "Ġc",
        "o"
      ],
      [
        "am",
        "a"
      ],
      [
        "a",
        "use"
      ],
      [
        "Wh",
        "y"
      ],
      [
        "Ġc",
        "at"
      ],
      [
        "M",
        "ar"
      ],
      [
        "Ġp",
        "e"
      ],
      [
        "Ġt",
        "r"
      ],
      [
        "Ġh",
        "ow"
      ],
      [
        "M",
        "ama"
      ],
      [
        "is",
        "h"
      ],
      [
        "Ġm",
        "uch"
      ],
      [
        "Ġan",
        "y"
      ],
      [
        "or",
        "t"
      ],
      [
        "um",
        "p"
      ],
      [
        "r",
        "o"
      ],
      [
        "Ġh",
        "o"
      ],
      [
        "le",
        "ase"
      ],
      [
        "Ġt",
        "han"
      ],
      [
        "b",
        "b"
      ],
      [
        "Ġ",
        "en"
      ],
      [
        "v",
        "ent"
      ],
      [
        "Ġsh",
        "ow"
      ],
      [
        "Dad",
        "dy"
      ],
      [
        "Ġcould",
        "n"
      ],
      [
        "So",
        "on"
      ],
      [
        "Ġh",
        "ouse"
      ],
      [
        "Ġt",
        "ried"
      ],
      [
        "Ġin",
        "to"
      ],
      [
        "Ġo",
        "ver"
      ],
      [
        "O",
        "h"
      ],
      [
        "l",
        "o"
      ],
      [
        "i",
        "on"
      ],
      [
        "Ġcare",
        "ful"
      ],
      [
        "Ġs",
        "k"
      ],
      [
        "Ġe",
        "at"
      ],
      [
        "Ġt",
        "w"
      ],
      [
        "C",
        "ome"
      ],
      [
        "Ġp",
        "o"
      ],
      [
        "Ġin",
        "side"
      ],
      [
        "Ġm",
        "o"
      ],
      [
        "Ġwal",
        "k"
      ],
      [
        "Ġha",
        "nd"
      ],
      [
        "Ġg",
        "ra"
      ],
      [
        "Ġ",
        "if"
      ],
      [
        "J",
        "ill"
      ],
      [
        "Ġ",
        "qu"
      ],
      [
        "Ġto",
        "ld"
      ],
      [
        "Ġg",
        "re"
      ],
      [
        "G",
        "rand"
      ],
      [
        "A",
        "ll"
      ],
      [
        "Ġpr",
        "oud"
      ],
      [
        "M",
        "r"
      ],
      [
        "Ġne",
        "ver"
      ],
      [
        "Ġbec",
        "ause"
      ],
      [
        "Ġs",
        "orry"
      ],
      [
        "d",
        "ay"
      ],
      [
        "i",
        "ous"
      ],
      [
        "Ġo",
        "p"
      ],
      [
        "Ġg",
        "ave"
      ],
      [
        "Ġbo",
        "x"
      ],
      [
        "Ġ",
        "or"
      ],
      [
        "Ġplay",
        "ed"
      ],
      [
        "Ġth",
        "is"
      ],
      [
        "Ġc",
        "h"
      ],
      [
        "Ġhe",
        "ard"
      ],
      [
        "l",
        "f"
      ],
      [
        "a",
        "ce"
      ],
      [
        "le",
        "s"
      ],
      [
        "oug",
        "h"
      ],
      [
        "Ġro",
        "om"
      ],
      [
        "in",
        "e"
      ],
      [
        "Ġwa",
        "ter"
      ],
      [
        "Ġp",
        "ick"
      ],
      [
        "at",
        "er"
      ],
      [
        "ot",
        "h"
      ],
      [
        "et",
        "ter"
      ],
      [
        "o",
        "y"
      ],
      [
        "Wh",
        "o"
      ],
      [
        "Ġj",
        "ust"
      ],
      [
        "Ġhug",
        "ged"
      ],
      [
        "Ġof",
        "f"
      ],
      [
        "w",
        "er"
      ],
      [
        "Ġp",
        "u"
      ],
      [
        "Ġp",
        "ret"
      ],
      [
        "Ġ",
        "Mom"
      ],
      [
        "Ġe",
        "ach"
      ],
      [
        "nt",
        "il"
      ],
      [
        "Ġst",
        "r"
      ],
      [
        "f",
        "e"
      ],
      [
        "Ġl",
        "ong"
      ],
      [
        "Ġc",
        "om"
      ],
      [
        "Ġs",
        "un"
      ],
      [
        "J",
        "ust"
      ],
      [
        "Ġ",
        "We"
      ],
      [
        "Su",
        "re"
      ],
      [
        "S",
        "t"
      ],
      [
        "Ġbe",
        "ar"
      ],
      [
        "lu",
        "e"
      ],
      [
        "ur",
        "t"
      ],
      [
        "i",
        "z"
      ],
      [
        "b",
        "er"
      ],
      [
        "Ġne",
        "ed"
      ],
      [
        "Ġwa",
        "t"
      ],
      [
        "Em",
        "ma"
      ],
      [
        "Ġn",
        "ice"
      ],
      [
        "Ġu",
        "ntil"
      ],
      [
        "Ġsm",
        "all"
      ],
      [
        "v",
        "ing"
      ],
      [
        "O",
        "kay"
      ],
      [
        "i",
        "ld"
      ],
      [
        "n",
        "s"
      ],
      [
        "Ġt",
        "ry"
      ],
      [
        "Jim",
        "my"
      ],
      [
        "H",
        "i"
      ],
      [
        "Ġ",
        "B"
      ],
      [
        "Ġlear",
        "ned"
      ],
      [
        "Ġ",
        "Anna"
      ],
      [
        "Ġk",
        "ind"
      ],
      [
        "P",
        "lease"
      ],
      [
        "en",
        "s"
      ],
      [
        "Ġman",
        "y"
      ],
      [
        "Ġb",
        "etter"
      ],
      [
        "Ġha",
        "r"
      ],
      [
        "'",
        "m"
      ],
      [
        "ad",
        "y"
      ],
      [
        "g",
        "ry"
      ],
      [
        "Ġf",
        "o"
      ],
      [
        "ur",
        "p"
      ],
      [
        "f",
        "t"
      ],
      [
        "Ġ",
        "im"
      ],
      [
        "Ġ",
        "Jack"
      ],
      [
        "Ġe",
        "nd"
      ],
      [
        "Ġs",
        "n"
      ],
      [
        "im",
        "al"
      ],
      [
        "Ġan",
        "imal"
      ],
      [
        "a",
        "nd"
      ],
      [
        "i",
        "es"
      ],
      [
        "i",
        "p"
      ],
      [
        "Ġc",
        "le"
      ],
      [
        "T",
        "w"
      ],
      [
        "p",
        "t"
      ],
      [
        "a",
        "ut"
      ],
      [
        "o",
        "se"
      ],
      [
        "Ġg",
        "r"
      ],
      [
        "op",
        "le"
      ],
      [
        "ff",
        "y"
      ],
      [
        "Ġex",
        "pl"
      ],
      [
        "re",
        "am"
      ],
      [
        "lu",
        "ffy"
      ],
      [
        "Ġc",
        "he"
      ],
      [
        "Ġbe",
        "aut"
      ],
      [
        "x",
        "t"
      ],
      [
        "Ġj",
        "ump"
      ],
      [
        "ed",
        "dy"
      ],
      [
        "Ġa",
        "d"
      ],
      [
        "ĠHe",
        "r"
      ],
      [
        "Ġsa",
        "fe"
      ],
      [
        "Ġe",
        "ven"
      ],
      [
        "Ġb",
        "est"
      ],
      [
        "Ġf",
        "low"
      ],
      [
        "Ġthan",
        "ked"
      ],
      [
        "Ġc",
        "all"
      ],
      [
        "Ġlot",
        "s"
      ],
      [
        "Ġlaug",
        "hed"
      ],
      [
        "v",
        "es"
      ],
      [
        "f",
        "ore"
      ],
      [
        "Mar",
        "y"
      ],
      [
        "Grand",
        "ma"
      ],
      [
        "Ġb",
        "ra"
      ],
      [
        "Ġs",
        "l"
      ],
      [
        "se",
        "lf"
      ],
      [
        "Ġb",
        "y"
      ],
      [
        "Ġwa",
        "y"
      ],
      [
        "in",
        "y"
      ],
      [
        "Ġf",
        "am"
      ],
      [
        "a",
        "st"
      ],
      [
        "Ġu",
        "s"
      ],
      [
        "i",
        "ful"
      ],
      [
        "Ġg",
        "ard"
      ],
      [
        "Ġbeaut",
        "iful"
      ],
      [
        "Ġgard",
        "en"
      ],
      [
        "ig",
        "h"
      ],
      [
        "G",
        "o"
      ],
      [
        "Ġl",
        "oud"
      ],
      [
        "L",
        "ater"
      ],
      [
        "Ġsk",
        "y"
      ],
      [
        "w",
        "here"
      ],
      [
        "Ġs",
        "u"
      ],
      [
        "Ġd",
        "on"
      ],
      [
        "ec",
        "t"
      ],
      [
        "le",
        "w"
      ],
      [
        "c",
        "t"
      ],
      [
        "Ġlo",
        "ve"
      ],
      [
        "F",
        "luffy"
      ],
      [
        "âĢ",
        "Ŀ"
      ],
      [
        "Ġf",
        "i"
      ],
      [
        "âĢ",
        "ľ"
      ],
      [
        "B",
        "e"
      ],
      [
        "ĠThe",
        "n"
      ],
      [
        "Ġr",
        "un"
      ],
      [
        "Tw",
        "eet"
      ],
      [
        "t",
        "hing"
      ],
      [
        "is",
        "s"
      ],
      [
        "Ġsm",
        "ile"
      ],
      [
        "im",
        "es"
      ],
      [
        "r",
        "m"
      ],
      [
        "Ġc",
        "ome"
      ],
      [
        "Ġ",
        "Mia"
      ],
      [
        "oo",
        "l"
      ],
      [
        "Ġ",
        "And"
      ],
      [
        "Ġ",
        "From"
      ],
      [
        "Ġu",
        "nder"
      ],
      [
        "Ġhar",
        "d"
      ],
      [
        "E",
        "ll"
      ],
      [
        "o",
        "g"
      ],
      [
        "Ġst",
        "ay"
      ],
      [
        "Ġl",
        "ist"
      ],
      [
        "A",
        "l"
      ],
      [
        "he",
        "s"
      ],
      [
        "z",
        "z"
      ],
      [
        "Ġ",
        "So"
      ],
      [
        "re",
        "e"
      ],
      [
        "Ġst",
        "ill"
      ],
      [
        "P",
        "et"
      ],
      [
        "Ġcl",
        "os"
      ],
      [
        "Ġh",
        "urt"
      ],
      [
        "H",
        "ow"
      ],
      [
        "Ġ",
        "His"
      ],
      [
        "Ġha",
        "s"
      ],
      [
        "Ġim",
        "p"
      ],
      [
        "Ġb",
        "oth"
      ],
      [
        "Ġfam",
        "ily"
      ],
      [
        "ab",
        "le"
      ],
      [
        "Ġpe",
        "ople"
      ],
      [
        "Ġanimal",
        "s"
      ],
      [
        "Ġc",
        "ol"
      ],
      [
        "Ġr",
        "ed"
      ],
      [
        "Ġbra",
        "ve"
      ],
      [
        "Ġli",
        "ved"
      ],
      [
        "Ġwal",
        "ked"
      ],
      [
        "Sam",
        "my"
      ],
      [
        "W",
        "ith"
      ],
      [
        "Ġr",
        "u"
      ],
      [
        "Ġre",
        "m"
      ],
      [
        "s",
        "h"
      ],
      [
        "Ġf",
        "u"
      ],
      [
        "re",
        "ss"
      ],
      [
        "M",
        "y"
      ],
      [
        "Jen",
        "ny"
      ],
      [
        "Ġ",
        "Every"
      ],
      [
        "Ġ",
        "When"
      ],
      [
        "Ġs",
        "urp"
      ],
      [
        "Ġsurp",
        "r"
      ],
      [
        "Ġtw",
        "o"
      ],
      [
        "Ġb",
        "ad"
      ],
      [
        "Ġl",
        "et"
      ],
      [
        "is",
        "hed"
      ],
      [
        "pp",
        "y"
      ],
      [
        "a",
        "c"
      ],
      [
        "Ġsh",
        "ould"
      ],
      [
        "Ġ",
        "âĢľ"
      ],
      [
        "Ġf",
        "ore"
      ],
      [
        "l",
        "ed"
      ],
      [
        "e",
        "e"
      ],
      [
        "an",
        "g"
      ],
      [
        "itt",
        "ens"
      ],
      [
        "Ġke",
        "pt"
      ],
      [
        "Ġb",
        "ook"
      ],
      [
        "Ġst",
        "or"
      ],
      [
        "The",
        "ir"
      ],
      [
        "is",
        "ed"
      ],
      [
        "In",
        "side"
      ],
      [
        "Ġf",
        "in"
      ],
      [
        "Ġf",
        "lew"
      ],
      [
        "Ġf",
        "ly"
      ],
      [
        "Ġit",
        "s"
      ],
      [
        "on",
        "s"
      ],
      [
        "M",
        "ittens"
      ],
      [
        "i",
        "ed"
      ],
      [
        "Ġcle",
        "an"
      ],
      [
        "Ġp",
        "ic"
      ],
      [
        "B",
        "u"
      ],
      [
        "Ġw",
        "o"
      ],
      [
        "Ġt",
        "ur"
      ],
      [
        "Ġgo",
        "ing"
      ],
      [
        "t",
        "le"
      ],
      [
        "b",
        "it"
      ],
      [
        "Ġcall",
        "ed"
      ],
      [
        "or",
        "n"
      ],
      [
        "Ġan",
        "gry"
      ],
      [
        "Ġsha",
        "re"
      ],
      [
        "J",
        "ake"
      ],
      [
        "if",
        "f"
      ],
      [
        "Ġ",
        "ide"
      ],
      [
        "Ġso",
        "on"
      ],
      [
        "Ġpret",
        "ty"
      ],
      [
        "ab",
        "bit"
      ],
      [
        "Ġro",
        "ck"
      ],
      [
        "Ġc",
        "on"
      ],
      [
        "R",
        "e"
      ],
      [
        "Ġg",
        "round"
      ],
      [
        "em",
        "ber"
      ],
      [
        "O",
        "f"
      ],
      [
        "t",
        "h"
      ],
      [
        "Ġw",
        "ind"
      ],
      [
        "ir",
        "st"
      ],
      [
        "Ġre",
        "al"
      ],
      [
        "Em",
        "ily"
      ],
      [
        "Ġc",
        "ry"
      ],
      [
        "Ġad",
        "vent"
      ],
      [
        "s",
        "o"
      ],
      [
        "Ġdo",
        "ll"
      ],
      [
        "Ġal",
        "so"
      ],
      [
        "Ġide",
        "a"
      ],
      [
        "a",
        "il"
      ],
      [
        "ak",
        "ing"
      ],
      [
        "Ġop",
        "ened"
      ],
      [
        "G",
        "ood"
      ],
      [
        "Ġt",
        "e"
      ],
      [
        "Ġsh",
        "iny"
      ],
      [
        "A",
        "ns"
      ],
      [
        "Ans",
        "wer"
      ],
      [
        "Ġbe",
        "fore"
      ],
      [
        "Ġe",
        "y"
      ],
      [
        "e",
        "ver"
      ],
      [
        "Ġfa",
        "st"
      ],
      [
        "Ġst",
        "o"
      ],
      [
        "Ġexpl",
        "ore"
      ],
      [
        "dd",
        "ed"
      ],
      [
        "Ġfeel",
        "ing"
      ],
      [
        "Ġwh",
        "ile"
      ],
      [
        "Ġn",
        "ow"
      ],
      [
        "j",
        "oy"
      ],
      [
        "Ġdo",
        "or"
      ],
      [
        "Ġke",
        "ep"
      ],
      [
        "Ġc",
        "ha"
      ],
      [
        "Ġwalk",
        "ing"
      ],
      [
        "He",
        "y"
      ],
      [
        "Ġno",
        "ise"
      ],
      [
        "Ġcol",
        "or"
      ],
      [
        "l",
        "ie"
      ],
      [
        "Ġb",
        "ed"
      ],
      [
        "Ġwor",
        "k"
      ],
      [
        "Ġd",
        "ra"
      ],
      [
        "nd",
        "y"
      ],
      [
        "im",
        "b"
      ],
      [
        "Ġf",
        "ar"
      ],
      [
        "Ġpick",
        "ed"
      ],
      [
        "Ġpl",
        "ace"
      ],
      [
        "Ġd",
        "el"
      ],
      [
        "Ġfa",
        "ce"
      ],
      [
        "Ġbe",
        "ing"
      ],
      [
        "Ġw",
        "r"
      ],
      [
        "âĢ",
        "Ļ"
      ],
      [
        "Ġf",
        "ood"
      ],
      [
        "i",
        "a"
      ],
      [
        "Ġcl",
        "imb"
      ],
      [
        "Ġd",
        "iff"
      ],
      [
        "e",
        "nd"
      ],
      [
        "Ġth",
        "r"
      ],
      [
        "Ġb",
        "lue"
      ],
      [
        "Ġth",
        "ink"
      ],
      [
        "Ġu",
        "n"
      ],
      [
        "Ġ",
        "Sara"
      ],
      [
        "Ġne",
        "xt"
      ],
      [
        "ic",
        "ed"
      ],
      [
        "Ġadvent",
        "ure"
      ],
      [
        "Ġlook",
        "ing"
      ],
      [
        "Ġd",
        "is"
      ],
      [
        "ell",
        "a"
      ],
      [
        "Ġqu",
        "ick"
      ],
      [
        "Ġ",
        "Lucy"
      ],
      [
        "S",
        "omet"
      ],
      [
        "by",
        "e"
      ],
      [
        "A",
        "re"
      ],
      [
        "M",
        "ark"
      ],
      [
        "Ġno",
        "dded"
      ],
      [
        "t",
        "ure"
      ],
      [
        "ab",
        "y"
      ],
      [
        "Ġfore",
        "st"
      ],
      [
        "Ġey",
        "es"
      ],
      [
        "t",
        "ed"
      ],
      [
        "Ġy",
        "ell"
      ],
      [
        "iz",
        "ed"
      ],
      [
        "Ġpic",
        "ture"
      ],
      [
        "Ġ",
        "own"
      ],
      [
        "To",
        "gether"
      ],
      [
        "Ġ",
        "Suddenly"
      ],
      [
        "Ġwa",
        "it"
      ],
      [
        "g",
        "an"
      ],
      [
        "itt",
        "y"
      ],
      [
        "um",
        "my"
      ],
      [
        "Ġimp",
        "ort"
      ],
      [
        "Ġt",
        "ra"
      ],
      [
        "Ġgre",
        "at"
      ],
      [
        "Ġto",
        "w"
      ],
      [
        "Ġsto",
        "pped"
      ],
      [
        "Ġ",
        "Bob"
      ],
      [
        "ll",
        "ow"
      ],
      [
        "Ġr",
        "ain"
      ],
      [
        "Ġg",
        "ive"
      ],
      [
        "Ġne",
        "ar"
      ],
      [
        "Ġen",
        "joy"
      ],
      [
        "Ġa",
        "pp"
      ],
      [
        "S",
        "ome"
      ],
      [
        "Ġimport",
        "ant"
      ],
      [
        "Ġrem",
        "ember"
      ],
      [
        "Ġquick",
        "ly"
      ],
      [
        "Ġr",
        "abbit"
      ],
      [
        "Ġp",
        "ar"
      ],
      [
        "W",
        "here"
      ],
      [
        "s",
        "a"
      ],
      [
        "Ġe",
        "ver"
      ],
      [
        "Ġf",
        "ish"
      ],
      [
        "o",
        "ice"
      ],
      [
        "Ġa",
        "fter"
      ],
      [
        "L",
        "e"
      ],
      [
        "u",
        "ally"
      ],
      [
        "Ġtr",
        "uck"
      ],
      [
        "Ġb",
        "re"
      ],
      [
        "bb",
        "ed"
      ],
      [
        "Ġre",
        "pl"
      ],
      [
        "ent",
        "s"
      ],
      [
        "Ġbr",
        "o"
      ],
      [
        "Ġrepl",
        "ied"
      ],
      [
        "Ġc",
        "ook"
      ],
      [
        "Ġnot",
        "iced"
      ],
      [
        "t",
        "ing"
      ],
      [
        "at",
        "h"
      ],
      [
        "Ġhand",
        "s"
      ],
      [
        "in",
        "a"
      ],
      [
        "Ġsl",
        "ide"
      ],
      [
        "K",
        "itty"
      ],
      [
        "t",
        "tle"
      ],
      [
        "Li",
        "ttle"
      ],
      [
        "Mum",
        "my"
      ],
      [
        "Ġlist",
        "en"
      ],
      [
        "b",
        "le"
      ],
      [
        "Ġa",
        "c"
      ],
      [
        "ma",
        "z"
      ],
      [
        "Ġshow",
        "ed"
      ],
      [
        "Ġevery",
        "one"
      ],
      [
        "Ġc",
        "ur"
      ],
      [
        "Ġdiff",
        "er"
      ],
      [
        "Ġsha",
        "r"
      ],
      [
        "a",
        "ge"
      ],
      [
        "Ġs",
        "ound"
      ],
      [
        "Ġs",
        "ure"
      ],
      [
        "Ġas",
        "k"
      ],
      [
        "Al",
        "ice"
      ],
      [
        "Ġr",
        "ight"
      ],
      [
        "Ġstr",
        "ong"
      ],
      [
        "Ġsh",
        "out"
      ],
      [
        "Ġa",
        "maz"
      ],
      [
        "Ġt",
        "al"
      ],
      [
        "Ġhe",
        "ad"
      ],
      [
        "Ġbe",
        "en"
      ],
      [
        "Ġbec",
        "ame"
      ],
      [
        "le",
        "ep"
      ],
      [
        "Ġb",
        "lo"
      ],
      [
        "Ġt",
        "ou"
      ],
      [
        "Ġb",
        "l"
      ],
      [
        "Ġme",
        "an"
      ],
      [
        "an",
        "k"
      ],
      [
        "Ġv",
        "oice"
      ],
      [
        "r",
        "own"
      ],
      [
        "Ġwo",
        "nder"
      ],
      [
        "Li",
        "sa"
      ],
      [
        "Wh",
        "ile"
      ],
      [
        "Ġch",
        "ild"
      ],
      [
        "Ġwat",
        "ched"
      ],
      [
        "Ġy",
        "ear"
      ],
      [
        "Ġ",
        "Sue"
      ],
      [
        "Ġw",
        "here"
      ],
      [
        "Ġd",
        "ress"
      ],
      [
        "Su",
        "s"
      ],
      [
        "z",
        "y"
      ],
      [
        "Ġwat",
        "ch"
      ],
      [
        "Ġ",
        "T"
      ],
      [
        "L",
        "o"
      ],
      [
        "Ġdiffer",
        "ent"
      ],
      [
        "Somet",
        "imes"
      ],
      [
        "Ġh",
        "igh"
      ],
      [
        "Ġb",
        "it"
      ],
      [
        "Ġbo",
        "at"
      ],
      [
        "Ġo",
        "kay"
      ],
      [
        "Ġgood",
        "bye"
      ],
      [
        "vent",
        "ually"
      ],
      [
        "Ġa",
        "r"
      ],
      [
        "Ġs",
        "qu"
      ],
      [
        "Ġst",
        "ore"
      ],
      [
        "u",
        "e"
      ],
      [
        "Ġn",
        "ight"
      ],
      [
        "Ġclos",
        "er"
      ],
      [
        "Ġd",
        "e"
      ],
      [
        "uck",
        "y"
      ],
      [
        "ck",
        "s"
      ],
      [
        "E",
        "ven"
      ],
      [
        "Ġ",
        "Mommy"
      ],
      [
        "Ġfo",
        "llow"
      ],
      [
        "Ġu",
        "se"
      ],
      [
        "us",
        "h"
      ],
      [
        "Ġfa",
        "v"
      ],
      [
        "Ġflow",
        "ers"
      ],
      [
        "ir",
        "ed"
      ],
      [
        "Ġp",
        "a"
      ],
      [
        "Ġgra",
        "bbed"
      ],
      [
        "in",
        "ed"
      ],
      [
        "Ġst",
        "ick"
      ],
      [
        "Ġfor",
        "g"
      ],
      [
        "Ġ",
        "Spot"
      ],
      [
        "Pet",
        "er"
      ],
      [
        "Ġm",
        "ag"
      ],
      [
        "I",
        "f"
      ],
      [
        "Ġc",
        "ake"
      ],
      [
        "ak",
        "es"
      ],
      [
        "Ġwa",
        "rm"
      ],
      [
        "Ġbr",
        "ight"
      ],
      [
        "Ġjump",
        "ed"
      ],
      [
        "Ġd",
        "an"
      ],
      [
        "m",
        "ore"
      ],
      [
        "Ġany",
        "more"
      ],
      [
        "Ġbut",
        "ter"
      ],
      [
        "Ġ",
        "Sarah"
      ],
      [
        "Ġa",
        "m"
      ],
      [
        "Ġg",
        "l"
      ],
      [
        "Ġt",
        "ell"
      ],
      [
        "Ġcur",
        "ious"
      ],
      [
        "Ġ",
        "A"
      ],
      [
        "Ġf",
        "ell"
      ],
      [
        "Joh",
        "nny"
      ],
      [
        "St",
        "op"
      ],
      [
        "k",
        "es"
      ],
      [
        "Ġth",
        "ree"
      ],
      [
        "C",
        "h"
      ],
      [
        "Ġ",
        "our"
      ],
      [
        "a",
        "ched"
      ],
      [
        "op",
        "e"
      ],
      [
        "p",
        "a"
      ],
      [
        "in",
        "n"
      ],
      [
        "Ġbird",
        "s"
      ],
      [
        "Ġcon",
        "t"
      ],
      [
        "Every",
        "where"
      ],
      [
        "G",
        "ive"
      ],
      [
        "Ġ",
        "Jane"
      ],
      [
        "in",
        "ce"
      ],
      [
        "Ġf",
        "irst"
      ],
      [
        "Ġhelp",
        "ed"
      ],
      [
        "Ġpu",
        "ll"
      ],
      [
        "Ġp",
        "ie"
      ],
      [
        "Ġyell",
        "ow"
      ],
      [
        "Ell",
        "a"
      ],
      [
        "B",
        "ella"
      ],
      [
        "it",
        "c"
      ],
      [
        "Ġ",
        "R"
      ],
      [
        "He",
        "re"
      ],
      [
        "Ġha",
        "t"
      ],
      [
        "Ġc",
        "la"
      ],
      [
        "Ġ",
        "Everyone"
      ],
      [
        "Ġk",
        "id"
      ],
      [
        "o",
        "on"
      ],
      [
        "Ġlear",
        "n"
      ],
      [
        "Ġreal",
        "ized"
      ],
      [
        "ou",
        "nt"
      ],
      [
        "Ġ",
        "z"
      ],
      [
        "s",
        "ter"
      ],
      [
        "Ġbr",
        "other"
      ],
      [
        "Ġd",
        "r"
      ],
      [
        "Ġst",
        "op"
      ],
      [
        "Ġdo",
        "es"
      ],
      [
        "Ġp",
        "er"
      ],
      [
        "ug",
        "ht"
      ],
      [
        "Ġat",
        "e"
      ],
      [
        "ha",
        "r"
      ],
      [
        "Ġhapp",
        "ened"
      ],
      [
        "Ġsw",
        "eet"
      ],
      [
        "Ġgre",
        "en"
      ],
      [
        "Ġfav",
        "or"
      ],
      [
        "Ġk",
        "itc"
      ],
      [
        "Ġkitc",
        "hen"
      ],
      [
        "Ġre",
        "ally"
      ],
      [
        "Ġgra",
        "ss"
      ],
      [
        "Ġfavor",
        "ite"
      ],
      [
        "Ġ",
        "As"
      ],
      [
        "Ġy",
        "ummy"
      ],
      [
        "Ġbe",
        "gan"
      ],
      [
        "Ġre",
        "st"
      ],
      [
        "Ġp",
        "ain"
      ],
      [
        "Ġre",
        "ached"
      ],
      [
        "e",
        "y"
      ],
      [
        "Le",
        "o"
      ],
      [
        "m",
        "er"
      ],
      [
        "T",
        "eddy"
      ],
      [
        "Ġf",
        "lo"
      ],
      [
        "Ġhe",
        "ar"
      ],
      [
        "Ġre",
        "ady"
      ],
      [
        "Ġle",
        "a"
      ],
      [
        "Ġunder",
        "st"
      ],
      [
        "'",
        "re"
      ],
      [
        "Sus",
        "ie"
      ],
      [
        "Ġs",
        "ing"
      ],
      [
        "Ġhe",
        "re"
      ],
      [
        "an",
        "ge"
      ],
      [
        "Ġstor",
        "y"
      ],
      [
        "Ġwor",
        "ld"
      ],
      [
        "Ġc",
        "re"
      ],
      [
        "Ġt",
        "ri"
      ],
      [
        "Ġon",
        "ly"
      ],
      [
        "i",
        "ver"
      ],
      [
        "Ġgl",
        "ad"
      ],
      [
        "He",
        "lp"
      ],
      [
        "at",
        "her"
      ],
      [
        "u",
        "p"
      ],
      [
        "Ġsa",
        "nd"
      ],
      [
        "Ġthr",
        "ough"
      ],
      [
        "ard",
        "s"
      ],
      [
        "Ġc",
        "r"
      ],
      [
        "Ġbu",
        "nny"
      ],
      [
        "p",
        "h"
      ],
      [
        "S",
        "orry"
      ],
      [
        "re",
        "l"
      ],
      [
        "Ġflow",
        "er"
      ],
      [
        "Ġhim",
        "self"
      ],
      [
        "Ġfi",
        "re"
      ],
      [
        "M",
        "e"
      ],
      [
        "Ġ",
        "John"
      ],
      [
        "Ġdel",
        "ic"
      ],
      [
        "Ġt",
        "ired"
      ],
      [
        "Ġha",
        "ving"
      ],
      [
        "Ġso",
        "ft"
      ],
      [
        "Ġm",
        "ess"
      ],
      [
        "Ġbutter",
        "f"
      ],
      [
        "To",
        "day"
      ],
      [
        "Ġd",
        "one"
      ],
      [
        "Ġ",
        "Let"
      ],
      [
        "Ġth",
        "ing"
      ],
      [
        "at",
        "ion"
      ],
      [
        "Ġst",
        "e"
      ],
      [
        "Ġwh",
        "y"
      ],
      [
        "Ġc",
        "ut"
      ],
      [
        "one",
        "y"
      ],
      [
        "Ġt",
        "ast"
      ],
      [
        "Ġp",
        "art"
      ],
      [
        "et",
        "s"
      ],
      [
        "in",
        "s"
      ],
      [
        "Ġmag",
        "ic"
      ],
      [
        "Ġwa",
        "ved"
      ],
      [
        "Ġshout",
        "ed"
      ],
      [
        "Ġwor",
        "ry"
      ],
      [
        "Ġd",
        "uck"
      ],
      [
        "Ġg",
        "rand"
      ],
      [
        "Ġg",
        "ame"
      ],
      [
        "Ġsh",
        "o"
      ],
      [
        "Ġkid",
        "s"
      ],
      [
        "Ġse",
        "es"
      ],
      [
        "Ġex",
        "p"
      ],
      [
        "ill",
        "ed"
      ],
      [
        "er",
        "ed"
      ],
      [
        "E",
        "ventually"
      ],
      [
        "Ġpie",
        "ce"
      ],
      [
        "Lo",
        "la"
      ],
      [
        "g",
        "g"
      ],
      [
        "Ġpo",
        "nd"
      ],
      [
        "Ġm",
        "aking"
      ],
      [
        "Ġcat",
        "ch"
      ],
      [
        "Ġt",
        "hank"
      ],
      [
        "Ġcom",
        "ing"
      ],
      [
        "ke",
        "y"
      ],
      [
        "Ġ",
        "Dad"
      ],
      [
        "Ġl",
        "ess"
      ],
      [
        "Ġc",
        "ool"
      ],
      [
        "Ġfi",
        "x"
      ],
      [
        "Ġus",
        "ed"
      ],
      [
        "Ġl",
        "ady"
      ],
      [
        "Ġse",
        "en"
      ],
      [
        "Ġ",
        "P"
      ],
      [
        "Ġst",
        "ar"
      ],
      [
        "Ġho",
        "pped"
      ],
      [
        "Ġd",
        "ark"
      ],
      [
        "ow",
        "l"
      ],
      [
        "\"",
        "."
      ],
      [
        "Ġ",
        "Joe"
      ],
      [
        "Ġto",
        "p"
      ],
      [
        "Ma",
        "ndy"
      ],
      [
        "Ġsurpr",
        "ise"
      ],
      [
        "Ġ",
        "Can"
      ],
      [
        "le",
        "x"
      ],
      [
        "Ġpr",
        "om"
      ],
      [
        "ap",
        "er"
      ],
      [
        "Ġc",
        "ra"
      ],
      [
        "Ġm",
        "um"
      ],
      [
        "Ġfu",
        "ll"
      ],
      [
        "h",
        "ind"
      ],
      [
        "Ġop",
        "en"
      ],
      [
        "Ġfu",
        "nny"
      ],
      [
        "m",
        "ed"
      ],
      [
        "Ġtou",
        "ch"
      ],
      [
        "E",
        "nd"
      ],
      [
        "N",
        "em"
      ],
      [
        "W",
        "ill"
      ],
      [
        "Nem",
        "o"
      ],
      [
        "Ġsurpr",
        "ised"
      ],
      [
        "Ġd",
        "ro"
      ],
      [
        "Ġ",
        "-"
      ],
      [
        "Ġha",
        "ir"
      ],
      [
        "Ġj",
        "o"
      ],
      [
        "Ġsp",
        "ot"
      ],
      [
        "ĠBen",
        "ny"
      ],
      [
        "Ġper",
        "f"
      ],
      [
        "Ġ",
        "ice"
      ],
      [
        "Ġ",
        "Do"
      ],
      [
        "Ġwor",
        "ked"
      ],
      [
        "Ġdo",
        "ing"
      ],
      [
        "Ġpar",
        "ents"
      ],
      [
        "Ġl",
        "ight"
      ],
      [
        "Ġfr",
        "og"
      ],
      [
        "Ġtre",
        "es"
      ],
      [
        "n",
        "g"
      ],
      [
        "Ġcl",
        "ose"
      ],
      [
        "Ġtal",
        "k"
      ],
      [
        "Ġsw",
        "ing"
      ],
      [
        "B",
        "rown"
      ],
      [
        "Ġ",
        "That"
      ],
      [
        "Ġw",
        "ear"
      ],
      [
        "Ġh",
        "un"
      ],
      [
        "Ell",
        "ie"
      ],
      [
        "Ġsa",
        "t"
      ],
      [
        "Ġpret",
        "end"
      ],
      [
        "i",
        "ke"
      ],
      [
        "ck",
        "ed"
      ],
      [
        "on",
        "y"
      ],
      [
        "e",
        "ad"
      ],
      [
        "c",
        "o"
      ],
      [
        "Ġcareful",
        "ly"
      ],
      [
        "Ġre",
        "ad"
      ],
      [
        "Ġw",
        "ood"
      ],
      [
        "r",
        "en"
      ],
      [
        "st",
        "ead"
      ],
      [
        "Ġru",
        "nn"
      ],
      [
        "Ġs",
        "low"
      ],
      [
        "Ġneed",
        "ed"
      ],
      [
        "ĠI",
        "n"
      ],
      [
        "Da",
        "ve"
      ],
      [
        "Ġdelic",
        "ious"
      ],
      [
        "Ġho",
        "le"
      ],
      [
        "Ġm",
        "ouse"
      ],
      [
        "Re",
        "x"
      ],
      [
        "Ġblo",
        "cks"
      ],
      [
        "Ġsw",
        "im"
      ],
      [
        "as",
        "k"
      ],
      [
        "Ġhe",
        "ld"
      ],
      [
        "Ġremember",
        "ed"
      ],
      [
        "Ġco",
        "ld"
      ],
      [
        "Ġs",
        "et"
      ],
      [
        "Ġd",
        "ri"
      ],
      [
        "You",
        "r"
      ],
      [
        "ig",
        "g"
      ],
      [
        "Ġbe",
        "hind"
      ],
      [
        "Ġlo",
        "st"
      ],
      [
        "Ġ",
        "S"
      ],
      [
        "Ġlook",
        "s"
      ],
      [
        "Ġrunn",
        "ing"
      ],
      [
        "Ġher",
        "self"
      ],
      [
        "Ġbutterf",
        "ly"
      ],
      [
        "Ġg",
        "i"
      ],
      [
        "Ġt",
        "ight"
      ],
      [
        "Ġc",
        "ried"
      ],
      [
        "G",
        "e"
      ],
      [
        "O",
        "w"
      ],
      [
        "ll",
        "ie"
      ],
      [
        "Ġhapp",
        "ily"
      ],
      [
        "Ġnam",
        "e"
      ],
      [
        "Ġenjoy",
        "ed"
      ],
      [
        "Ġs",
        "leep"
      ],
      [
        "Ġb",
        "ag"
      ],
      [
        "Ġyear",
        "s"
      ],
      [
        "Ge",
        "or"
      ],
      [
        "Ġw",
        "ished"
      ],
      [
        "ar",
        "ry"
      ],
      [
        "Ġflo",
        "or"
      ],
      [
        "Ġan",
        "other"
      ],
      [
        "Ġar",
        "ri"
      ],
      [
        "i",
        "re"
      ],
      [
        "Ġbu",
        "y"
      ],
      [
        "Mr",
        "s"
      ],
      [
        "Ġwind",
        "ow"
      ],
      [
        "Ġmo",
        "ve"
      ],
      [
        "Ġa",
        "ir"
      ],
      [
        "i",
        "ent"
      ],
      [
        "Ġt",
        "all"
      ],
      [
        "Ġcar",
        "s"
      ],
      [
        "u",
        "ed"
      ],
      [
        "Bob",
        "by"
      ],
      [
        "We",
        "ll"
      ],
      [
        "Ġh",
        "ill"
      ],
      [
        "Tweet",
        "y"
      ],
      [
        "Ġlaug",
        "h"
      ],
      [
        "ir",
        "rel"
      ],
      [
        "am",
        "es"
      ],
      [
        "Ġdra",
        "w"
      ],
      [
        "Geor",
        "ge"
      ],
      [
        "Ġfin",
        "ished"
      ],
      [
        "inn",
        "er"
      ],
      [
        "Ġless",
        "on"
      ],
      [
        "re",
        "w"
      ],
      [
        "Ġchild",
        "ren"
      ],
      [
        "Pet",
        "e"
      ],
      [
        "Ġli",
        "kes"
      ],
      [
        "Ġp",
        "aper"
      ],
      [
        "ug",
        "g"
      ],
      [
        "re",
        "ed"
      ],
      [
        "Ġ",
        "After"
      ],
      [
        "Ġho",
        "ld"
      ],
      [
        "Ġwr",
        "ong"
      ],
      [
        "c",
        "le"
      ],
      [
        "Ġpr",
        "ince"
      ],
      [
        "N",
        "e"
      ],
      [
        "Ġarri",
        "ved"
      ],
      [
        "Ġ",
        "Daisy"
      ],
      [
        "Ġunderst",
        "and"
      ],
      [
        "ro",
        "om"
      ],
      [
        "Ġb",
        "us"
      ],
      [
        "Ġany",
        "thing"
      ],
      [
        "b",
        "o"
      ],
      [
        "Ġcont",
        "in"
      ],
      [
        "Ġle",
        "ft"
      ],
      [
        "ro",
        "ss"
      ],
      [
        "Ġg",
        "ent"
      ],
      [
        "ig",
        "n"
      ],
      [
        "Ġab",
        "le"
      ],
      [
        "Ġwa",
        "ll"
      ],
      [
        "u",
        "d"
      ],
      [
        "r",
        "ot"
      ],
      [
        "Ġh",
        "op"
      ],
      [
        "or",
        "al"
      ],
      [
        "as",
        "ure"
      ],
      [
        "k",
        "en"
      ],
      [
        "at",
        "ter"
      ],
      [
        "ie",
        "ld"
      ],
      [
        "Ġfriend",
        "ly"
      ],
      [
        "Ġ",
        "J"
      ],
      [
        "Ġ",
        "Sally"
      ],
      [
        "Ġforg",
        "ot"
      ],
      [
        "Ġe",
        "l"
      ],
      [
        "Ġ",
        "C"
      ],
      [
        "Ġd",
        "ir"
      ],
      [
        "Ġd",
        "ream"
      ],
      [
        "Ġg",
        "one"
      ],
      [
        "at",
        "ed"
      ],
      [
        "ang",
        "er"
      ],
      [
        "ob",
        "y"
      ],
      [
        "Ġw",
        "et"
      ],
      [
        "S",
        "ee"
      ],
      [
        "Ġf",
        "illed"
      ],
      [
        "c",
        "ome"
      ],
      [
        "Ġcook",
        "ies"
      ],
      [
        "Ġd",
        "inner"
      ],
      [
        ".",
        "âĢĿ"
      ],
      [
        "Ġh",
        "ot"
      ],
      [
        "Ġbro",
        "ken"
      ],
      [
        "R",
        "ose"
      ],
      [
        "Ġel",
        "se"
      ],
      [
        "Ġh",
        "id"
      ],
      [
        "at",
        "ch"
      ],
      [
        "D",
        "an"
      ],
      [
        "D",
        "ucky"
      ],
      [
        "u",
        "it"
      ],
      [
        "ou",
        "p"
      ],
      [
        "Ġre",
        "s"
      ],
      [
        "Ġcolor",
        "s"
      ],
      [
        "Ġa",
        "rm"
      ],
      [
        "Ġfollow",
        "ed"
      ],
      [
        "Ġp",
        "ink"
      ],
      [
        "Ġbu",
        "ild"
      ],
      [
        "Ġf",
        "l"
      ],
      [
        "Ġt",
        "able"
      ],
      [
        "Ġwonder",
        "ful"
      ],
      [
        "ph",
        "ie"
      ],
      [
        "Ġpu",
        "ppy"
      ],
      [
        "f",
        "ort"
      ],
      [
        "Ġy",
        "es"
      ],
      [
        "Ġcontin",
        "ued"
      ],
      [
        "Ġm",
        "ight"
      ],
      [
        "Ġm",
        "orn"
      ],
      [
        "Ġfin",
        "ally"
      ],
      [
        "Ne",
        "xt"
      ],
      [
        "!",
        "âĢĿ"
      ],
      [
        "Ġr",
        "a"
      ],
      [
        "Ġen",
        "ough"
      ],
      [
        "Ġperf",
        "ect"
      ],
      [
        "Ġ",
        "Billy"
      ],
      [
        "Ġstay",
        "ed"
      ],
      [
        "Ġ",
        "Now"
      ],
      [
        "Ġbook",
        "s"
      ],
      [
        "B",
        "lue"
      ],
      [
        "r",
        "ow"
      ],
      [
        "Ġmorn",
        "ing"
      ],
      [
        "Ġca",
        "st"
      ],
      [
        "Ġfa",
        "ir"
      ],
      [
        "Ġdad",
        "dy"
      ],
      [
        "Ġsome",
        "one"
      ],
      [
        "n",
        "a"
      ],
      [
        "ĠThe",
        "re"
      ],
      [
        "B",
        "ear"
      ],
      [
        "a",
        "v"
      ],
      [
        "i",
        "cy"
      ],
      [
        "Mi",
        "ke"
      ],
      [
        "Ġother",
        "s"
      ],
      [
        "Ġag",
        "reed"
      ],
      [
        "Ġtry",
        "ing"
      ],
      [
        "Ġ",
        "Lila"
      ],
      [
        "'",
        "ll"
      ],
      [
        "Ġm",
        "us"
      ],
      [
        "Ġf",
        "all"
      ],
      [
        "Ġget",
        "ting"
      ],
      [
        "Ġc",
        "ream"
      ],
      [
        "Ġgrand",
        "ma"
      ],
      [
        "i",
        "ch"
      ],
      [
        "Ġb",
        "aby"
      ],
      [
        "Ġb",
        "ar"
      ],
      [
        "Ġsn",
        "ow"
      ],
      [
        "Ġ",
        "M"
      ],
      [
        "Ġsqu",
        "irrel"
      ],
      [
        "Ġm",
        "other"
      ],
      [
        "dd",
        "y"
      ],
      [
        "Ġcre",
        "at"
      ],
      [
        "H",
        "a"
      ],
      [
        "Ġlea",
        "ves"
      ],
      [
        "Ġfe",
        "w"
      ],
      [
        "Ġbre",
        "ak"
      ],
      [
        "Ġ",
        "This"
      ],
      [
        "Ġv",
        "is"
      ],
      [
        "W",
        "ould"
      ],
      [
        "Ġb",
        "ug"
      ],
      [
        "Ġclimb",
        "ed"
      ],
      [
        "ri",
        "es"
      ],
      [
        "en",
        "ce"
      ],
      [
        "Ġbr",
        "ought"
      ],
      [
        "Ġbe",
        "ach"
      ],
      [
        "Ġp",
        "lease"
      ],
      [
        "Ġm",
        "et"
      ],
      [
        "Ġde",
        "ep"
      ],
      [
        "ĠTom",
        "my"
      ],
      [
        "er",
        "ry"
      ],
      [
        "Ġmom",
        "ent"
      ],
      [
        "g",
        "on"
      ],
      [
        "pp",
        "ing"
      ],
      [
        "Ġsomet",
        "imes"
      ],
      [
        "m",
        "an"
      ],
      [
        "Ġevery",
        "thing"
      ],
      [
        "Ġmus",
        "ic"
      ],
      [
        "or",
        "ing"
      ],
      [
        "Ġtra",
        "in"
      ],
      [
        "Ġli",
        "on"
      ],
      [
        "Ġtur",
        "ned"
      ],
      [
        "Ġhun",
        "gry"
      ],
      [
        "Ġf",
        "ight"
      ],
      [
        "Ġwas",
        "n"
      ],
      [
        "c",
        "ed"
      ],
      [
        "Ġs",
        "ong"
      ],
      [
        "Ġm",
        "iss"
      ],
      [
        "Ġpicture",
        "s"
      ],
      [
        "A",
        "lex"
      ],
      [
        "Ġr",
        "ide"
      ],
      [
        "d",
        "s"
      ],
      [
        "g",
        "er"
      ],
      [
        "Ġm",
        "akes"
      ],
      [
        "Ġj",
        "oy"
      ],
      [
        "Ġp",
        "ol"
      ],
      [
        "Ġcl",
        "ot"
      ],
      [
        "And",
        "y"
      ],
      [
        "Ġf",
        "la"
      ],
      [
        "Ġlist",
        "ened"
      ],
      [
        "i",
        "x"
      ],
      [
        "m",
        "b"
      ],
      [
        "Ġse",
        "ar"
      ],
      [
        "l",
        "ing"
      ],
      [
        "Ġclot",
        "hes"
      ],
      [
        "C",
        "har"
      ],
      [
        "Ġsp",
        "ark"
      ],
      [
        "Ġ",
        "What"
      ],
      [
        "Ġsm",
        "ell"
      ],
      [
        "is",
        "ter"
      ],
      [
        "T",
        "oby"
      ],
      [
        "d",
        "e"
      ],
      [
        "B",
        "aby"
      ],
      [
        "Ġpo",
        "in"
      ],
      [
        "en",
        "ny"
      ],
      [
        "Ġt",
        "eddy"
      ],
      [
        "Tweet",
        "ie"
      ],
      [
        "Bob",
        "o"
      ],
      [
        "Ġwant",
        "s"
      ],
      [
        "Ġfly",
        "ing"
      ],
      [
        "Ġpl",
        "an"
      ],
      [
        "Ġstr",
        "ange"
      ],
      [
        "Brown",
        "ie"
      ],
      [
        "pp",
        "er"
      ],
      [
        "Ġj",
        "u"
      ],
      [
        "Ġscar",
        "y"
      ],
      [
        "us",
        "hed"
      ],
      [
        "So",
        "phie"
      ],
      [
        "Grand",
        "pa"
      ],
      [
        "Ġc",
        "ount"
      ],
      [
        "Ġamaz",
        "ed"
      ],
      [
        "Ġwa",
        "ited"
      ],
      [
        "Ġe",
        "le"
      ],
      [
        "Ġamaz",
        "ing"
      ],
      [
        "a",
        "ught"
      ],
      [
        "U",
        "n"
      ],
      [
        "Ġtre",
        "at"
      ],
      [
        "O",
        "K"
      ],
      [
        "l",
        "ly"
      ],
      [
        "ct",
        "or"
      ],
      [
        "B",
        "ill"
      ],
      [
        "H",
        "o"
      ],
      [
        "Lu",
        "ck"
      ],
      [
        "Ġle",
        "ave"
      ],
      [
        "B",
        "y"
      ],
      [
        "Ġd",
        "anger"
      ],
      [
        "P",
        "e"
      ],
      [
        "Ġs",
        "uch"
      ],
      [
        "Ġown",
        "er"
      ],
      [
        "Ġcast",
        "le"
      ],
      [
        "H",
        "arry"
      ],
      [
        "K",
        "im"
      ],
      [
        "Ġm",
        "ar"
      ],
      [
        "Ġwh",
        "ite"
      ],
      [
        "th",
        "y"
      ],
      [
        "bb",
        "les"
      ],
      [
        "p",
        "es"
      ],
      [
        "Ġprom",
        "ised"
      ],
      [
        "Ġshar",
        "ed"
      ],
      [
        "Ġwood",
        "s"
      ],
      [
        "Ġ",
        "Maybe"
      ],
      [
        "When",
        "ever"
      ],
      [
        "Ġn",
        "ap"
      ],
      [
        "Ġpull",
        "ed"
      ],
      [
        "ons",
        "ter"
      ],
      [
        "Ġf",
        "ur"
      ],
      [
        "Ġp",
        "re"
      ],
      [
        "Ġvis",
        "it"
      ],
      [
        "Ġs",
        "it"
      ],
      [
        "ate",
        "ful"
      ],
      [
        "Ġcolor",
        "ful"
      ],
      [
        "Ġmagic",
        "al"
      ],
      [
        "Ġ",
        "Amy"
      ],
      [
        "A",
        "b"
      ],
      [
        "Ġr",
        "iver"
      ],
      [
        "Ġbe",
        "lie"
      ],
      [
        "Ġal",
        "one"
      ],
      [
        "Ġtow",
        "ards"
      ],
      [
        "Ġm",
        "onster"
      ],
      [
        "Ġst",
        "u"
      ],
      [
        "Joe",
        "y"
      ],
      [
        "av",
        "y"
      ],
      [
        "Mar",
        "ia"
      ],
      [
        "Ġt",
        "ail"
      ],
      [
        "Ġgr",
        "ateful"
      ],
      [
        "Ġsmile",
        "s"
      ],
      [
        "o",
        "om"
      ],
      [
        "Ġg",
        "u"
      ],
      [
        "Ġh",
        "ide"
      ],
      [
        "or",
        "d"
      ],
      [
        "Ġs",
        "ide"
      ],
      [
        "Ġh",
        "ig"
      ],
      [
        "Ġpain",
        "t"
      ],
      [
        "Ġs",
        "illy"
      ],
      [
        "im",
        "i"
      ],
      [
        "zz",
        "y"
      ],
      [
        "on",
        "es"
      ],
      [
        "an",
        "ce"
      ],
      [
        "Ġla",
        "nd"
      ],
      [
        "Ġm",
        "oral"
      ],
      [
        "le",
        "ss"
      ],
      [
        "i",
        "et"
      ],
      [
        "s",
        "et"
      ],
      [
        "Ġd",
        "a"
      ],
      [
        "Ġro",
        "ll"
      ],
      [
        "Ġslow",
        "ly"
      ],
      [
        "T",
        "ony"
      ],
      [
        "Ġs",
        "ec"
      ],
      [
        "Ġpa",
        "ss"
      ],
      [
        "er",
        "t"
      ],
      [
        "Ġf",
        "ield"
      ],
      [
        "Ġk",
        "ite"
      ],
      [
        "z",
        "e"
      ],
      [
        "el",
        "ly"
      ],
      [
        "Ġsn",
        "ack"
      ],
      [
        "us",
        "ed"
      ],
      [
        "Ġs",
        "ister"
      ],
      [
        "h",
        "one"
      ],
      [
        "Ġj",
        "ob"
      ],
      [
        "Ġfa",
        "ster"
      ],
      [
        "Ġtre",
        "asure"
      ],
      [
        "Ġhelp",
        "ing"
      ],
      [
        "Ġwor",
        "ried"
      ],
      [
        "am",
        "p"
      ],
      [
        "Ġqu",
        "iet"
      ],
      [
        "un",
        "ch"
      ],
      [
        "Ġgr",
        "ow"
      ],
      [
        "G",
        "ra"
      ],
      [
        "N",
        "ot"
      ],
      [
        "Ġpart",
        "y"
      ],
      [
        "ets",
        "y"
      ],
      [
        "Ġm",
        "in"
      ],
      [
        "Ġm",
        "oney"
      ],
      [
        "Ġmo",
        "st"
      ],
      [
        "or",
        "m"
      ],
      [
        "Ġli",
        "ving"
      ],
      [
        "Thank",
        "s"
      ],
      [
        "Ġm",
        "ust"
      ],
      [
        "Ġexc",
        "it"
      ],
      [
        "Ġac",
        "c"
      ],
      [
        "or",
        "k"
      ],
      [
        "ou",
        "n"
      ],
      [
        "Ġexp",
        "la"
      ],
      [
        "ar",
        "y"
      ],
      [
        "I",
        "s"
      ],
      [
        "Ġp",
        "ot"
      ],
      [
        "Ġfo",
        "x"
      ],
      [
        "i",
        "pped"
      ],
      [
        "a",
        "pp"
      ],
      [
        "il",
        "ing"
      ],
      [
        "Ġca",
        "ndy"
      ],
      [
        "Ġprince",
        "ss"
      ],
      [
        "R",
        "ed"
      ],
      [
        "Fr",
        "ed"
      ],
      [
        "Ġc",
        "up"
      ],
      [
        "Ġl",
        "ake"
      ],
      [
        "Ġcar",
        "rot"
      ],
      [
        "out",
        "h"
      ],
      [
        "Ġevery",
        "where"
      ],
      [
        "ask",
        "et"
      ],
      [
        "Ġhig",
        "her"
      ],
      [
        "d",
        "er"
      ],
      [
        "Ġbl",
        "ank"
      ],
      [
        "n",
        "ry"
      ],
      [
        "m",
        "e"
      ],
      [
        "Ġ",
        "All"
      ],
      [
        "Ġrun",
        "s"
      ],
      [
        "Ġste",
        "pped"
      ],
      [
        "M",
        "iss"
      ],
      [
        "S",
        "n"
      ],
      [
        "Ġm",
        "outh"
      ],
      [
        "Ġbig",
        "ger"
      ],
      [
        "Ġ",
        "Molly"
      ],
      [
        "Ġjo",
        "in"
      ],
      [
        "Y",
        "ay"
      ],
      [
        "Ġclos",
        "ed"
      ],
      [
        "Ġdan",
        "ce"
      ],
      [
        "Ġb",
        "uck"
      ],
      [
        "on",
        "key"
      ],
      [
        "Ġsc",
        "ream"
      ],
      [
        "Ġco",
        "ll"
      ],
      [
        "is",
        "es"
      ],
      [
        "Ġbro",
        "ke"
      ],
      [
        "Ġp",
        "et"
      ],
      [
        "ha",
        "nt"
      ],
      [
        "Ġan",
        "s"
      ],
      [
        "Ġtur",
        "n"
      ],
      [
        "Ġdanger",
        "ous"
      ],
      [
        "et",
        "h"
      ],
      [
        "ear",
        "ed"
      ],
      [
        "Ġbr",
        "an"
      ],
      [
        "Ġdoll",
        "s"
      ],
      [
        "Ġw",
        "el"
      ],
      [
        "Ġb",
        "asket"
      ],
      [
        "Ġpl",
        "ant"
      ],
      [
        "Ġsp",
        "la"
      ],
      [
        "Ġ",
        "Daddy"
      ],
      [
        "Ġre",
        "ach"
      ],
      [
        "C",
        "l"
      ],
      [
        "Ġw",
        "on"
      ],
      [
        "Ġcl",
        "oud"
      ],
      [
        "Char",
        "lie"
      ],
      [
        "Ġte",
        "ac"
      ],
      [
        "Ġhe",
        "avy"
      ],
      [
        "Ġwould",
        "n"
      ],
      [
        "Ġtow",
        "n"
      ],
      [
        "Ġb",
        "ot"
      ],
      [
        "p",
        "hant"
      ],
      [
        "St",
        "e"
      ],
      [
        "Ġcha",
        "ir"
      ],
      [
        "Ġask",
        "s"
      ],
      [
        "Ġr",
        "ace"
      ],
      [
        "Go",
        "d"
      ],
      [
        "Ġe",
        "ar"
      ],
      [
        "b",
        "r"
      ],
      [
        "Ġthink",
        "s"
      ],
      [
        "un",
        "a"
      ],
      [
        "Ġpiece",
        "s"
      ],
      [
        "r",
        "ed"
      ],
      [
        "Ġeat",
        "ing"
      ],
      [
        "Ġp",
        "ack"
      ],
      [
        "Every",
        "thing"
      ],
      [
        "Ġdis",
        "app"
      ],
      [
        "Ġac",
        "ross"
      ],
      [
        "i",
        "er"
      ],
      [
        "Ġb",
        "ike"
      ],
      [
        "ap",
        "a"
      ],
      [
        "Be",
        "fore"
      ],
      [
        "Ġfr",
        "uit"
      ],
      [
        "Ġbelie",
        "ve"
      ],
      [
        "Ġ",
        "ve"
      ],
      [
        "Ġfar",
        "mer"
      ],
      [
        "es",
        "e"
      ],
      [
        "o",
        "st"
      ],
      [
        "Ġ",
        "F"
      ],
      [
        "Ġst",
        "uck"
      ],
      [
        "a",
        "re"
      ],
      [
        "Mi",
        "llie"
      ],
      [
        "Ġans",
        "wer"
      ],
      [
        "Ġc",
        "han"
      ],
      [
        "Ġne",
        "igh"
      ],
      [
        "Ġcry",
        "ing"
      ],
      [
        "Ġsu",
        "ddenly"
      ],
      [
        "or",
        "y"
      ],
      [
        "or",
        "ed"
      ],
      [
        "Gra",
        "ce"
      ],
      [
        "Ġs",
        "oup"
      ],
      [
        "id",
        "ent"
      ],
      [
        "Ġth",
        "rew"
      ],
      [
        "ate",
        "ly"
      ],
      [
        "Ġneigh",
        "b"
      ],
      [
        "o",
        "c"
      ],
      [
        "Ġg",
        "if"
      ],
      [
        "ck",
        "et"
      ],
      [
        "un",
        "g"
      ],
      [
        "Bu",
        "ddy"
      ],
      [
        "Ġdir",
        "ty"
      ],
      [
        "Ġyou",
        "ng"
      ],
      [
        "Ġm",
        "onkey"
      ],
      [
        "Ġele",
        "phant"
      ],
      [
        "Ġk",
        "iss"
      ],
      [
        "M",
        "imi"
      ],
      [
        "u",
        "b"
      ],
      [
        "al",
        "thy"
      ],
      [
        "ch",
        "ool"
      ],
      [
        "Bu",
        "nny"
      ],
      [
        "n",
        "ey"
      ],
      [
        "r",
        "ay"
      ],
      [
        "Ġdr",
        "ink"
      ],
      [
        "Ġf",
        "ree"
      ],
      [
        "Ġsa",
        "me"
      ],
      [
        "Ġteac",
        "her"
      ],
      [
        "i",
        "ble"
      ],
      [
        "Ġp",
        "ers"
      ]
    ]
  }
}